#version: 0.2
Ġ t
Ġ a
e r
i n
o n
e n
h e
t i
r e
_ _
Ġ o
e s
Ġt he
a n
o r
Ġ s
Ġ p
a l
i s
a t
e d
Ġ d
a r
Ġ c
ti on
i t
Ġo f
n d
r o
Ġ f
__ __
Ġ in
en t
Ġ 1
in g
Ġ |
i c
0 0
Ġ b
Ġ w
l e
Ġa nd
Ġ m
Ġt o
Ġ č
Ġ 2
a s
â Ģ
e c
Ġ S
- -
Ġ re
o m
Ġ C
a tion
e l
u r
i l
Ġ A
u s
Ġ e
Ġt h
Ġ l
Ġ n
m ent
Ġ (
e t
o s
____ ____
u n
i d
a c
Ċ Ġ
ĉ ĉ
o l
Ġ T
Ġ P
Ġ 3
u l
Ġ M
Ġ h
Ġd e
ĊĠ Ġ
Ġ I
Ġf or
u t
ĊĠĠ Ġ
Ġp ro
r a
c e
v e
c h
o t
r i
Ġ R
er s
ĊĠĠĠ Ġ
Ġ D
0 1
Ġ v
Ġ F
Ġ E
at e
i m
s t
Ġc on
i on
a d
Ġo r
q u
a b
e m
âĢ ĵ
t h
Ã ©
Ġ 4
Ġ g
-- --
Ġb e
Ġ B
t er
Ġ N
ĊĠĠĠĠ Ġ
Ġs u
re s
i g
Ġ on
ĊĠĠĠĠĠ Ġ
a g
Ġa s
p p
Ġ is
i r
Ġa n
t s
a y
a m
Ġ L
Ġth at
an d
o w
ĊĠĠĠĠĠĠ Ġ
l y
u nd
ï ¿
en d
it h
Ġ .
Ġ 5
c t
ï¿ ¾
Ġ O
Ġ H
o d
is t
v er
________ ________
ĊĠĠĠĠĠĠĠ Ġ
c i
Ġc om
es t
u m
es s
u d
Ġs t
i f
ĊĠĠĠĠĠĠĠĠ Ġ
Ġb y
Ġ G
it y
Ġ 6
Ġw ith
i e
Ġe x
or t
il l
Ġ 0
Ġ k
an t
ĊĠĠĠĠĠĠĠĠĠ Ġ
Ġ W
Ġa l
Ġ Î
Ġ U
f f
ĊĠĠĠĠĠĠĠĠĠĠ Ġ
Ġw h
ĉĉ ĉĉ
s e
Ġ en
Ã ¡
ĠS t
al l
b er
Ġ âĢĵ
Ã ¤
Ġ2 00
âĢ Ķ
Ġ y
an s
Ġ 7
Ġ r
ĊĠĠĠĠĠĠĠĠĠĠĠ Ġ
i v
0 2
t e
Ġa re
ic h
# #
f or
ation s
i re
âĢ Ļ
er e
a k
o p
Ġth is
ar y
Î ¿
Ġ 8
1 0
o c
Ï Ħ
ec tion
a in
Ġp ar
e p
ĊĠĠĠĠĠĠĠĠĠĠĠĠ Ġ
9 9
Ġa c
ĠC om
Î ±
at ed
u b
Ġs h
ab le
ĊĠĠĠĠĠĠĠĠĠĠĠĠĠ Ġ
2 00
Ġ J
o ur
* *
i z
Ġa t
Ġa pp
Ġ und
ĠT he
---- ----
ĊĠĠĠĠĠĠĠĠĠĠĠĠĠĠ Ġ
Ġn ot
u re
l ic
ro m
O N
c l
Ġ 9
1 2
Ġl a
u p
ar d
u c
Ġ j
i ti
Î ¹
g e
o un
Ċ Ċ
an ce
Ġa d
ment s
Ġ. .
er v
o re
a ti
us t
ec t
Ġ.. .
Ġ le
p l
1 1
Ġ -
00 0
E R
Ġ V
th er
ĠI n
p er
Ġp er
Ġ2 01
Ġ... .
Ã Ń
ĊĠĠĠĠĠĠĠĠĠĠĠĠĠĠĠ Ġ
Ġ K
i a
Ġ.... .
Ġ..... .
e g
Ġ it
e ar
is s
Ġ...... .
Ã ³
Ġre s
Ġ....... .
ag e
ĊĠĠĠĠĠĠĠĠĠĠĠĠĠĠĠĠ Ġ
a p
o v
Ġ........ .
Ġsu b
Ġf rom
Ġ1 0
p os
Ġ......... .
for m
i es
Î ½
Ġ.......... .
Ġ un
el l
u g
m in
ĊĠĠĠĠĠĠĠĠĠĠĠĠĠĠĠĠĠ Ġ
E N
Ġ........... .
Ġ1 9
us e
ic e
Ġ $
Ġ............ .
en s
Ġcon t
m it
E S
1 5
or d
Ġ............. .
Ġ z
ti c
Ġ.............. .
at es
1 3
i tion
ĊĠĠĠĠĠĠĠĠĠĠĠĠĠĠĠĠĠĠ Ġ
o ul
Ġ............... .
t o
1 4
Ġ................ .
ĊĠĠĠĠĠĠĠĠĠĠĠĠĠĠĠĠĠĠĠ Ġ
Ġ................. .
T I
Ġh a
Ġund er
i k
Ï ģ
v el
Ġ im
Ġ.................. .
o g
2 0
1 9
Ġ................... .
p ort
ar t
Ġ he
________________ ________________
Ġd es
5 0
er al
Î µ
a re
in e
1 6
ac h
) ,
or k
oul d
Ġpro v
Ï ĥ
ro p
Ġa m
ĊĠĠĠĠĠĠĠĠĠĠĠĠĠĠĠĠĠĠĠĠ Ġ
3 0
Ġ qu
h t
ac t
Ġ.................... .
ĊĠĠĠĠĠĠĠĠĠĠĠĠĠĠĠĠĠĠĠĠĠ Ġ
Ġc h
Ġcom p
Ġ..................... .
t he
cl ud
u e
n e
Ġs p
Ġ...................... .
Ġs e
2 5
O R
Ġre qu
1 7
T he
i b
ĊĠĠĠĠĠĠĠĠĠĠĠĠĠĠĠĠĠĠĠĠĠĠ Ġ
Ġan y
Ġ....................... .
oun t
ĠC on
ig n
) .
I N
Ġw e
Ġ........................ .
Ã ¶
1 8
2 01
as s
Ġ......................... .
Ġal l
a v
Ġsu ch
Ï Ģ
ol l
ti ve
f er
âĢ ĺ
Î ·
res s
Ġ.......................... .
i o
i al
ra m
Ġa g
as t
Ġha ve
m iss
u al
Ġ........................... .
iti es
A L
Ġwh ich
Ġo ther
Ï Ĥ
Ġcon s
Ġ............................ .
as e
Ġ1 2
e w
o ver
m er
Ġre g
Ġ............................. .
ĊĠĠĠĠĠĠĠĠĠĠĠĠĠĠĠĠĠĠĠĠĠĠĠ Ġ
A N
or s
Ġw as
c om
i p
l l
ĠU n
os t
4 0
Ġt r
en ce
Ġ.............................. .
Ġsh all
tion s
Ġ --
l a
Ġp r
un g
ation al
Ġ............................... .
miss ion
Ġn o
a il
Ġ Ã
Ġin d
Ġd o
re d
Ġas s
o ut
Ġ................................ .
Ġ Â
f ic
at er
k s
Ġw ill
7 5
Ġ................................. .
6 0
Ġm e
Ġp l
ti t
Ġ.................................. .
Ġ-- -
A R
d er
Ġy ear
Ġd is
3 3
2 2
it ed
Ġ................................... .
Ï ħ
o u
en c
Ġm ay
g ram
ĊĠĠĠĠĠĠĠĠĠĠĠĠĠĠĠĠĠĠĠĠĠĠĠĠ Ġ
s u
d uc
Ġs ection
Ġ1 5
ti m
Ġ.................................... .
8 0
e x
Ġ1 3
8 7
ri b
Ġh as
ic al
) (
r u
em ber
Ġprov id
r y
Ġ..................................... .
Ġp re
i ed
Ġin clud
on s
en ti
c c
Ġ...................................... .
Ġf in
2 4
d u
p h
ĊĠĠĠĠĠĠĠĠĠĠĠĠĠĠĠĠĠĠĠĠĠĠĠĠĠ Ġ
7 3
ĠS ec
e f
Ġ....................................... .
Ġa b
ĊĠĠĠĠĠĠĠĠĠĠĠĠĠĠĠĠĠĠĠĠĠĠĠĠĠĠ Ġ
an y
' s
o y
Ġ........................................ .
2 3
Ã³ n
is ion
re e
ĠM r
Ġo ur
Ġs erv
Ġ1 4
2 9
-------- --------
Å ¡
Ġ......................................... .
ul t
E C
o f
Ġ1 1
re t
ĠP ro
Ä į
Ġo b
Ġin ter
Ġ1 8
n ing
Ġ.......................................... .
on g
Ġw ork
ub lic
Ġac c
p ro
7 0
Ġp ur
ti v
4 5
ĠA ct
ci al
Ä ģ
Ã ¼
2 6
Ġ........................................... .
r ic
Ġa r
ĠT h
o b
Ġd er
Ġrequ ire
Ġ us
ec h
form ation
9 0
Ġ ÏĦ
Ġ............................................ .
on d
TI ON
on t
Ġ el
at a
Ġ............................................. .
8 8
3 4
3 5
et er
Ġre l
Ġ.............................................. .
Ġd el
ar k
Ġre c
Ġ1 6
Ġ2 0
ĊĠĠĠĠĠĠĠĠĠĠĠĠĠĠĠĠĠĠĠĠĠĠĠĠĠĠĠ Ġ
Ġ............................................... .
U R
is h
il ity
7 4
s s
t en
if ic
Ġ................................................ .
Ġ âĢĶ
an g
ĠC h
A T
Î ¼
2 8
Ġ ĊĠĠĠĠ
Ġ................................................. .
t ain
at ing
6 5
Ċ ĉĉĉĉ
e k
p or
mit te
in t
. ,
i j
at or
Ġe m
Ġ3 0
Ġpro c
Ġth an
ĠSt ates
d ition
s k
2 7
a x
Ġc l
Ġe t
ut h
ug h
I T
Ġa v
an c
on e
ent s
y st
is e
an ge
Ġres p
v en
4 4
Ġp ri
t y
pl oy
o k
le ct
h er
Ġ est
it s
Ġw ould
ĠE x
Ġ.................................................. .
Î º
0 5
a j
7 9
Ġtr ans
8 5
I C
Ġe ff
I n
Ġ **
oll ow
i Ã³n
Ġit s
I S
ed eral
e e
Ġ................................................... .
Î ¯
mitte e
3 6
Ġapp lic
Ġin c
enc y
a ir
e b
ĠN o
Ġs o
Ġpro gram
Ġex p
oc k
ab l
p e
ĊĠĠĠĠĠĠĠĠĠĠĠĠĠĠĠĠĠĠĠĠĠĠĠĠĠĠĠĠ Ġ
Ġa f
Ġ.................................................... .
Ġ1 7
Ã© s
uth or
ĠSt ate
os e
ati ve
Ġt er
m an
Ġo per
3 9
Ġ..................................................... .
Ġin s
ĊĠĠĠĠĠĠĠĠĠĠĠĠĠĠĠĠĠĠĠĠĠĠĠĠĠĠĠĠĠ Ġ
Ġ i
it e
ĠO F
Ġin formation
u tion
0 6
ig ht
t ed
ic es
E D
ra ph
p le
Ġ...................................................... .
Ġt im
ri g
Ġf ollow
d e
Ġcom m
8 6
2 1
el y
c ent
res ent
u rop
em b
Ġsp ec
as ed
3 1
v es
Î »
s o
ĠUn ited
p r
ĊĠĠĠĠĠĠĠĠĠĠĠĠĠĠĠĠĠĠĠĠĠĠĠĠĠĠĠĠĠĠ Ġ
o us
u le
i an
4 9
Ġm an
Ġ....................................................... .
Ġ1 99
a z
j ect
ĠR eg
Å ¾
min ist
over n
Ġthe ir
c he
R O
Ġo ut
7 6
ret ary
Ġp ay
yst em
o od
ad e
Ġ........................................................ .
8 9
ac e
Ġ u
id e
ak e
ĠA n
Ġ2 9
Ġw ere
Ġn e
i ve
âĢĺ âĢĺ
Ġm ore
4 6
Ġ es
EN T
Ġ......................................................... .
Ġ2 5
ing s
Ġ3 1
it le
v al
i er
ire ct
ol d
pp ort
en eral
A S
il d
u res
i le
n er
Ġ.......................................................... .
Ġ âĢ
ers on
ĠR e
am e
a f
end ed
Ġre port
ac k
ĠA d
ĠÂ §
al th
i i
ĊĊ ĊĊ
Ġt ra
Ï ī
A TION
Î¿ Ïħ
Ġv al
Ġ........................................................... .
a h
3 8
r it
ech n
y s
in d
Ġ up
Ġs ec
p t
ĠCom mission
ĊĠĠĠĠĠĠĠĠĠĠĠĠĠĠĠĠĠĠĠĠĠĠĠĠĠĠĠĠĠĠĠ Ġ
a u
Ï Į
om e
um ber
## #
Ġ2 02
w e
ur ing
Ġ if
k e
3 7
N D
ĠSec retary
g an
an k
a i
5 5
ro ugh
eter min
Ġbe en
m s
Ġo cc
Ġ Y
ci p
Ġ............................................................ .
i en
ĠCom p
Ġp ublic
Ä «
ĠR ep
c al
Ġ *
c tion
g et
E L
Ġ4 0
Ġqu e
ol og
Ġd ie
p ar
8 4
6 6
vel op
ter n
00 00
ion al
Ġd u
I I
Ġd ec
Ġ2 4
Ġth ere
k t
Ġpar t
ĠF or
Ġ Z
ie w
Ġ ro
Ġpro pos
ĠA r
Ġo ver
Ã ½
m e
ti es
Ġwh o
Ġtim e
Ġa uthor
st r
ag raph
____ __
ĊĠĠĠĠĠĠĠĠĠĠĠĠĠĠĠĠĠĠĠĠĠĠĠĠĠĠĠĠĠĠĠĠ Ġ
an ts
id er
ur r
Ġc an
N O
o use
iv id
os s
Ġon e
ĠA g
6 9
7 2
Ġ %
i od
Ġem ploy
iz ed
ĠC O
overn ment
3 2
id ent
________________________________ ________________________________
C E
rop ri
in ess
k a
ĊĠĠĠĠĠĠĠĠĠĠĠĠĠĠĠĠĠĠĠĠĠĠĠĠĠĠĠĠĠĠĠĠĠ Ġ
ĠM ar
Ġe ach
an cial
ill ion
Ġo p
Ġreg ul
I L
Ġd etermin
ay s
g ress
Ġal so
âĢ Ŀ
Ġin v
Ġthe se
Ġre ce
Ġt itle
et s
________________________________________________________________ ______
Ġsub s
ĠD ec
Ġ............................................................. .
ĊĠĠĠĠĠĠĠĠĠĠĠĠĠĠĠĠĠĠĠĠĠĠĠĠĠĠĠĠĠĠĠĠĠĠ Ġ
Ġ ra
Ġ ÏĢ
r ation
ĠD ep
Ġ2 1
art ment
U S
Ġf und
Ġ 00
ĠF ederal
he d
Î ¬
ow n
Ġa u
or y
IN G
Ġapp ro
Ġg ro
ĊĠĠĠĠĠĠĠĠĠĠĠĠĠĠĠĠĠĠĠĠĠĠĠĠĠĠĠĠĠĠĠĠĠĠĠ Ġ
et t
Ġth rough
a id
ĉĉ ĉ
5 9
2 02
7 8
Ġd i
ib le
Ġde f
ĠO ff
E M
as h
us iness
r ant
i el
ti l
ĠR es
Ġpro duc
Ġv an
Ġfollow ing
du ct
. âĢĶ
Ġthe y
Ġc ol
Ä ħ
ĊĠĠĠĠĠĠĠĠĠĠĠĠĠĠĠĠĠĠĠĠĠĠĠĠĠĠĠĠĠĠĠĠĠĠĠĠ Ġ
Ġ use
Ġm ed
ĠÃ ł
g y
Ġd ata
r en
Ġy ou
4 8
ĊĠĠĠĠĠĠĠĠĠĠĠĠĠĠĠĠĠĠĠĠĠĠĠĠĠĠĠĠĠĠĠĠĠĠĠĠĠ Ġ
Ġc er
ig h
Ġ "
Ġ2 6
Ġm in
Ġinclud ing
Ġt e
a w
ĊĠĠĠĠĠĠĠĠĠĠĠĠĠĠĠĠĠĠĠĠĠĠĠĠĠĠĠĠĠĠĠĠĠĠĠĠĠĠ Ġ
F R
en se
ro l
Ġre v
Ġp o
Ġc o
ac iÃ³n
Ġyear s
ich t
Ġ2 2
Î ®
i ent
Ġ2 3
Ġp ol
ĠS en
Ġ.............................................................. .
7 7
Ġb ut
l and
ĊĠĠĠĠĠĠĠĠĠĠĠĠĠĠĠĠĠĠĠĠĠĠĠĠĠĠĠĠĠĠĠĠĠĠĠĠĠĠĠ Ġ
b e
Ġl oc
ĠW e
ĠE urop
Ġ [
age ment
Ġp erson
Ġper iod
Ġb et
ĠCom mittee
c er
ĠE n
Ġs ystem
and ard
t al
ĠI N
ĠS T
4 2
C om
Ġe qu
su ant
o h
0 9
Ġt ax
s h
Î ³
if ied
ĊĠĠĠĠĠĠĠĠĠĠĠĠĠĠĠĠĠĠĠĠĠĠĠĠĠĠĠĠĠĠĠĠĠĠĠĠĠĠĠĠ Ġ
ow er
Ġle g
Ġv er
= =
M r
Ġaf ter
ĠS erv
Ġla w
p ec
Î Ń
4 3
mer ic
ĊĠĠĠĠĠĠĠĠĠĠĠĠĠĠĠĠĠĠĠĠĠĠĠĠĠĠĠĠĠĠĠĠĠĠĠĠĠĠĠĠĠ Ġ
ti ce
Ġad d
Ã ¨
S t
4 7
ĠÎ º
al ly
ĊĠĠĠĠĠĠĠĠĠĠĠĠĠĠĠĠĠĠĠĠĠĠĠĠĠĠĠĠĠĠĠĠĠĠĠĠĠĠĠĠĠĠ Ġ
ĠÂ ±
5 6
al e
i x
ar g
D E
T H
Ã ¥
Ġproc ed
re at
t t
Ġ Ïĥ
Ġl i
Ġre p
Ġm od
Ġp e
Ġs ur
l d
ĠD e
ĊĠĠĠĠĠĠĠĠĠĠĠĠĠĠĠĠĠĠĠĠĠĠĠĠĠĠĠĠĠĠĠĠĠĠĠĠĠĠĠĠĠĠĠ Ġ
ĠÎ ±
Ġocc up
in s
Ġest abl
Ġm et
ul l
ĠA ND
Ġn on
ail able
Ġst ate
Ġ2 8
Ġin t
f ore
it al
t on
Ġd en
Ġl o
ĠComp any
le ment
ĊĠĠĠĠĠĠĠĠĠĠĠĠĠĠĠĠĠĠĠĠĠĠĠĠĠĠĠĠĠĠĠĠĠĠĠĠĠĠĠĠĠĠĠĠ Ġ
ĠâĢ ľ
Ġ3 9
4 1
## ##
ab ility
Ġm ade
Ġb ill
ĊĠĠĠĠĠĠĠĠĠĠĠĠĠĠĠĠĠĠĠĠĠĠĠĠĠĠĠĠĠĠĠĠĠĠĠĠĠĠĠĠĠĠĠĠĠ Ġ
ur ity
Ġm ark
Ġ ent
ĠT r
Ġr ule
a use
Ġde velop
ad o
ivid ual
c es
L E
Ġin to
Ġn ew
C H
Ġb en
A r
T h
Ċĉĉĉĉ ĉĉĉĉ
us s
Ã¡ n
ti g
u es
ot e
I R
Ġcons ider
ĊĠĠĠĠĠĠĠĠĠĠĠĠĠĠĠĠĠĠĠĠĠĠĠĠĠĠĠĠĠĠĠĠĠĠĠĠĠĠĠĠĠĠĠĠĠĠ Ġ
Ġim p
Ġwork ers
ut e
ater ial
Ġex t
w w
1 00
un e
res ident
Ġc ap
Ġpl an
Ġus ed
Ġre m
or por
ĊĠĠĠĠĠĠĠĠĠĠĠĠĠĠĠĠĠĠĠĠĠĠĠĠĠĠĠĠĠĠĠĠĠĠĠĠĠĠĠĠĠĠĠĠĠĠĠ Ġ
Ġ5 0
Ġh is
Ġac tiv
on om
ĠT H
ti k
h o
âĢĻ âĢĻ
Ġserv ice
Ġapp ropri
ĠÎ µ
ĊĠĠĠĠĠĠĠĠĠĠĠĠĠĠĠĠĠĠĠĠĠĠĠĠĠĠĠĠĠĠĠĠĠĠĠĠĠĠĠĠĠĠĠĠĠĠĠĠ Ġ
v ed
Ä ĵ
Ġ â
l ig
ĊĠĠĠĠĠĠĠĠĠĠĠĠĠĠĠĠĠĠĠĠĠĠĠĠĠĠĠĠĠĠĠĠĠĠĠĠĠĠĠĠĠĠĠĠĠĠĠĠĠ Ġ
urr ent
l i
c rib
ĠI nd
Ġsu pport
Ġinc re
Ġf l
ĠDep artment
Ġt echn
c ul
Ġprovid e
Ġ............................................................... .
ĊĠĠĠĠĠĠĠĠĠĠĠĠĠĠĠĠĠĠĠĠĠĠĠĠĠĠĠĠĠĠĠĠĠĠĠĠĠĠĠĠĠĠĠĠĠĠĠĠĠĠ Ġ
al es
Ã º
e es
Ġc ar
Ä Ĺ
w n
Ġad dition
A P
ĊĠĠĠĠĠĠĠĠĠĠĠĠĠĠĠĠĠĠĠĠĠĠĠĠĠĠĠĠĠĠĠĠĠĠĠĠĠĠĠĠĠĠĠĠĠĠĠĠĠĠĠ Ġ
) ;
9 5
Ġper cent
Ġ ĊĠĠĠĠĠĠĠ
Ġpur pos
6 8
ir st
Ġl es
id enti
Ġ2 7
Ġf ac
Ä §
N o
E P
Ġan n
o ci
Ġ................................................................ .
A M
Ã £
Ġprov ision
ĊĠĠĠĠĠĠĠĠĠĠĠĠĠĠĠĠĠĠĠĠĠĠĠĠĠĠĠĠĠĠĠĠĠĠĠĠĠĠĠĠĠĠĠĠĠĠĠĠĠĠĠĠ Ġ
C O
Ġapplic able
Ġpar agraph
f t
ĠCon gress
ĊĠĠĠĠĠĠĠĠĠĠĠĠĠĠĠĠĠĠĠĠĠĠĠĠĠĠĠĠĠĠĠĠĠĠĠĠĠĠĠĠĠĠĠĠĠĠĠĠĠĠĠĠĠ Ġ
p tion
Ã¶ r
Ġserv ices
E T
Ġb el
Ã §
Î¹ Îº
w ard
Ġ er
is k
ĊĠĠĠĠĠĠĠĠĠĠĠĠĠĠĠĠĠĠĠĠĠĠĠĠĠĠĠĠĠĠĠĠĠĠĠĠĠĠĠĠĠĠĠĠĠĠĠĠĠĠĠĠĠĠ Ġ
n a
ĠH e
tim e
ur al
Ġ200 8
Ġav ailable
Ã£ o
e an
Ġor der
m t
Ġd ate
ĊĠĠĠĠĠĠĠĠĠĠĠĠĠĠĠĠĠĠĠĠĠĠĠĠĠĠĠĠĠĠĠĠĠĠĠĠĠĠĠĠĠĠĠĠĠĠĠĠĠĠĠĠĠĠĠ Ġ
0 8
Ġam end
Ġl os
Ċ ĉ
Ġm on
ĠTh is
Ġcont r
Ġm illion
Ġ................................................................. .
Ġprovid ed
Ġn umber
Ġn a
com e
ĠN ational
Î± Î¹
Ġpropos ed
o und
ar i
ĠS ch
Ġth ose
ep t
ĊĠĠĠĠĠĠĠĠĠĠĠĠĠĠĠĠĠĠĠĠĠĠĠĠĠĠĠĠĠĠĠĠĠĠĠĠĠĠĠĠĠĠĠĠĠĠĠĠĠĠĠĠĠĠĠĠ Ġ
Ġex ce
Ġb ec
ĊĠĠĠĠĠĠĠĠĠĠĠĠĠĠĠĠĠĠĠĠĠĠĠĠĠĠĠĠĠĠĠĠĠĠĠĠĠĠĠĠĠĠĠĠĠĠĠĠĠĠĠĠĠĠĠĠĠ Ġ
Ġd ist
Ġ3 6
Ġl im
ĊĠĠĠĠĠĠĠĠĠĠĠĠĠĠĠĠĠĠĠĠĠĠĠĠĠĠĠĠĠĠĠĠĠĠĠĠĠĠĠĠĠĠĠĠĠĠĠĠĠĠĠĠĠĠĠĠĠĠ Ġ
Ġat t
ĠÏĦ Î·
ree ment
o ol
od e
---------------- ----------------
ur n
Ġpur suant
ĠA meric
ad a
ĠP ar
Ġab out
Ã µ
ĊĠĠĠĠĠĠĠĠĠĠĠĠĠĠĠĠĠĠĠĠĠĠĠĠĠĠĠĠĠĠĠĠĠĠĠĠĠĠĠĠĠĠĠĠĠĠĠĠĠĠĠĠĠĠĠĠĠĠĠ Ġ
ĠL e
Ġb usiness
t ing
re g
Ġ200 6
5 4
A C
Ġsh ould
âĢĵ âĢĵ
Å ¼
ĊĠĠĠĠĠĠĠĠĠĠĠĠĠĠĠĠĠĠĠĠĠĠĠĠĠĠĠĠĠĠĠĠĠĠĠĠĠĠĠĠĠĠĠĠĠĠĠĠĠĠĠĠĠĠĠĠĠĠĠĠ Ġ
Ġcomm un
iz ation
0 3
. )
ĊĠĠĠĠĠĠĠĠĠĠĠĠĠĠĠĠĠĠĠĠĠĠĠĠĠĠĠĠĠĠĠĠĠĠĠĠĠĠĠĠĠĠĠĠĠĠĠĠĠĠĠĠĠĠĠĠĠĠĠĠĠ Ġ
Ġ.................................................................. .
Å ³
Ġ201 0
S I
v ers
ĊĠĠĠĠĠĠĠĠĠĠĠĠĠĠĠĠĠĠĠĠĠĠĠĠĠĠĠĠĠĠĠĠĠĠĠĠĠĠĠĠĠĠĠĠĠĠĠĠĠĠĠĠĠĠĠĠĠĠĠĠĠĠ Ġ
Å Ĥ
Ġwith in
ĊĠĠĠĠĠĠĠĠĠĠĠĠĠĠĠĠĠĠĠĠĠĠĠĠĠĠĠĠĠĠĠĠĠĠĠĠĠĠĠĠĠĠĠĠĠĠĠĠĠĠĠĠĠĠĠĠĠĠĠĠĠĠĠ Ġ
Ġof fic
j a
ĠI t
en ci
il ities
Ġor gan
Ġis su
Ġp or
Ġ200 9
el s
is cal
5 8
ment o
io us
z e
ĊĠĠĠĠĠĠĠĠĠĠĠĠĠĠĠĠĠĠĠĠĠĠĠĠĠĠĠĠĠĠĠĠĠĠĠĠĠĠĠĠĠĠĠĠĠĠĠĠĠĠĠĠĠĠĠĠĠĠĠĠĠĠĠĠ Ġ
m en
ĊĠĠĠĠĠĠĠĠĠĠĠĠĠĠĠĠĠĠĠĠĠĠĠĠĠĠĠĠĠĠĠĠĠĠĠĠĠĠĠĠĠĠĠĠĠĠĠĠĠĠĠĠĠĠĠĠĠĠĠĠĠĠĠĠĠ Ġ
al s
ĠV er
Ġm ust
Ġrequire ments
Ġam ount
5 1
an u
w o
in a
ĊĠĠĠĠĠĠĠĠĠĠĠĠĠĠĠĠĠĠĠĠĠĠĠĠĠĠĠĠĠĠĠĠĠĠĠĠĠĠĠĠĠĠĠĠĠĠĠĠĠĠĠĠĠĠĠĠĠĠĠĠĠĠĠĠĠĠ Ġ
0 4
Ġde m
Ġind ividual
1 99
is hed
ĊĠĠĠĠĠĠĠĠĠĠĠĠĠĠĠĠĠĠĠĠĠĠĠĠĠĠĠĠĠĠĠĠĠĠĠĠĠĠĠĠĠĠĠĠĠĠĠĠĠĠĠĠĠĠĠĠĠĠĠĠĠĠĠĠĠĠĠ Ġ
Ġne ed
âĢ ¢
9 6
Ġle vel
h ip
ec tive
ĊĠĠĠĠĠĠĠĠĠĠĠĠĠĠĠĠĠĠĠĠĠĠĠĠĠĠĠĠĠĠĠĠĠĠĠĠĠĠĠĠĠĠĠĠĠĠĠĠĠĠĠĠĠĠĠĠĠĠĠĠĠĠĠĠĠĠĠĠ Ġ
Ġrequire d
ĠA l
Ġpar ti
an n
Ġf il
Ġ200 7
= "
Ïģ Î¿
Ġd uring
Ġe ar
5 3
tic le
Ï ĩ
red it
t a
Ġ1 00
Ġp os
ĊĠĠĠĠĠĠĠĠĠĠĠĠĠĠĠĠĠĠĠĠĠĠĠĠĠĠĠĠĠĠĠĠĠĠĠĠĠĠĠĠĠĠĠĠĠĠĠĠĠĠĠĠĠĠĠĠĠĠĠĠĠĠĠĠĠĠĠĠĠ Ġ
l ed
0 7
Ġwh en
ĠF r
Ġon ly
Ġs ign
ĊĠĠĠĠĠĠĠĠĠĠĠĠĠĠĠĠĠĠĠĠĠĠĠĠĠĠĠĠĠĠĠĠĠĠĠĠĠĠĠĠĠĠĠĠĠĠĠĠĠĠĠĠĠĠĠĠĠĠĠĠĠĠĠĠĠĠĠĠĠĠ Ġ
Ġ200 5
in es
ĠS ection
ti fic
8 3
le g
in ed
a pp
o ve
Ġre fer
Ġob j
ator y
qu e
M M
Ġg eneral
d en
ec u
Ã¡ s
Ġof f
il it
ĠC o
T ER
Ġfin ancial
Ġd irect
ĠDec ember
5 2
Ã¤ r
Ġ :
Ġa ff
com m
ĠP resident
Ġm aterial
ch ange
Ï į
il y
l es
v a
m ed
Å Ļ
ĊĠĠĠĠĠĠĠĠĠĠĠĠĠĠĠĠĠĠĠĠĠĠĠĠĠĠĠĠĠĠĠĠĠĠĠĠĠĠĠĠĠĠĠĠĠĠĠĠĠĠĠĠĠĠĠĠĠĠĠĠĠĠĠĠĠĠĠĠĠĠĠ Ġ
iz e
in k
Ġsubs ection
Ġinclud e
\ _
ab or
Ġrece iv
8 2
Ġdes ign
Ġ end
Ġsub mit
Ġ................................................................... .
7 1
uc tion
ĠH ouse
Ġcont in
ec ts
U n
os ts
ĠAd minist
I D
j e
ot h
r on
6 4
ĊĠĠĠĠĠĠĠĠĠĠĠĠĠĠĠĠĠĠĠĠĠĠĠĠĠĠĠĠĠĠĠĠĠĠĠĠĠĠĠĠĠĠĠĠĠĠĠĠĠĠĠĠĠĠĠĠĠĠĠĠĠĠĠĠĠĠĠĠĠĠĠĠ Ġ
R ES
Î ¸
ĠSt at
D ate
Ġhe alth
O L
v ir
Ġj a
Ġ âĢĺâĢĺ
S T
i ver
Ġpro t
ul y
at ely
Ġ.................................................................... .
Ġproc ess
ĊĠĠĠĠĠĠĠĠĠĠĠĠĠĠĠĠĠĠĠĠĠĠĠĠĠĠĠĠĠĠĠĠĠĠĠĠĠĠĠĠĠĠĠĠĠĠĠĠĠĠĠĠĠĠĠĠĠĠĠĠĠĠĠĠĠĠĠĠĠĠĠĠĠ Ġ
ĠOff ice
Ġes tim
we en
ĠA ss
d ay
Ï Ĩ
v ent
Ïī Î½
Ġst andard
as es
ĊĠĠĠĠĠĠĠĠĠĠĠĠĠĠĠĠĠĠĠĠĠĠĠĠĠĠĠĠĠĠĠĠĠĠĠĠĠĠĠĠĠĠĠĠĠĠĠĠĠĠĠĠĠĠĠĠĠĠĠĠĠĠĠĠĠĠĠĠĠĠĠĠĠĠ Ġ
ĊĠĠĠĠĠĠĠĠĠĠĠĠĠĠĠĠĠĠĠĠĠĠĠĠĠĠĠĠĠĠĠĠĠĠĠĠĠĠĠĠĠĠĠĠĠĠĠĠĠĠĠĠĠĠĠĠĠĠĠĠĠĠĠĠĠĠĠĠĠĠĠĠĠĠĠ Ġ
et y
E G
Ġ Ã©
Ġl as
Ġfor m
ĊĠĠĠĠĠĠĠĠĠĠĠĠĠĠĠĠĠĠĠĠĠĠĠĠĠĠĠĠĠĠĠĠĠĠĠĠĠĠĠĠĠĠĠĠĠĠĠĠĠĠĠĠĠĠĠĠĠĠĠĠĠĠĠĠĠĠĠĠĠĠĠĠĠĠĠĠ Ġ
ag es
ĊĠĠĠĠĠĠĠĠĠĠĠĠĠĠĠĠĠĠĠĠĠĠĠĠĠĠĠĠĠĠĠĠĠĠĠĠĠĠĠĠĠĠĠĠĠĠĠĠĠĠĠĠĠĠĠĠĠĠĠĠĠĠĠĠĠĠĠĠĠĠĠĠĠĠĠĠĠ Ġ
Ġa p
oc u
ur s
Ġm ain
t r
Ġinter est
ec ess
Ġ..................................................................... .
Ġ rig
200 6
en n
5 7
or n
N ot
s p
Ġc la
ra d
Ġc ost
at ors
ĊĠĠĠĠĠĠĠĠĠĠĠĠĠĠĠĠĠĠĠĠĠĠĠĠĠĠĠĠĠĠĠĠĠĠĠĠĠĠĠĠĠĠĠĠĠĠĠĠĠĠĠĠĠĠĠĠĠĠĠĠĠĠĠĠĠĠĠĠĠĠĠĠĠĠĠĠĠĠ Ġ
o int
Ġ ed
ĠReg ul
Ġh ad
Ġc ount
E x
Ġdis c
6 3
ĊĠĠĠĠĠĠĠĠĠĠĠĠĠĠĠĠĠĠĠĠĠĠĠĠĠĠĠĠĠĠĠĠĠĠĠĠĠĠĠĠĠĠĠĠĠĠĠĠĠĠĠĠĠĠĠĠĠĠĠĠĠĠĠĠĠĠĠĠĠĠĠĠĠĠĠĠĠĠĠ Ġ
Ġ3 7
Ïĥ Î·
o ard
u ch
8 1
Ġm y
` `
6 7
ru ct
Ä Ľ
our ces
Å ĳ
l o
Ġd if
ĊĠĠĠĠĠĠĠĠĠĠĠĠĠĠĠĠĠĠĠĠĠĠĠĠĠĠĠĠĠĠĠĠĠĠĠĠĠĠĠĠĠĠĠĠĠĠĠĠĠĠĠĠĠĠĠĠĠĠĠĠĠĠĠĠĠĠĠĠĠĠĠĠĠĠĠĠĠĠĠĠ Ġ
ĠN ew
Ġb as
i or
Ġt a
Ġst ud
P ro
Ġd Ã©
Ã ¸
Ġ X
i et
P A
Ġoccup ations
ĊĠĠĠĠĠĠĠĠĠĠĠĠĠĠĠĠĠĠĠĠĠĠĠĠĠĠĠĠĠĠĠĠĠĠĠĠĠĠĠĠĠĠĠĠĠĠĠĠĠĠĠĠĠĠĠĠĠĠĠĠĠĠĠĠĠĠĠĠĠĠĠĠĠĠĠĠĠĠĠĠĠ Ġ
Ġ ec
Ġ ir
A n
Ġrel ated
Ġres ult
6 2
Ġin st
en g
ĠP l
ar ch
Î ´
Ġst r
9 4
o z
: **
ect ed
ul es
6 1
Ĥ ¬
ĊĠĠĠĠĠĠĠĠĠĠĠĠĠĠĠĠĠĠĠĠĠĠĠĠĠĠĠĠĠĠĠĠĠĠĠĠĠĠĠĠĠĠĠĠĠĠĠĠĠĠĠĠĠĠĠĠĠĠĠĠĠĠĠĠĠĠĠĠĠĠĠĠĠĠĠĠĠĠĠĠĠĠ Ġ
e ver
is ter
Ã¼ r
Ġind ust
Ġ3 8
b y
n ow
crib ed
ti f
Ġben ef
r is
ĊĠĠĠĠĠĠĠĠĠĠĠĠĠĠĠĠĠĠĠĠĠĠĠĠĠĠĠĠĠĠĠĠĠĠĠĠĠĠĠĠĠĠĠĠĠĠĠĠĠĠĠĠĠĠĠĠĠĠĠĠĠĠĠĠĠĠĠĠĠĠĠĠĠĠĠĠĠĠĠĠĠĠĠ Ġ
y l
ar m
an e
Ġto tal
Ġme et
ĠM an
at s
at t
Ġrequ est
Ġh our
h od
vir on
S E
Ġ Ċ
Ġf iscal
ĊĠĠĠĠĠĠĠĠĠĠĠĠĠĠĠĠĠĠĠĠĠĠĠĠĠĠĠĠĠĠĠĠĠĠĠĠĠĠĠĠĠĠĠĠĠĠĠĠĠĠĠĠĠĠĠĠĠĠĠĠĠĠĠĠĠĠĠĠĠĠĠĠĠĠĠĠĠĠĠĠĠĠĠĠ Ġ
iel d
ĠW h
Ġresp ect
or m
n ot
ĠK om
ĊĠĠĠĠĠĠĠĠĠĠĠĠĠĠĠĠĠĠĠĠĠĠĠĠĠĠĠĠĠĠĠĠĠĠĠĠĠĠĠĠĠĠĠĠĠĠĠĠĠĠĠĠĠĠĠĠĠĠĠĠĠĠĠĠĠĠĠĠĠĠĠĠĠĠĠĠĠĠĠĠĠĠĠĠĠ Ġ
Ġ200 4
' '
ur ities
Ġm ake
le t
ĊĠĠĠĠĠĠĠĠĠĠĠĠĠĠĠĠĠĠĠĠĠĠĠĠĠĠĠĠĠĠĠĠĠĠĠĠĠĠĠĠĠĠĠĠĠĠĠĠĠĠĠĠĠĠĠĠĠĠĠĠĠĠĠĠĠĠĠĠĠĠĠĠĠĠĠĠĠĠĠĠĠĠĠĠĠĠ Ġ
Ġâ Ĥ¬
Ġrec ord
M ENT
ĊĠĠĠĠĠĠĠĠĠĠĠĠĠĠĠĠĠĠĠĠĠĠĠĠĠĠĠĠĠĠĠĠĠĠĠĠĠĠĠĠĠĠĠĠĠĠĠĠĠĠĠĠĠĠĠĠĠĠĠĠĠĠĠĠĠĠĠĠĠĠĠĠĠĠĠĠĠĠĠĠĠĠĠĠĠĠĠ Ġ
Ġc ould
ĠF in
ud get
ĊĠĠĠĠĠĠĠĠĠĠĠĠĠĠĠĠĠĠĠĠĠĠĠĠĠĠĠĠĠĠĠĠĠĠĠĠĠĠĠĠĠĠĠĠĠĠĠĠĠĠĠĠĠĠĠĠĠĠĠĠĠĠĠĠĠĠĠĠĠĠĠĠĠĠĠĠĠĠĠĠĠĠĠĠĠĠĠĠ Ġ
Ġs ame
ate g
Î¹ Î±
Ġcon dition
Ġsub ject
ĠC ON
Ġ ve
Ġim port
Ġg o
Ġbet ween
Ï İ
ĊĠĠĠĠĠĠĠĠĠĠĠĠĠĠĠĠĠĠĠĠĠĠĠĠĠĠĠĠĠĠĠĠĠĠĠĠĠĠĠĠĠĠĠĠĠĠĠĠĠĠĠĠĠĠĠĠĠĠĠĠĠĠĠĠĠĠĠĠĠĠĠĠĠĠĠĠĠĠĠĠĠĠĠĠĠĠĠĠĠ Ġ
Ġa ct
Ġp resent
ĠI I
Ġpro per
Ġqu al
Ġc urrent
Ġestabl ish
ĠO r
ar ge
Ġcon cer
ĊĠĠĠĠĠĠĠĠĠĠĠĠĠĠĠĠĠĠĠĠĠĠĠĠĠĠĠĠĠĠĠĠĠĠĠĠĠĠĠĠĠĠĠĠĠĠĠĠĠĠĠĠĠĠĠĠĠĠĠĠĠĠĠĠĠĠĠĠĠĠĠĠĠĠĠĠĠĠĠĠĠĠĠĠĠĠĠĠĠĠ Ġ
9 3
ĠA pp
Ġleg is
ĠTH E
Ġ ``
âĢĺâĢĺ (
Ġad minist
V er
as on
ak ing
Ġloc al
ot al
v id
op le
Ġacc ord
le ction
ĠÎ ¼
Ġb ased
Ġ201 1
9 8
ĠR ec
ure d
h a
n o
Ġc osts
Ġrev iew
Ġd et
OR T
U N
Ġs k
ion s
Ġmark et
l ation
Ġcer tain
en e
olog y
ning s
Ġme as
Ġter m
ĊĠĠĠĠĠĠĠĠĠĠĠĠĠĠĠĠĠĠĠĠĠĠĠĠĠĠĠĠĠĠĠĠĠĠĠĠĠĠĠĠĠĠĠĠĠĠĠĠĠĠĠĠĠĠĠĠĠĠĠĠĠĠĠĠĠĠĠĠĠĠĠĠĠĠĠĠĠĠĠĠĠĠĠĠĠĠĠĠĠĠĠ Ġ
A D
Ã¤ n
Ġass ist
Ġbe fore
emb ers
Ġc are
ic i
ic k
anc es
ĠSen ate
our ce
w ith
ot her
ĊĠĠĠĠĠĠĠĠĠĠĠĠĠĠĠĠĠĠĠĠĠĠĠĠĠĠĠĠĠĠĠĠĠĠĠĠĠĠĠĠĠĠĠĠĠĠĠĠĠĠĠĠĠĠĠĠĠĠĠĠĠĠĠĠĠĠĠĠĠĠĠĠĠĠĠĠĠĠĠĠĠĠĠĠĠĠĠĠĠĠĠĠ Ġ
O T
u f
Ã ¦
Ġf ore
v ate
y m
Ġcl ass
Ġpurpos es
Ġ )
Ġt al
v is
w h
th at
v ing
Ġ3 5
Ġ identi
200 8
l er
ecu tive
ple ment
ĊĠĠĠĠĠĠĠĠĠĠĠĠĠĠĠĠĠĠĠĠĠĠĠĠĠĠĠĠĠĠĠĠĠĠĠĠĠĠĠĠĠĠĠĠĠĠĠĠĠĠĠĠĠĠĠĠĠĠĠĠĠĠĠĠĠĠĠĠĠĠĠĠĠĠĠĠĠĠĠĠĠĠĠĠĠĠĠĠĠĠĠĠĠ Ġ
\_ \_
ro ll
m all
9 2
iv ers
Ġs er
ment al
9 7
Ġper form
ĊĠĠĠĠĠĠĠĠĠĠĠĠĠĠĠĠĠĠĠĠĠĠĠĠĠĠĠĠĠĠĠĠĠĠĠĠĠĠĠĠĠĠĠĠĠĠĠĠĠĠĠĠĠĠĠĠĠĠĠĠĠĠĠĠĠĠĠĠĠĠĠĠĠĠĠĠĠĠĠĠĠĠĠĠĠĠĠĠĠĠĠĠĠĠ Ġ
Ġn ecess
on i
Ġdo es
Ġcont rol
Ġwh ere
Ġs ome
ĠCon s
Ã© g
Ġf irst
Ä Ļ
Ġv on
p s
O C
Ġg r
ĠServ ice
or th
u ed
A B
v o
ion e
ĊĠĠĠĠĠĠĠĠĠĠĠĠĠĠĠĠĠĠĠĠĠĠĠĠĠĠĠĠĠĠĠĠĠĠĠĠĠĠĠĠĠĠĠĠĠĠĠĠĠĠĠĠĠĠĠĠĠĠĠĠĠĠĠĠĠĠĠĠĠĠĠĠĠĠĠĠĠĠĠĠĠĠĠĠĠĠĠĠĠĠĠĠĠĠĠ Ġ
Ġr ate
ri es
Ġacc ount
Ġval ue
n i
in ing
ĠP ub
ĠA m
9 1
d o
ĊĠĠĠĠĠĠĠĠĠĠĠĠĠĠĠĠĠĠĠĠĠĠĠĠĠĠĠĠĠĠĠĠĠĠĠĠĠĠĠĠĠĠĠĠĠĠĠĠĠĠĠĠĠĠĠĠĠĠĠĠĠĠĠĠĠĠĠĠĠĠĠĠĠĠĠĠĠĠĠĠĠĠĠĠĠĠĠĠĠĠĠĠĠĠĠĠ Ġ
f ul
Ġactiv ities
g ov
ĊĠĠĠĠĠĠĠĠĠĠĠĠĠĠĠĠĠĠĠĠĠĠĠĠĠĠĠĠĠĠĠĠĠĠĠĠĠĠĠĠĠĠĠĠĠĠĠĠĠĠĠĠĠĠĠĠĠĠĠĠĠĠĠĠĠĠĠĠĠĠĠĠĠĠĠĠĠĠĠĠĠĠĠĠĠĠĠĠĠĠĠĠĠĠĠĠĠ Ġ
tic al
val u
Ġre f
h r
ĊĠĠĠĠĠĠĠĠĠĠĠĠĠĠĠĠĠĠĠĠĠĠĠĠĠĠĠĠĠĠĠĠĠĠĠĠĠĠĠĠĠĠĠĠĠĠĠĠĠĠĠĠĠĠĠĠĠĠĠĠĠĠĠĠĠĠĠĠĠĠĠĠĠĠĠĠĠĠĠĠĠĠĠĠĠĠĠĠĠĠĠĠĠĠĠĠĠĠ Ġ
Ġl and
ĊĠĠĠĠĠĠĠĠĠĠĠĠĠĠĠĠĠĠĠĠĠĠĠĠĠĠĠĠĠĠĠĠĠĠĠĠĠĠĠĠĠĠĠĠĠĠĠĠĠĠĠĠĠĠĠĠĠĠĠĠĠĠĠĠĠĠĠĠĠĠĠĠĠĠĠĠĠĠĠĠĠĠĠĠĠĠĠĠĠĠĠĠĠĠĠĠĠĠĠ Ġ
c ri
n Ã©
an ti
Ã Ł
oun ts
T R
200 5
end e
Ġd a
Ġp res
ĊĠĠĠĠĠĠĠĠĠĠĠĠĠĠĠĠĠĠĠĠĠĠĠĠĠĠĠĠĠĠĠĠĠĠĠĠĠĠĠĠĠĠĠĠĠĠĠĠĠĠĠĠĠĠĠĠĠĠĠĠĠĠĠĠĠĠĠĠĠĠĠĠĠĠĠĠĠĠĠĠĠĠĠĠĠĠĠĠĠĠĠĠĠĠĠĠĠĠĠĠ Ġ
Ġ ]
Ġt wo
/ /
ĊĠĠĠĠĠĠĠĠĠĠĠĠĠĠĠĠĠĠĠĠĠĠĠĠĠĠĠĠĠĠĠĠĠĠĠĠĠĠĠĠĠĠĠĠĠĠĠĠĠĠĠĠĠĠĠĠĠĠĠĠĠĠĠĠĠĠĠĠĠĠĠĠĠĠĠĠĠĠĠĠĠĠĠĠĠĠĠĠĠĠĠĠĠĠĠĠĠĠĠĠĠ Ġ
ati ves
200 7
ĊĠĠĠĠĠĠĠĠĠĠĠĠĠĠĠĠĠĠĠĠĠĠĠĠĠĠĠĠĠĠĠĠĠĠĠĠĠĠĠĠĠĠĠĠĠĠĠĠĠĠĠĠĠĠĠĠĠĠĠĠĠĠĠĠĠĠĠĠĠĠĠĠĠĠĠĠĠĠĠĠĠĠĠĠĠĠĠĠĠĠĠĠĠĠĠĠĠĠĠĠĠĠ Ġ
le v
ot t
ak er
Ġw ell
Ġinv est
er c
Ġc over
h old
Ġ Q
le ar
AL L
ept ember
Ġst ock
ĠM ay
ĠO ct
ĊĠĠĠĠĠĠĠĠĠĠĠĠĠĠĠĠĠĠĠĠĠĠĠĠĠĠĠĠĠĠĠĠĠĠĠĠĠĠĠĠĠĠĠĠĠĠĠĠĠĠĠĠĠĠĠĠĠĠĠĠĠĠĠĠĠĠĠĠĠĠĠĠĠĠĠĠĠĠĠĠĠĠĠĠĠĠĠĠĠĠĠĠĠĠĠĠĠĠĠĠĠĠĠ Ġ
Ġs ch
k i
i um
ul ar
ĊĠĠĠĠĠĠĠĠĠĠĠĠĠĠĠĠĠĠĠĠĠĠĠĠĠĠĠĠĠĠĠĠĠĠĠĠĠĠĠĠĠĠĠĠĠĠĠĠĠĠĠĠĠĠĠĠĠĠĠĠĠĠĠĠĠĠĠĠĠĠĠĠĠĠĠĠĠĠĠĠĠĠĠĠĠĠĠĠĠĠĠĠĠĠĠĠĠĠĠĠĠĠĠĠ Ġ
is ch
b le
Ġh ere
ang es
Ġe lect
Ġall ow
200 4
Ġa ut
Ġ &
200 9
Ġ il
sk i
Ġ3 3
w ork
Ġc or
Îµ Î¹
o ber
l u
Ġpri or
Ġan al
S A
l ess
Ġsu pp
if e
port ation
Ġs im
str uction
n ess
Ġc ase
ĠS ub
Î± ÏĦ
h al
a ff
tit ution
ur ance
Ġg overnment
ĠC FR
u ro
ĠCon t
Ġec onom
ap ter
ol id
Ġf act
Ġde p
Ġl ong
j ust
h ib
our t
and ing
ar b
ion es
ve y
r al
5 00
out h
ĠPro gram
P P
ĠIn c
en er
el f
Ġ201 4
Ġfund s
ĠCom m
c ed
ing ton
: *
Ġf e
he ther
v i
Ġag ency
Ġt y
in ation
Ġpar a
ad os
ĠM ed
ati s
Ġp h
ro w
ur ther
ÏĢ Î¿
Ġl ess
c ess
Ġappropri ate
ĠG eneral
S ec
ĠJ une
l ine
r an
Ġbec ause
Ġin come
Ġre st
ie f
c k
it t
ic y
u tions
Ġcomp le
are d
L e
ul ts
Ġc al
Ġadd ress
he s
Ġreg ard
ï¿ ½
U L
Ġparti cip
ir d
Ġ Äį
ific ant
Ġcont ain
ĠP O
m a
im um
ition s
Ġin f
Ġd ays
Ġn ational
z en
ĠA s
Ġex am
ĊĠĠĠĠĠĠĠĠĠĠĠĠĠĠĠĠĠĠĠĠĠĠĠĠĠĠĠĠĠĠĠĠĠĠĠĠĠĠĠĠĠĠĠĠĠĠĠĠĠĠĠĠĠĠĠĠĠĠĠĠĠĠĠĠĠĠĠĠĠĠĠĠĠĠĠĠĠĠĠĠĠĠĠĠĠĠĠĠĠĠĠĠĠĠĠĠĠĠĠĠĠĠĠĠĠ Ġ
C h
Ġam ended
Ġg u
ĊĠĠĠĠĠĠĠĠĠĠĠĠĠĠĠĠĠĠĠĠĠĠĠĠĠĠĠĠĠĠĠĠĠĠĠĠĠĠĠĠĠĠĠĠĠĠĠĠĠĠĠĠĠĠĠĠĠĠĠĠĠĠĠĠĠĠĠĠĠĠĠĠĠĠĠĠĠĠĠĠĠĠĠĠĠĠĠĠĠĠĠĠĠĠĠĠĠĠĠĠĠĠĠĠĠĠ Ġ
ĊĠĠĠĠĠĠĠĠĠĠĠĠĠĠĠĠĠĠĠĠĠĠĠĠĠĠĠĠĠĠĠĠĠĠĠĠĠĠĠĠĠĠĠĠĠĠĠĠĠĠĠĠĠĠĠĠĠĠĠĠĠĠĠĠĠĠĠĠĠĠĠĠĠĠĠĠĠĠĠĠĠĠĠĠĠĠĠĠĠĠĠĠĠĠĠĠĠĠĠĠĠĠĠĠĠĠĠ Ġ
og n
ĠS pe
ve m
ung en
Ġa ir
Ġl ist
ĊĠĠĠĠĠĠĠĠĠĠĠĠĠĠĠĠĠĠĠĠĠĠĠĠĠĠĠĠĠĠĠĠĠĠĠĠĠĠĠĠĠĠĠĠĠĠĠĠĠĠĠĠĠĠĠĠĠĠĠĠĠĠĠĠĠĠĠĠĠĠĠĠĠĠĠĠĠĠĠĠĠĠĠĠĠĠĠĠĠĠĠĠĠĠĠĠĠĠĠĠĠĠĠĠĠĠĠĠ Ġ
end ing
ĠT O
I G
Ġprovision s
ĊĠĠĠĠĠĠĠĠĠĠĠĠĠĠĠĠĠĠĠĠĠĠĠĠĠĠĠĠĠĠĠĠĠĠĠĠĠĠĠĠĠĠĠĠĠĠĠĠĠĠĠĠĠĠĠĠĠĠĠĠĠĠĠĠĠĠĠĠĠĠĠĠĠĠĠĠĠĠĠĠĠĠĠĠĠĠĠĠĠĠĠĠĠĠĠĠĠĠĠĠĠĠĠĠĠĠĠĠĠ Ġ
Ġgro up
ar ies
at o
Ġc he
ĊĠĠĠĠĠĠĠĠĠĠĠĠĠĠĠĠĠĠĠĠĠĠĠĠĠĠĠĠĠĠĠĠĠĠĠĠĠĠĠĠĠĠĠĠĠĠĠĠĠĠĠĠĠĠĠĠĠĠĠĠĠĠĠĠĠĠĠĠĠĠĠĠĠĠĠĠĠĠĠĠĠĠĠĠĠĠĠĠĠĠĠĠĠĠĠĠĠĠĠĠĠĠĠĠĠĠĠĠĠĠ Ġ
Ġ3 2
ex t
Ġprogram s
ĠG u
ĠD irect
ra tive
Ġh ow
ĠG overnment
S P
. *
n ÃŃ
Ġmon th
Ċĉĉĉĉ ĉĉĉ
ĠÎ ´
ĊĠĠĠĠĠĠĠĠĠĠĠĠĠĠĠĠĠĠĠĠĠĠĠĠĠĠĠĠĠĠĠĠĠĠĠĠĠĠĠĠĠĠĠĠĠĠĠĠĠĠĠĠĠĠĠĠĠĠĠĠĠĠĠĠĠĠĠĠĠĠĠĠĠĠĠĠĠĠĠĠĠĠĠĠĠĠĠĠĠĠĠĠĠĠĠĠĠĠĠĠĠĠĠĠĠĠĠĠĠĠĠ Ġ
Ġs am
op er
c on
enci es
ĠC l
Ġen g
R E
at h
nd er
Ġd ocu
Ġf Ã¼r
Ġare a
id ad
ĊĠĠĠĠĠĠĠĠĠĠĠĠĠĠĠĠĠĠĠĠĠĠĠĠĠĠĠĠĠĠĠĠĠĠĠĠĠĠĠĠĠĠĠĠĠĠĠĠĠĠĠĠĠĠĠĠĠĠĠĠĠĠĠĠĠĠĠĠĠĠĠĠĠĠĠĠĠĠĠĠĠĠĠĠĠĠĠĠĠĠĠĠĠĠĠĠĠĠĠĠĠĠĠĠĠĠĠĠĠĠĠĠ Ġ
y n
ĊĠĠĠĠĠĠĠĠĠĠĠĠĠĠĠĠĠĠĠĠĠĠĠĠĠĠĠĠĠĠĠĠĠĠĠĠĠĠĠĠĠĠĠĠĠĠĠĠĠĠĠĠĠĠĠĠĠĠĠĠĠĠĠĠĠĠĠĠĠĠĠĠĠĠĠĠĠĠĠĠĠĠĠĠĠĠĠĠĠĠĠĠĠĠĠĠĠĠĠĠĠĠĠĠĠĠĠĠĠĠĠĠĠ Ġ
ĠI s
Ġin form
Ġs et
Ġwh at
Ġde b
Ġann ual
Ġthe m
Ġpe ople
Ġh er
ĉĉĉĉ ĉĉĉĉ
Ġnecess ary
Ġl ik
Ġn et
ĠTr ans
ol um
ce ed
Ġme ans
u ild
c ont
: //
Ġdes cribed
Ġ...................................................................... .
F or
Ġind ic
Ġw ater
Ġcontr act
Ġac tion
Ġreceiv ed
Ġo wn
Ġaddition al
Ġcon f
Ġh igh
Ġpr ac
ric t
ï¿½ ï¿½
Ġfin al
ĠF OR
ĠI f
g o
Ġp ower
u k
g in
ti s
Ġg rant
es ts
Ġ ĊĠĠĠ
Ġp ot
\ ]
Ġidenti f
ĊĠĠĠĠĠĠĠĠĠĠĠĠĠĠĠĠĠĠĠĠĠĠĠĠĠĠĠĠĠĠĠĠĠĠĠĠĠĠĠĠĠĠĠĠĠĠĠĠĠĠĠĠĠĠĠĠĠĠĠĠĠĠĠĠĠĠĠĠĠĠĠĠĠĠĠĠĠĠĠĠĠĠĠĠĠĠĠĠĠĠĠĠĠĠĠĠĠĠĠĠĠĠĠĠĠĠĠĠĠĠĠĠĠĠ Ġ
anu ary
Ġt est
ens es
e y
\ [
Ã¡ l
Ġup on
ĠE UR
ver age
Ġ >
Å «
E U
Ġ3 4
g er
A A
il i
o or
af ety
Ġre t
Ġed uc
ell a
aj or
re ff
ĊĠĠĠĠĠĠĠĠĠĠĠĠĠĠĠĠĠĠĠĠĠĠĠĠĠĠĠĠĠĠĠĠĠĠĠĠĠĠĠĠĠĠĠĠĠĠĠĠĠĠĠĠĠĠĠĠĠĠĠĠĠĠĠĠĠĠĠĠĠĠĠĠĠĠĠĠĠĠĠĠĠĠĠĠĠĠĠĠĠĠĠĠĠĠĠĠĠĠĠĠĠĠĠĠĠĠĠĠĠĠĠĠĠĠĠ Ġ
ip ment
ĊĠĠĠĠĠĠĠĠĠĠĠĠĠĠĠĠĠĠĠĠĠĠĠĠĠĠĠĠĠĠĠĠĠĠĠĠĠĠĠĠĠĠĠĠĠĠĠĠĠĠĠĠĠĠĠĠĠĠĠĠĠĠĠĠĠĠĠĠĠĠĠĠĠĠĠĠĠĠĠĠĠĠĠĠĠĠĠĠĠĠĠĠĠĠĠĠĠĠĠĠĠĠĠĠĠĠĠĠĠĠĠĠĠĠĠĠ Ġ
pr il
Ġr isk
Ġf ull
cl us
R A
Ġ6 6
c o
Ġag ain
x x
ĠEx change
Ġen tit
Ã§ Ã£o
Ġspec ial
for ce
ĠC oun
A d
tik el
am p
Ġbe ing
ers hip
th is
ar s
Ġv i
ĠC H
ĊĠĠĠĠĠĠĠĠĠĠĠĠĠĠĠĠĠĠĠĠĠĠĠĠĠĠĠĠĠĠĠĠĠĠĠĠĠĠĠĠĠĠĠĠĠĠĠĠĠĠĠĠĠĠĠĠĠĠĠĠĠĠĠĠĠĠĠĠĠĠĠĠĠĠĠĠĠĠĠĠĠĠĠĠĠĠĠĠĠĠĠĠĠĠĠĠĠĠĠĠĠĠĠĠĠĠĠĠĠĠĠĠĠĠĠĠĠ Ġ
Ġpr in
ol ution
Ġrep resent
lect ed
ific ation
ers t
Ġch ange
E n
Ġim pro
Ġp od
Ġt em
Ġim plement
un ity
it ation
an z
ĊĠĠĠĠĠĠĠĠĠĠĠĠĠĠĠĠĠĠĠĠĠĠĠĠĠĠĠĠĠĠĠĠĠĠĠĠĠĠĠĠĠĠĠĠĠĠĠĠĠĠĠĠĠĠĠĠĠĠĠĠĠĠĠĠĠĠĠĠĠĠĠĠĠĠĠĠĠĠĠĠĠĠĠĠĠĠĠĠĠĠĠĠĠĠĠĠĠĠĠĠĠĠĠĠĠĠĠĠĠĠĠĠĠĠĠĠĠĠ Ġ
Ġo d
b s
Ġ....................................................................... .
ĠG ro
r or
Ġw hether
eb ru
ĠB e
Ġex ist
Ġ200 3
ĠC ent
Ġpro duct
N icht
ub l
Ġinter n
Ġ4 5
r ug
ical ly
Ġregul ations
ĠA ug
F OR
Ġm o
Ġm ost
is ts
o j
Ġp ass
g l
ĠD ef
Ġ201 2
Ġen act
re m
ac ts
Ġ +
Ġdevelop ment
enti al
Ġman agement
Ġd ire
or ts
ĠRep ort
Ġo m
ĉ Ġ
I P
Ġch ild
ff ic
enc es
Ġ ĊĠĠĠĠĠĠĠĠĠ
U E
id a
qu ire
U B
Ġ 01
re l
ĠÏĦÎ· ÏĤ
ĠJ uly
por ts
duc tion
Ġauthor ity
Ġ200 2
Ġresp ons
ash ington
Ġy our
g es
Ġdif fer
ib ility
Ġpro ject
ur y
Î¿ Î½
Ġc redit
i ance
k u
Ġf am
Ġ6 0
er ing
F F
ĠHe alth
ĊĠĠĠĠĠĠĠĠĠĠĠĠĠĠĠĠĠĠĠĠĠĠĠĠĠĠĠĠĠĠĠĠĠĠĠĠĠĠĠĠĠĠĠĠĠĠĠĠĠĠĠĠĠĠĠĠĠĠĠĠĠĠĠĠĠĠĠĠĠĠĠĠĠĠĠĠĠĠĠĠĠĠĠĠĠĠĠĠĠĠĠĠĠĠĠĠĠĠĠĠĠĠĠĠĠĠĠĠĠĠĠĠĠĠĠĠĠĠĠ Ġ
. --
orpor ation
g r
ĊĊĊĊ ĊĊĊĊ
\ *
b a
vel y
Î ²
Ġ........................................................................ .
Ġcon duct
W h
ĠS eptember
ĠS h
Ġwith out
Ġs c
ĠP art
ĠP RO
os p
Ġsch ool
ut ure
Ġ201 3
Ġoper ations
Ġp aid
ĠSpe aker
ĠA nd
201 0
Ġk now
ens ation
Ġ202 0
se arch
Ġst at
Ġb oth
a res
is m
ount y
in i
ĠAmeric an
Ġapplic ation
Ġob lig
Ġproduc ts
Ġaccord ance
ww w
Ġen s
ust om
ĠIn ter
Ġsign ificant
Ġle ad
D A
Ġb l
at ure
C T
ÏĦ Î·
Î¯ Î±
e le
Ã ł
) :
Ġ4 2
Ġc ent
O M
Ġacc ess
ur ch
Ġ Ä
ĠR ule
ĊĠĠĠĠĠĠĠĠĠĠĠĠĠĠĠĠĠĠĠĠĠĠĠĠĠĠĠĠĠĠĠĠĠĠĠĠĠĠĠĠĠĠĠĠĠĠĠĠĠĠĠĠĠĠĠĠĠĠĠĠĠĠĠĠĠĠĠĠĠĠĠĠĠĠĠĠĠĠĠĠĠĠĠĠĠĠĠĠĠĠĠĠĠĠĠĠĠĠĠĠĠĠĠĠĠĠĠĠĠĠĠĠĠĠĠĠĠĠĠĠ Ġ
n y
ĊĠĠĠĠĠĠĠĠĠĠĠĠĠĠĠĠĠĠĠĠĠĠĠĠĠĠĠĠĠĠĠĠĠĠĠĠĠĠĠĠĠĠĠĠĠĠĠĠĠĠĠĠĠĠĠĠĠĠĠĠĠĠĠĠĠĠĠĠĠĠĠĠĠĠĠĠĠĠĠĠĠĠĠĠĠĠĠĠĠĠĠĠĠĠĠĠĠĠĠĠĠĠĠĠĠĠĠĠĠĠĠĠĠĠĠĠĠĠĠĠĠ Ġ
o x
l or
ĊĠĠĠĠĠĠĠĠĠĠĠĠĠĠĠĠĠĠĠĠĠĠĠĠĠĠĠĠĠĠĠĠĠĠĠĠĠĠĠĠĠĠĠĠĠĠĠĠĠĠĠĠĠĠĠĠĠĠĠĠĠĠĠĠĠĠĠĠĠĠĠĠĠĠĠĠĠĠĠĠĠĠĠĠĠĠĠĠĠĠĠĠĠĠĠĠĠĠĠĠĠĠĠĠĠĠĠĠĠĠĠĠĠĠĠĠĠĠĠĠĠĠ Ġ
ong ress
ĊĠĠĠĠĠĠĠĠĠĠĠĠĠĠĠĠĠĠĠĠĠĠĠĠĠĠĠĠĠĠĠĠĠĠĠĠĠĠĠĠĠĠĠĠĠĠĠĠĠĠĠĠĠĠĠĠĠĠĠĠĠĠĠĠĠĠĠĠĠĠĠĠĠĠĠĠĠĠĠĠĠĠĠĠĠĠĠĠĠĠĠĠĠĠĠĠĠĠĠĠĠĠĠĠĠĠĠĠĠĠĠĠĠĠĠĠĠĠĠĠĠĠĠ Ġ
Ġ0 6
g en
Ġ ĊĠĠĠĠĠĠĠĠĠĠĠĠĠĠĠ
l p
ĊĠĠĠĠĠĠĠĠĠĠĠĠĠĠĠĠĠĠĠĠĠĠĠĠĠĠĠĠĠĠĠĠĠĠĠĠĠĠĠĠĠĠĠĠĠĠĠĠĠĠĠĠĠĠĠĠĠĠĠĠĠĠĠĠĠĠĠĠĠĠĠĠĠĠĠĠĠĠĠĠĠĠĠĠĠĠĠĠĠĠĠĠĠĠĠĠĠĠĠĠĠĠĠĠĠĠĠĠĠĠĠĠĠĠĠĠĠĠĠĠĠĠĠĠ Ġ
reff end
Ġincre ase
Ïģ Î¹
ro s
um an
clud ing
r Ã©
Ġ4 9
Ġen ti
Th is
om en
ar ter
a us
Ġs mall
ĠEurop e
Ġ 99
Ġass ess
k y
ĠMar ch
ĠÃ ¼
Ġ9 0
ĠS p
Ġo g
Ġ Å
Ġ /
Ġd id
Ġd ue
ĠC al
s on
ĠA cc
Ġs z
W e
Ġs om
Ġpro f
Ġobj et
Ġcla im
in o
Ġbas is
g a
ce pt
I V
Ġexce pt
ie ve
Ġ......................................................................... .
ĠM et
Ġpar tic
Ġse e
ĠA ll
ĠB oard
Ġamend ment
Ġcom pl
ĠJ anuary
j o
ar ing
C R
ĠIn tern
Ġ ĠĊĠĠĠĠĠĠĠĠĠ
Ġpre v
Ġre ason
ac y
Ġindust ry
Ġ4 3
AT E
Ġ4 4
AR T
Ġc ri
Ġp oss
Ġcondition s
in ce
S K
Ġsub st
ĠA t
N G
Ġg iv
C ongress
E E
end s
ys is
Ġ4 8
Ġrec ogn
== ==
ut es
ves tig
Ġeff ect
Ġo u
Ġm ar
b en
Ġ.......................................................................... .
Ġen er
Ġass oci
ĠC ode
vem ber
pec ial
Ġv is
Ġproced e
Ġf Ã¶r
ĠM s
Ġpro m
Ġad v
ĠF R
k ing
Ġc re
Ġm at
R e
Ġ201 9
el le
S ans
201 1
Ġf urther
un ction
ro ss
Ġconcer n
Ġcom ment
y d
ĠP ol
Ġear nings
it or
ut reffend
er t
ĠI m
ĠA c
Ġno tice
qu es
ac tion
Ġeff ective
ra ft
s erv
Ġm any
Ġs a
Ġz utreffend
j oni
SI ON
ĠMan agement
ĠÎº Î±Î¹
Ġp our
and s
Ġt ak
Ġapp ly
y ear
Ġe valu
ĠN ot
Ġe in
iv il
Ġv ar
Ġad op
ut ed
Â ¬
ER S
Ġauthor ized
Ġag reement
ear ch
um p
ven ue
Ġsec urity
ĠSec urity
ro und
ĠÏĦ Î¿Ïħ
ĠE st
fer red
viron mental
ĠS e
d ic
ĠO n
rib ution
Ġcom ments
m ary
Ġex per
ĠC ounty
ung s
Ġ4 7
a ut
Ġ4 6
ant e
L O
o ugh
Ġhour s
Ġproper ty
ver y
on se
cl os
if y
l ich
Ġ ĊĠĠĠĠĠĠĠĠĠĠĠ
ĠT R
Ġl oss
A ll
w ay
er n
Ġre search
an ia
um er
: \
T able
Ġre comm
p art
j i
Ġmet hod
tic s
c il
x im
E F
Ġ00 000
z a
ĠS f
3 00
Ġt ake
Ġ iz
rit er
m ar
Ġab ove
ĠP ublic
Ġper mit
ilit ary
Ġ........................................................................... .
Ġus ing
ĠFr m
ĠF mt
ĠJ kt
ĠSf mt
ĠT o
Ver Date
Ġz a
Î± Ïģ
ĠA D
h ic
Ġass ets
Ġu til
Ġm embers
r ing
Ã½ ch
uf act
Ġd ay
Ġf uture
ĠC ar
Ġcount ry
pos ed
Ġsh are
il ar
an ci
ĠFor m
ĠA ir
Ġe urop
] (
Ġs it
Ġb ro
ol o
Ġbenef its
C C
la mento
i res
Ġ Å¡
R eg
Ġd ans
Ã© r
ĠI R
ti tion
Ġg e
Ġp ers
Ġdetermin ed
M P
) )
is ed
Ġare as
A l
Ġrem ain
Ġemploy ees
Ġ............................................................................ .
Ġin iti
Ġ200 0
Ġs ales
mer cial
ĠI II
Ġel ig
Ġpri vate
Ġ <
Ġs che
er ed
Ġqu es
E A
j u
ĠDirect or
Ġ ĊĠĠĠĠĠĠĠĠĠĠĠĠĠĠĠĠĠĠĠĠĠĠĠĠĠĠĠĠĠĠĠĠĠĠĠĠĠĠĠĠĠĠĠĠĠĠĠĠĠĠĠĠĠĠĠĠĠĠĠĠĠĠĠĠĠĠĠĠĠĠĠĠĠĠĠĠĠĠĠĠĠĠĠĠĠĠĠĠĠĠĠĠĠĠĠĠĠĠĠĠĠĠĠĠĠĠĠĠĠĠĠĠĠĠĠĠĠĠĠĠĠĠĠĠĠ
Ġcomm on
com p
Ã¤ t
ci Ã³n
ĠAg reement
v est
Ġissu ed
Ġg ood
Ġhe lp
it Ã©
TI V
Ġk om
t ra
Ġad just
Ġ3 14
v iew
Ä« b
Ġres ults
Ġc all
Ġpay ment
ĠS o
an a
Ġj e
Ġch anges
om es
ÏĦ Î±
Ġp ost
Ġb udget
Ġequ ipment
I A
Ïİ Î½
Ġhe t
Ġfollow s
Ġ201 7
Ġ202 1
Ġdec ision
Ġpro du
Ã© t
ÃŃ t
Ġspec ific
or g
in n
Ġinclud ed
ĠT ra
al i
ĠA pril
Ġimp act
ĠE m
er ve
ul ation
Ġpro j
O P
Ġ201 5
Ġreg ist
u el
Ġre al
A s
Ġ4 1
Ġ201 8
ĠP er
Ã¡ r
Ġ............................................................................. .
is es
Ġm ajor
Ġth ree
ven tion
rit ten
Ġassist ance
Ġp a
Ġ ĠĊĠĠĠ
Ġag encies
ent ly
ĠP r
op e
Ġr ules
Ġprovid es
N A
ĠAdminist ration
Ġagain st
ner gy
Ġre ad
Ġau f
ĠIn s
ĠG e
S EC
p re
ĠC or
Ġt ar
C ont
ÃŃ a
B y
ment e
m y
at ural
Ġpur ch
ĠF und
id es
4 00
w ise
ĠP re
Ġa z
is iÃ³n
ĠG r
ĠOct ober
X X
ĠÎ ¿
ht t
EM ENT
ab ilities
ect or
Ġme an
Ġw ar
Î ķ
Ġman ufact
Ġo ch
O US
Ġsec ond
T A
Ġcar ry
Ġ.............................................................................. .
re as
ens ion
tific ation
le y
ebru ary
201 3
Ġ201 6
ith er
Ġs us
par agraph
ic o
Ġ =
is c
Ġpartic ular
Ã© e
le an
Î¿ Ïį
qu is
Ġrig ht
e as
Ġsubmit ted
Ġcap ital
200 3
le c
Ġstandard s
h ts
Ġj ob
Ġconsider ed
ol a
Ġter ms
Ġfore ign
n el
il le
Ġproduc tion
ĠServ ices
ĠE PA
Ġt able
oh n
un ic
k l
le ase
m i
Ġs al
a is
Ġpo int
Ġcomp any
ĠC ol
Ġpro ceed
Ġs he
c z
Ġcons ist
ĠTh ere
d es
Ġver y
cri ption
ĠTh at
Ġl ic
Ġ............................................................................... .
Ġcom b
Ġo rig
Ä ĭ
Ġth en
Ġdef ined
ric ult
Ġbel ow
S ection
ĠW ashington
Ġl ast
Ġs ol
AN D
Ġreport ed
Ä ¡
Ġinv ol
in al
am a
OR D
eg o
Ġperform ance
Ġemploy ee
l in
ĠPl an
Ġt il
T S
am b
Ġens ure
Ġ ri
Ġestabl ished
ell er
s ch
fer ence
G E
Ġpl ace
Ġof fer
Å Ľ
Ġun a
Ġimpro ve
Ġ7 5
ron ic
ĠD ist
Ġsystem s
ĠCon se
p o
Ġc ash
Ġdef in
Ġlim it
P RO
st anding
Ġvi ol
i h
Ġ ĊĠ
ent e
st e
iv ision
Ġn ow
t or
ac c
Ġob tain
Î± Î½
Le vel
at her
ĠCh air
abl es
mer g
ruct ure
s ec
ad y
ten ance
ti vely
ir m
ĠUn ion
ĠR EP
a ult
S S
ĠN umber
Ġorgan iz
Ġmain tain
Ġsu m
Ġ................................................................................ .
1 01
ĠOff ic
Ġcl er
Ġz u
ĠE nergy
IL L
Ġdocu ment
e z
m on
AP TER
Ġ200 1
Ġm en
ĠP ri
Ġ ĠĊĠĠĠĠĠĠĠĠĠĠĠ
Î¹ Ïĥ
id en
Ġw ord
U D
ĠB ank
b an
ĠÎ ³
Ġl ater
ĠThe se
M E
00 01
ĠDef ense
ĠEx ecutive
Ã ª
ĠS ystem
d ing
ĠĊĠĠĠĠĠĠĠĠĠĠĠĠĠĠĠĠĠĠĠĠĠĠĠĠĠĠĠĠĠĠĠĠĠĠĠĠĠĠĠĠĠĠĠĠĠĠĠĠĠĠĠĠĠĠĠĠĠĠĠĠĠĠĠĠĠĠĠĠĠĠĠĠĠĠĠĠĠĠĠĠĠĠĠĠĠĠĠĠĠĠĠĠĠĠĠĠĠĠĠĠĠĠĠĠĠĠĠĠĠĠĠĠĠĠĠĠĠĠĠĠĠĠĠĠĠ Ġ
k o
P T
ĠĊĠĠĠĠĠĠĠĠĠĠĠĠĠĠĠĠĠĠĠĠĠĠĠĠĠĠĠĠĠĠĠĠĠĠĠĠĠĠĠĠĠĠĠĠĠĠĠĠĠĠĠĠĠĠĠĠĠĠĠĠĠĠĠĠĠĠĠĠĠĠĠĠĠĠĠĠĠĠĠĠĠĠĠĠĠĠĠĠĠĠĠĠĠĠĠĠĠĠĠĠĠĠĠĠĠĠĠĠĠĠĠĠĠĠĠĠĠĠĠĠĠĠĠĠĠĠ Ġ
ĠĊĠĠĠĠĠĠĠĠĠĠĠĠĠĠĠĠĠĠĠĠĠĠĠĠĠĠĠĠĠĠĠĠĠĠĠĠĠĠĠĠĠĠĠĠĠĠĠĠĠĠĠĠĠĠĠĠĠĠĠĠĠĠĠĠĠĠĠĠĠĠĠĠĠĠĠĠĠĠĠĠĠĠĠĠĠĠĠĠĠĠĠĠĠĠĠĠĠĠĠĠĠĠĠĠĠĠĠĠĠĠĠĠĠĠĠĠĠĠĠĠĠĠĠĠĠĠĠ Ġ
ĠÎ¼ Îµ
Ġgiv en
Ġh im
Ġun til
ess ional
Ġg Ä§
ĠM c
ĠO per
Ġb est
air s
el t
w er
Ġexp enses
s ue
Ġv ol
ĠS u
in c
Ġs ep
Ġ Ã©s
Ġother wise
Ġprin cip
ÏĦ Î¿
d i
Ġcommun ic
ur a
ĠH ow
ĠNo vember
ut y
ĠL aw
IT Y
Ġf ound
I nd
S ub
uild ing
Ġs aid
Ġa verage
isch en
Ġle t
Ġb ack
ĠP h
Ġproced ures
e v
mission s
Ġt reat
A pp
ĠIn formation
ĠR o
Ġcommun ity
Ġsh ares
Ġexist ing
ĠLe vel
or ld
Ġeconom ic
Ġs afety
Îµ Î¯
o ff
al d
Â §
Ġpr ice
Ġn r
Ġoper ating
en ing
Ġadminist rative
Ġpol icy
Ġe very
Ġm il
r as
ri al
end ment
Ġs eg
a it
if orn
Ġr ates
ĠFin ancial
et h
and e
Ġeduc ation
Ġj ud
FOR M
Ġc ustom
Ġ ur
ug ht
ord er
ti ll
Ġtra ining
ĠS ur
Ġsu p
200 2
ii i
ĠĊĠĠĠĠĠĠĠĠĠĠĠĠĠĠĠĠĠĠĠĠĠĠĠĠĠĠĠĠĠĠĠĠĠĠĠĠĠĠĠĠĠĠĠĠĠĠĠĠĠĠĠĠĠĠĠĠĠĠĠĠĠĠĠĠĠĠĠĠĠĠĠĠĠĠĠĠĠĠĠĠĠĠĠĠĠĠĠĠĠĠĠĠĠĠĠĠĠĠĠĠĠĠĠĠĠĠĠĠĠĠĠĠĠĠĠĠĠĠĠĠĠĠĠĠĠĠĠĠ Ġ
Ġ ĠĠĊĠĠĠĠĠĠĠĠĠĠĠ
S C
Ġh old
Ġrig hts
Ġm it
Ġp op
Î ¾
Ġ................................................................................. .
Ġa ud
Ġs ci
Ġo s
Ġa us
Ġg ra
Ġoff ice
a ve
F IC
iforn ia
Ġj ur
R es
ec tiv
i em
Ġ`` (
ic a
Ġse ver
l as
re ed
Ġl abor
ĠPro t
Ġh and
ÃŃ cul
ĠT echn
Ġspec ified
Ġwe ek
H R
ĠRec ord
b ased
ĠCoun cil
ĠE X
Ġfund ing
M ember
n os
tit u
I t
p ay
ĠN r
ij a
ÏĦ Î¹Îº
Ġdisc uss
Ġfil ed
c a
y b
Ġc oun
hib it
P R
r id
Ã¶ n
Ġm ember
ĠA ff
Ġfac ilities
Ġch apter
ĠR EC
r ator
du le
Ġlevel s
Ġam ounts
f rom
Ġdis pos
Ġ.................................................................................. .
ĠRep resent
T otal
6 00
Î® ÏĤ
Ġj ust
it o
res p
ĠKom is
Ġinclud es
Ġh ig
ĠSec urities
und er
Ġdel iver
ĠĊĠĠĠĠĠĠĠĠĠĠĠĠĠĠĠĠĠĠĠĠĠĠĠĠĠĠĠĠĠĠĠĠĠĠĠĠĠĠĠĠĠĠĠĠĠĠĠĠĠĠĠĠĠĠĠĠĠĠĠĠĠĠĠĠĠĠĠĠĠĠĠĠĠĠĠĠĠĠĠĠĠĠĠĠĠĠĠĠĠĠĠĠĠĠĠĠĠĠĠĠĠĠĠĠĠĠĠĠĠĠĠĠĠĠĠĠĠĠĠĠĠĠĠĠĠĠĠĠĠ Ġ
d a
200 0
Ġag ree
od y
Ġin vestig
ĠF ebruary
at z
al t
en a
p ri
Ġr is
Ġk e
re c
er m
ag ed
Ġstate ments
Ġto day
end er
Ġener gy
Ġcontin ue
Ġ 000
S ee
T r
ĠR iver
Ã© es
Ġcal cul
ord in
ĠRegul ation
Ġcont rib
ir c
Ġf ail
ĠAug ust
Ġf ederal
ep end
Ġpurpos e
ock et
Ġregard ing
ĠC ap
ĊĊ Ċ
Ġres ources
ach ers
= '
xim ately
Ġ................................................................................... .
O S
Ġre duc
Ġreport ing
ure au
Ġc riter
ous ing
Ġ um
Ġo pport
ĠY ork
I M
L L
Ġst ri
Ġelig ible
end ix
ĠInd ian
Ġb ank
Ġle ast
ÏĦ Î±Î¹
Ã¡ g
Ġcom mittee
Ġd on
in ued
Ġb al
u x
Ġg as
ĠE r
Å ¯
cc ess
Ġcon struction
Ġins urance
Ġis sue
L A
ÏĢ ÏĮ
ĠĊĠĠĠĠĠĠĠĠĠĠĠĠĠĠĠĠĠĠĠĠĠĠĠĠĠĠĠĠĠĠĠĠĠĠĠĠĠĠĠĠĠĠĠĠĠĠĠĠĠĠĠĠĠĠĠĠĠĠĠĠĠĠĠĠĠĠĠĠĠĠĠĠĠĠĠĠĠĠĠĠĠĠĠĠĠĠĠĠĠĠĠĠĠĠĠĠĠĠĠĠĠĠĠĠĠĠĠĠĠĠĠĠĠĠĠĠĠĠĠĠĠĠĠĠĠĠĠĠĠĠ Ġ
201 2
ĠÏĦÎ· Î½
l ik
E Y
t u
ĠĊĠĠĠĠĠĠĠĠĠĠĠĠĠĠĠĠĠĠĠĠĠĠĠĠĠĠĠĠĠĠĠĠĠĠĠĠĠĠĠĠĠĠĠĠĠĠĠĠĠĠĠĠĠĠĠĠĠĠĠĠĠĠĠĠĠĠĠĠĠĠĠĠĠĠĠĠĠĠĠĠĠĠĠĠĠĠĠĠĠĠĠĠĠĠĠĠĠĠĠĠĠĠĠĠĠĠĠĠĠĠĠĠĠĠĠĠĠĠĠĠĠĠĠĠĠĠĠĠĠĠĠ Ġ
Ġpay ments
ĠAg ency
ĠÎ ķ
Ġhe ld
b re
Ġimport ant
i pp
Ġp un
ĠEurop ean
Ġf our
force ment
ish ing
O D
Ġp as
ĠÃ º
mer ce
Ġc op
F ederal
em s
ĠĊĠĠĠĠĠĠĠĠĠĠĠĠĠĠĠĠĠĠĠĠĠĠĠĠĠĠĠĠĠĠĠĠĠĠĠĠĠĠĠĠĠĠĠĠĠĠĠĠĠĠĠĠĠĠĠĠĠĠĠĠĠĠĠĠĠĠĠĠĠĠĠĠĠĠĠĠĠĠĠĠĠĠĠĠĠĠĠĠĠĠĠĠĠĠĠĠĠĠĠĠĠĠĠĠĠĠĠĠĠĠĠĠĠĠĠĠĠĠĠĠĠĠĠĠĠĠĠĠĠĠĠĠ Ġ
Ã ī
b ur
E X
Ġprev ious
Ġexce ed
Ġin te
Ġappro ved
s ub
ĠS ee
Ġex pl
C on
Ä ĥ
ĠS EC
ĠâĢĵ âĢĵâĢĵ
G R
Ġde v
Ġas k
l an
ul ti
ĠR el
ĠF ore
Ġ5 5
Ġ.................................................................................... .
Ã¨ g
Ġnot e
Ġins p
Ġsep ar
ac ter
se qu
Ġl ine
ĠĊĠĠĠĠĠĠĠĠĠĠĠĠĠĠĠĠĠĠĠĠĠĠĠĠĠĠĠĠĠĠĠĠĠĠĠĠĠĠĠĠĠĠĠĠĠĠĠĠĠĠĠĠĠĠĠĠĠĠĠĠĠĠĠĠĠĠĠĠĠĠĠĠĠĠĠĠĠĠĠĠĠĠĠĠĠĠĠĠĠĠĠĠĠĠĠĠĠĠĠĠĠĠĠĠĠĠĠĠĠĠĠĠĠĠĠĠĠĠĠĠĠĠĠĠĠĠĠĠĠĠĠĠĠ Ġ
Îµ ÏĤ
ER AL
Ġ5 3
OUS E
Ġc our
O n
t re
Ġpol iti
Ġf r
f in
Ġp ubl
es ch
Ġindividual s
Ġl ife
A IR
ra w
ĠO ther
ne y
ĠA f
Ġau x
ĠA C
ivers ity
Ġg re
az ione
Ġcon n
Ar ticle
Ġam ong
Ġexper i
a at
ĠThe y
Ġe ither
erv ation
ĠG ar
s ection
Ġv ote
Ġ5 2
Ġext ent
ic s
Ġ..................................................................................... .
Ġa ward
U M
i am
ĠL o
Ġsim ilar
ĠST L
ĠB er
Ġrece ive
Ġprot ection
Ġ6 5
Ġf air
ĠB l
Ġv om
A g
ĠÏĢ ÏģÎ¿
U T
Ġlim ited
\_\_ \_\_
tit ute
Ġoffic ial
velop ment
u er
u i
ĠD C
Ġpot ential
Ġ ĠĠĊĠĠĠĠĠĠĠĠĠ
eg a
ual ly
ĠP a
8 00
Ġassoci ated
A m
Ġrefer ence
l ing
Ġm ilitary
Ġ0 2
Ġpers ons
ĠN orth
v ar
one y
p ut
Ġgro w
an ies
Ġbenef it
med i
Ġbe gin
Ġar t
Ġlik e
Ġg ener
Ġcompl iance
ab ly
Ġcol lection
Ġ8 0
y t
Ġb ase
m es
Ġsub paragraph
Ġ...................................................................................... .
Ġmonth s
ri ed
olog ical
ES S
is on
Ġanal ysis
ac iones
y ch
duc ation
Ġs ett
Ġn om
Ġd as
Ġ ĊĠĠĠĠĠĠĠĠĠĠĠĠĠĠĠĠĠĠĠĠĠĠĠ
ĠT otal
k er
Ġchild ren
Ġsec urities
Ġb i
P L
Ġfac ility
ĠĊĠĠĠĠĠĠĠĠĠĠĠĠĠĠĠĠĠĠĠĠĠĠĠĠĠĠĠĠĠĠĠĠĠĠĠĠĠĠĠĠĠĠĠĠĠĠĠĠĠĠĠĠĠĠĠĠĠĠĠĠĠĠĠĠĠĠĠĠĠĠĠĠĠĠĠĠĠĠĠĠĠĠĠĠĠĠĠĠĠĠĠĠĠĠĠĠĠĠĠĠĠĠĠĠĠĠĠĠĠĠĠĠĠĠĠĠĠĠĠĠĠĠĠĠĠĠĠĠĠĠĠĠĠĠ Ġ
ĠU S
Ġo der
Ġpl ans
s el
Ġlegis lation
ov Ã¡
Ġw er
Ġp at
Ġ7 0
Ġcon form
c ons
Ġlo an
l ag
ĠSen ator
ĠD E
Ġ199 9
Ġpos ition
id i
f e
Ġ5 1
tic es
el d
e qu
Ã© n
Ġve hic
u v
ens ive
og raph
Ġ....................................................................................... .
0 80
us es
id o
ĠAmeric a
Ġc ivil
ĠM on
ĠKom mission
n es
Ġn ame
olum e
im in
Ġh ist
Ġd own
TH ER
S ource
Ġv ot
htt p
in ter
Ġk on
n ung
Ġwh ile
Ġcom mercial
es tim
ĠN on
Å Ĩ
man n
ĠM ember
ob re
Ġn orm
Ġc lear
im e
Ġfin d
]( #
Ġres olution
N I
Â °
is dic
Ġestim ate
Ġd rug
D e
AR Y
Ġ0 3
ĠD ire
ad as
Ġs i
Ġtechn ical
Ġm er
ÄĹ s
Ġqual ity
eter ans
ÅĻ ÃŃ
T o
Ġz ur
Ġ........................................................................................ .
Q U
St ate
Ġv oor
ĠCal ifornia
Ġf ood
Ġmeas ures
Ġst aff
or ies
Ġret urn
un c
L C
201 4
201 9
oll ar
ag ers
ĠV al
an o
Ġter min
I B
ĠD is
on es
Ġh ab
Ġstate ment
l ies
Ġw ant
Ġ0 4
Ġab le
o le
Ġsu ccess
âĢ ľ
l ow
Ġhe ad
Ġc ourt
ra g
Ġd at
Ġrel ati
Ġ5 9
202 0
10 5
ĠW ork
i os
d el
Ġlaw s
ĠGro up
Ġp red
ri e
er y
ĠEn g
Ġex em
olid ated
az z
Ġinvest ment
Ġre lev
Ġd ies
Ġw ritten
Ġtak en
ÃŃcul o
Ġan other
mit ted
ĠÏĦ ÏīÎ½
EN D
Ġstud y
Ġ......................................................................................... .
i que
it a
Ġentit y
Ġtrans fer
Ġre ports
Ã³ w
ĠE U
Ġdetermin e
ĠI V
l ob
ĠAr ticle
1 02
-------------------------------- --------------------------------
pl es
ĠA uthor
Ġg et
Un ited
Ġcomp e
Ġmeas ure
ign ed
quis ition
ĠH OUSE
ĠâĢ ¢
Ġw ay
ĠAss ist
hal f
ti cip
Ã ±
J O
ĠTR AN
ot a
Å ¥
Ïģ Î±
ĠDist rict
ĠR E
Ġ1 01
Ġcriter ia
ter m
Ġestablish ment
z i
ĠN ov
Ġc ateg
D ec
Ġcol le
Ġe v
Ġm u
ĠCON G
Ġst ra
ip s
ER V
Ġl ow
II I
7 00
b o
Ġe ven
Ġp Ã¥
r ast
ĠCent er
ĠS P
Ġclass ified
Ġeurop Ã©
Ã¡ t
Ġl iv
ĠW ith
ak s
ra v
ĠM e
Ã¤ l
em ploy
iv al
Ġincre ased
ĠSt ock
ĠC ourt
u ks
Ġ.......................................................................................... .
Ġsh ow
ĠT e
Ċ ĊĠ
m ark
Ġs ite
ĠL abor
ĠÎ ½
re am
n own
Ġth ink
in cluding
Ġins er
as ter
ati c
Ġen c
Ġch ar
z t
Ġsh own
ĠRes earch
ister ed
99 9
Ġ5 4
Ġmain tenance
Ġques tion
ĠM ean
on str
ing le
Ã³ l
y ing
ĠST A
Ġty p
ĠâĢ ĭ
Ġs ince
us tice
clud ed
Ġsur vey
ĠM ark
Ġph ys
Ġwork ing
Ġprovid ing
Ġal tern
Ġrel ating
Ġgo ing
ech an
osp ital
du ce
anc ed
us te
le x
Ïģ Î¯
rÃ© d
Ġcover ed
er o
Ġe vent
Ġr Ã¨g
Ġrecomm end
ĠAdminist rator
ac tions
O ther
Ġrefer red
ĠM art
ĠÃ¼ ber
Ġ........................................................................................... .
Ġ5 6
Ġappro val
Ġt re
ffic ient
Ġ202 2
ĠAn n
in ts
M S
A Y
ud e
12 0
202 1
ĠT itle
Ġpr z
Ġde pos
o ot
Ġac tions
Ġ3 16
Ġaff ect
ĠNot es
Ġcl os
Ã¡ m
um b
Ġappro ximately
c ol
ĠB ureau
Ġproj ects
ort g
a Ã§Ã£o
i ra
1 10
ĠA b
Å Ħ
T E
Ġpar ties
Ġmin imum
u j
Ġfor th
Ġv ess
Ġt rib
ic ies
Ġpro ble
Ġcomp ensation
am es
Ċ ĉĉ
ĠÏĥ Ïħ
ĠD es
Ġm ax
Ġv ers
L D
Ġk o
Ġdet ail
Ġpar ty
Ġrequire ment
z o
wh ich
ÏĢ Î¹
Ġeff orts
Ġleg al
ist a
en ÃŃ
ÏĥÎ· ÏĤ
Ġgu id
Ġcla use
Ġregul atory
Ġcons um
ĠÎ³ Î¹Î±
Ġv ari
he m
Ġtechn ology
ĠRep ublic
200 1
Ġh uman
ĠD ate
Ä ĩ
ul f
Ġissu es
r up
P S
Ġcons ult
201 8
ĠU nder
Ġ............................................................................................ .
v ision
t w
Ġmed ical
Ġ ĊĠĠĠĠĠ
O V
us ed
sk a
Ġmeet ing
Ġcap ac
Ġdeb t
ĠS ep
u ation
P ar
Ġk g
PRO D
Ġm a
b l
vid ence
Ġbel ieve
ĠM a
ĠOr der
ĠCO MM
e ff
ï¿½ï¿½ ï¿½ï¿½
Ġfam ily
ht m
Ġn ear
Ġro z
Ġg reat
TI NG
Ġe le
Ġt ill
Ġv Ã½
Ġeng ine
m et
E W
ĠL a
Ġ Å¾
ĠOffic er
Ġtra de
g g
ĠSt andard
Ġm aking
la ment
C S
00 1
im o
on a
Ã¤ m
hold ers
n ed
Ġa ch
ĠMed ic
ent al
ord nung
H e
ĠS ci
or row
ĠA L
C A
ATION S
Ġm ov
Ġinst ru
Ġsubst anti
z n
, "
ĠeuropÃ© en
Ġc e
ha ve
Ġ0 5
Ġdis clos
un t
Ġ ended
ex as
ĠÄ ¯
a ire
ĠCONG RES
Ġ5 8
ĠCh ief
ĠC orporation
Ġorgan ization
Ġm uch
Ġg en
Ġfl ow
Ġent re
Ġst e
merg ency
Ġpre p
Ġrequ ires
ĠE l
Ġhe aring
E UR
Ġmod el
ĠEm ploy
Ġneed s
Ġ5 7
F L
Ġm is
Ġ ĠĠĠĊĠĠĠĠĠĠĠĠĠĠĠ
Ġd est
Ġp ort
Ġk a
01 0
Ġcomp anies
ĠTrans portation
Ġv o
Ġdiffer ent
Ġconsider ation
ess ion
ĠE ducation
Ġresp onse
iv ed
Ġcomp on
Ġexam ple
ne x
Ġty pe
au x
ra p
d is
as k
Ġadd ed
en ess
Ġh ome
s et
Ġ9 5
ĠM in
Ġestim ated
Ġent er
C I
Ġth ird
Ġj o
C al
0000 00
Ġjur isdic
Ġb ur
on y
A t
re qu
Îµ Î½
Ġhig her
Ġ............................................................................................. .
ĠC er
Ã© c
Ġfin anci
ĠÎ± Î½
C l
ow ski
g u
Ġwer den
fic i
m od
i u
Ġ Ïħ
Ġ Ð
ĠJ an
. âĢĻâĢĻ
per cent
Ġidentif ied
ĠE uro
Ġd ri
Ġun less
R ep
Ġs ale
ĠE N
ec tively
ĠS outh
Ġrecord s
D O
Ġspec ies
Ġaut or
Ġun it
cc up
re h
k en
atis f
Ġc ases
s en
S O
Ġ6 3
. "
Ġposs ible
ĠÏĦ Î¿
n ership
re a
Ċ ĊĠĠĠĠ
Ġfil ing
Ġprincip al
Ġm iss
Ġ6 7
identi al
Ġr en
Ġso cial
or gan
Ġrest ric
Ġb o
Ġun e
Ġenti ties
ro ad
it at
H S
AT ES
em e
Ġab ility
Ġoffic ers
Ġemploy ment
st s
Ġ0 9
Ġoper ators
emb re
uc k
Ġintern ational
Ġ3 10
h our
ad ata
ĠAff airs
Ã¡ v
ul ations
Ġd ella
ĠD em
Ġm eg
Ġc lean
Ġm i
ur red
e j
Ġco oper
n ie
i ec
Ġlo ans
k om
Ġassess ment
ĠT IT
f all
F M
Ġ3 13
ĠW ar
Ġsever al
Ġ.............................................................................................. .
erv is
av y
ib r
Ġint ended
il ies
Ġresp ond
Ċĉĉĉĉĉĉĉĉ ĉ
ÃŃ s
in en
G EN
t d
ĠREC ORD
Ġ1 02
Ġor d
ro up
SP ORT
ĠHow ever
Ġdist ribution
ol der
Ġha ving
ĠÄį l
AR D
Ġ \[
f ace
Ġcon st
Ġl arge
Ġ '
b r
ĠD SK
11 5
Ġm ulti
oci ation
ĠOF FIC
ĠJ ohn
S M
re et
ti e
ĠF il
Ġte le
Ġfact ors
ĠÏĢ Î¿Ïħ
ĠB r
201 7
ĠP R
pl ace
Ġexp ress
Ġ6 4
Ġs obre
Ġdis p
p res
Ġt en
Î¼ ÎŃ
ĠCom isiÃ³n
Ġgeneral ly
Ġpre m
Ġc as
Ġequ al
Ġr Ã©
Ġrelev ant
M ar
Ġs ay
ag o
ĠC la
Ġqu arter
Ġc irc
Ġben e
ĠĊĠĠĠĠĠĠĠĠĠĠĠĠĠĠĠĠĠĠĠĠĠĠĠĠĠĠĠĠĠĠĠĠĠĠĠĠĠĠĠĠĠĠĠĠĠĠĠĠĠĠĠĠĠĠĠĠĠĠĠĠĠĠĠĠĠĠĠĠĠĠĠĠĠĠĠĠĠĠĠĠĠĠĠĠĠĠĠĠĠĠĠĠĠĠĠĠĠĠĠĠĠĠĠĠĠĠĠĠĠĠĠĠĠĠĠĠĠĠĠĠĠĠĠĠĠĠĠĠĠĠĠĠĠĠĠ Ġ
Ã ´
Ġv iew
Ġd ed
C itation
tif ied
rig ht
EL L
ĠN et
tit utions
Ġd ated
ĠMet adata
S en
ĠReg lamento
Ċĉĉĉĉ ĉĉ
Ġ............................................................................................... .
er ies
Ġoper ation
ĠIntern ational
d z
o res
Ġ0 7
9 00
w ill
ĠTIT LE
Ġde g
Ġpre par
iti ve
Ġperson nel
Ġop en
L a
Ġtreat ment
Ä ¼
tiv a
Ġex erc
qu id
ov a
ce p
g reg
ci a
Ġ0 8
r t
our n
Ġstat us
ĠN O
Ð °
af ter
oc ation
SPORT ATION
enti fic
Ġins titution
ag er
201 6
on or
Ġ6 2
t in
U C
Ġf ees
ĠS EN
Ġdetermin ation
Ġo il
Ãµ es
Ġcurrent ly
und s
as ing
Ġb illion
C ON
Ġcler ks
ĠCont rol
AT ED
Ġd ivid
Ġoffic er
Ġf ix
igh ts
Ġad vers
Ġmaterial s
reas ury
Ġpurch ase
Ġ................................................................................................ .
Ġestim ates
ut a
viron ment
ar io
Ġinser ting
ĠChair man
ĠrÃ¨g lement
ĠN A
ĠD ata
Ġf ree
Ġm ill
Ġapp oint
Ġh ar
ar ant
Ġ7 8
quire d
Ġlet ter
Ġk Ã¶
Ġb u
Ġfe et
Ġ9 8
Ġ9 3
Ġ7 6
I TI
s z
ach ine
om a
Ġc aus
Ġbegin ning
Ġdec l
I f
ĠO R
F I
s pec
Ġmon itor
w ater
Ġ1 10
Ġst ates
ag ing
Ġe en
c s
clus ion
ti re
Ġgroup s
ĠM ad
ĠT rib
land s
Î ĳ
SION AL
Ġqu i
ĠB y
Ġ ess
Ġf ield
12 5
Ã¤ nd
o ks
mitte es
Ċĉĉĉĉĉĉĉĉ ĉĉĉĉ
Ġp ast
Ġf ar
ĠDe velopment
Ã¤ Ã¤r
n en
ĠV ir
Ġs ent
ra z
s ide
w ar
ĠB ut
Ġs ingle
Ġsh ort
Ġc rÃ©d
Ġg overn
ĠA tt
ĠCl ass
Ġj u
iz ing
Ġn atural
15 0
iti g
th ers
E K
r ange
Ġconn ection
ak es
end it
ĠC as
oll ars
ĠW est
ir ing
Ġf ile
Ġres id
Ġgre ater
ĠTRAN SPORTATION
Ġ................................................................................................. .
Ġ199 8
Î¼ Î±ÏĦ
Ġre duce
Ã¡ ll
** *
w as
ĠT er
ĠDire c
at ch
Ġ ĠĠĊĠĠĠ
j um
Ġs en
Ġorganiz ations
Ġsche dule
am m
anc ing
Ġ8 5
ap s
Ġs l
Ġoblig ations
ĠAr my
al a
ĠN OT
ĠS up
) {
Ġsp e
it Ãł
Ġn eg
ĠÎ± ÏĢÏĮ
201 5
j on
Ġdesign ated
c are
Ġappro ach
Ġeff ects
ĠF er
Ġd am
ore d
Ġch arg
ĠR ES
ur suant
Ġs atisf
Ġf ol
ĠP e
Ġexp ected
Ġdem onstr
ĠCH APTER
Ġinst all
Ġpar ag
Ġman ner
w a
Ġstri king
ul a
Ġrep air
led ge
or a
b ia
Ġreason able
ĠD o
Ġe vidence
Ġactiv ity
. âĢĿ
H A
ient o
Ġ5 00
epend ent
Ä ¾
g round
C Y
Ġtrans portation
g el
Ġrel ations
resp ond
Ġconsist ent
Ġ2 44
arg in
v an
Ã¨ re
Ġ.................................................................................................. .
Ġp ati
FORM ATION
Ġcri tical
St ates
Ġ _
ig ure
Ġhour ly
Ġpol icies
ĠD el
Ġund erst
ĠJ ud
Ġelect ronic
est a
TIV E
M ean
Ġbe half
er a
Ġd al
est ed
Ġperson al
Ġun its
ĠInd ust
ol u
Ġn icht
ĠÎ½ Î±
Ġm ight
ang u
ac ks
Ġpre vent
ard s
Ġd os
ĠĊĠĠĠĠĠĠĠĠĠĠĠĠĠĠĠĠĠĠĠĠĠĠĠĠĠĠĠĠĠĠĠĠĠĠĠĠĠĠĠĠĠĠĠĠĠĠĠĠĠĠĠĠĠĠĠĠĠĠĠĠĠĠĠĠĠĠĠĠĠĠĠĠĠĠĠĠĠĠĠĠĠĠĠĠĠĠĠĠĠĠĠĠĠĠĠĠĠĠĠĠĠĠĠĠĠĠĠĠĠĠĠĠĠĠĠĠĠĠĠĠĠĠĠĠĠĠĠĠĠĠĠĠĠĠĠĠ Ġ
âĢ ²
ĠÎ Ń
Ġloc ated
Ġn av
c re
ane ous
ar n
M s
ig e
N ew
ĠĊĠĠĠĠĠĠĠĠĠĠĠĠĠĠĠĠĠĠĠĠĠĠĠĠĠĠĠĠĠĠĠĠĠĠĠĠĠĠĠĠĠĠĠĠĠĠĠĠĠĠĠĠĠĠĠĠĠĠĠĠĠĠĠĠĠĠĠĠĠĠĠĠĠĠĠĠĠĠĠĠĠĠĠĠĠĠĠĠĠĠĠĠĠĠĠĠĠĠĠĠĠĠĠĠĠĠĠĠĠĠĠĠĠĠĠĠĠĠĠĠĠĠĠĠĠĠĠĠĠĠĠĠĠĠĠĠĠ Ġ
Ġint ro
ĠĊĠĠĠĠĠĠĠĠĠĠĠĠĠĠĠĠĠĠĠĠĠĠĠĠĠĠĠĠĠĠĠĠĠĠĠĠĠĠĠĠĠĠĠĠĠĠĠĠĠĠĠĠĠĠĠĠĠĠĠĠĠĠĠĠĠĠĠĠĠĠĠĠĠĠĠĠĠĠĠĠĠĠĠĠĠĠĠĠĠĠĠĠĠĠĠĠĠĠĠĠĠĠĠĠĠĠĠĠĠĠĠĠĠĠĠĠĠĠĠĠĠĠĠĠĠĠĠĠĠĠĠĠĠĠĠĠĠĠ Ġ
Ġprot ect
Ġex pos
ĠĊĠĠĠĠĠĠĠĠĠĠĠĠĠĠĠĠĠĠĠĠĠĠĠĠĠĠĠĠĠĠĠĠĠĠĠĠĠĠĠĠĠĠĠĠĠĠĠĠĠĠĠĠĠĠĠĠĠĠĠĠĠĠĠĠĠĠĠĠĠĠĠĠĠĠĠĠĠĠĠĠĠĠĠĠĠĠĠĠĠĠĠĠĠĠĠĠĠĠĠĠĠĠĠĠĠĠĠĠĠĠĠĠĠĠĠĠĠĠĠĠĠĠĠĠĠĠĠĠĠĠĠĠĠĠĠĠĠĠĠ Ġ
ol i
omes tic
2 50
ĠA bs
ur i
10 4
an ks
uc lear
Ġregul ation
' t
ĠĊĠĠĠĠĠĠĠĠĠĠĠĠĠĠĠĠĠĠĠĠĠĠĠĠĠĠĠĠĠĠĠĠĠĠĠĠĠĠĠĠĠĠĠĠĠĠĠĠĠĠĠĠĠĠĠĠĠĠĠĠĠĠĠĠĠĠĠĠĠĠĠĠĠĠĠĠĠĠĠĠĠĠĠĠĠĠĠĠĠĠĠĠĠĠĠĠĠĠĠĠĠĠĠĠĠĠĠĠĠĠĠĠĠĠĠĠĠĠĠĠĠĠĠĠĠĠĠĠĠĠĠĠĠĠĠĠĠĠĠĠ Ġ
ĠSo cial
ĠÏĢ Î±Ïģ
Ġn or
el and
Ġcontr acts
p tions
N on
ĠE v
as ka
Å Ī
ĠT exas
ĠE ff
Ġ6 1
orpor ated
==== ====
id as
ree k
Ġclaim s
Ġpubl ished
Ġ................................................................................................... .
enci a
Ġp ag
Ã© k
vid ed
lob al
ĠEurop Ã¤
Ġcontin u
go ing
ĠB udget
Î± Ïĥ
am i
10 6
Å¡ an
b ut
Ġy ield
Î ļ
CO M
Ġc ause
Ġl ower
Ġcomple te
ot or
10 3
roll ed
ov an
Ġchar acter
B ER
ĠS al
ĠM iss
ĠB usiness
Ġ199 6
Ġdirect ly
ch af
ĠĊĠĠĠĠĠĠĠĠĠĠĠĠĠĠĠĠĠĠĠĠĠĠĠĠĠĠĠĠĠĠĠĠĠĠĠĠĠĠĠĠĠĠĠĠĠĠĠĠĠĠĠĠĠĠĠĠĠĠĠĠĠĠĠĠĠĠĠĠĠĠĠĠĠĠĠĠĠĠĠĠĠĠĠĠĠĠĠĠĠĠĠĠĠĠĠĠĠĠĠĠĠĠĠĠĠĠĠĠĠĠĠĠĠĠĠĠĠĠĠĠĠĠĠĠĠĠĠĠĠĠĠĠĠĠĠĠĠĠĠĠĠ Ġ
Ġbal ance
Ġfor ward
Äģ s
ĠE qu
ad d
ra f
ut er
ĠA M
ĠL i
n ia
is ation
ĊĊĊĊĊĊĊĊ ĊĊĊĊĊĊĊĊ
Ġ7 2
ĠC ity
R ec
D ep
P age
A meric
get her
f Ã¼
el se
Ġ Ì
tit le
ri a
Ġdist rib
ac ed
Ġentit led
un ities
ÏĨ Î¿
l ied
Ġpri v
Ġ6 9
Ġ7 4
Ġcer tific
ĠE lect
ĠS UB
Ġp ress
cl es
ĠN e
Ġ10 4
ĠU N
Ġ3 00
ĠO b
Ċĉĉĉĉ ĉ
Ġcount ries
K S
Ã¤ Ã¤
Ġlist ed
Ġu z
if f
ten tion
ĠP RES
ĠIN FORMATION
Ċ ĊĠĠĠĠĠĠ
Ġf ive
Äį i
st at
Ġvar ious
Ġpor tion
ĠCONGRES SIONAL
c onom
} .
Ġj oint
E AR
ĠCongress ional
n ov
over y
ĠS U
ĠĊĠĠĠĠĠĠĠĠĠĠĠĠĠĠĠĠĠĠĠĠĠĠĠĠĠĠĠĠĠĠĠĠĠĠĠĠĠĠĠĠĠĠĠĠĠĠĠĠĠĠĠĠĠĠĠĠĠĠĠĠĠĠĠĠĠĠĠĠĠĠĠĠĠĠĠĠĠĠĠĠĠĠĠĠĠĠĠĠĠĠĠĠĠĠĠĠĠĠĠĠĠĠĠĠĠĠĠĠĠĠĠĠĠĠĠĠĠĠĠĠĠĠĠĠĠĠĠĠĠĠĠĠĠĠĠĠĠĠĠĠĠĠ Ġ
Ġr ange
ĠE ur
et e
av a
ĠĊĠĠĠĠĠĠĠĠĠĠĠĠĠĠĠĠĠĠĠĠĠĠĠĠĠĠĠĠĠĠĠĠĠĠĠĠĠĠĠĠĠĠĠĠĠĠĠĠĠĠĠĠĠĠĠĠĠĠĠĠĠĠĠĠĠĠĠĠĠĠĠĠĠĠĠĠĠĠĠĠĠĠĠĠĠĠĠĠĠĠĠĠĠĠĠĠĠĠĠĠĠĠĠĠĠĠĠĠĠĠĠĠĠĠĠĠĠĠĠĠĠĠĠĠĠĠĠĠĠĠĠĠĠĠĠĠĠĠĠĠĠĠĠ Ġ
Ġ.................................................................................................... .
T C
Ġcom e
st er
Ïģ Î¬
Ġcan not
Ġp ut
c y
M I
d ef
Ġrem ov
Ġsam ple
N ational
ĠĊĠĠĠĠĠĠĠĠĠĠĠĠĠĠĠĠĠĠĠĠĠĠĠĠĠĠĠĠĠĠĠĠĠĠĠĠĠĠĠĠĠĠĠĠĠĠĠĠĠĠĠĠĠĠĠĠĠĠĠĠĠĠĠĠĠĠĠĠĠĠĠĠĠĠĠĠĠĠĠĠĠĠĠĠĠĠĠĠĠĠĠĠĠĠĠĠĠĠĠĠĠĠĠĠĠĠĠĠĠĠĠĠĠĠĠĠĠĠĠĠĠĠĠĠĠĠĠĠĠĠĠĠĠĠĠĠĠĠĠĠĠĠĠĠ Ġ
A G
Ġen vironmental
Ġcon cent
Ġac ross
Ġan im
Äģ r
c u
te x
ĠF lor
Ġs av
ortg age
he l
n is
ĠQ u
pro gram
Ġrel ative
Ġcontain ed
es e
T ON
Ġth reat
re ct
m ore
ĠRepresent atives
Ġ9 6
le man
Ġjurisdic tion
v ille
Ġw orld
Ġis t
Com mittee
ÎŃ ÏĤ
d em
Ġstud ents
Ġen forcement
Â ·
Ġwe ight
1 12
ĠO N
ĠProt ection
Ġ ĊĠĠĠĠĠĠĠĠĠĠĠĠĠ
AC T
Ġ #
i ers
ĠSur vey
P er
com mittee
Ġs ector
Î» Î»
ĠG EN
Ġmat ter
Ġthere of
Com p
rast ructure
Ġs ource
Î½ Î¿
dition al
ĠD av
th ough
Ġex change
it ing
K om
Ġv ir
Ġk nown
em ed
ion i
st ances
et o
Ġaff ected
rel ated
Ġgrow th
Ġbec ome
en tive
he ad
ol s
Ġf uel
ĠÎº Î±ÏĦ
Ġ3 79
un i
Ġ8 7
Ġb r
Ġan s
Ġjob s
end ar
Ġap lic
Ġm oney
Ġland s
Ġre venue
Ġf ish
Ġs on
ĠB en
it er
ĠÃ© t
ĠD r
M an
Ġl arg
Ġw a
Ġ..................................................................................................... .
et te
ĠY ear
ly ing
Ġb oard
Ġ199 7
ĠF Y
OR P
re ady
ĠM it
Ġaccount ing
ĠRes p
Ġcont act
Ġserv ed
e a
ricult ure
Ġ7 3
ĠB o
Ġv ast
Ġd ell
Ġopport unity
ent es
Ġ6 8
and o
Ġagree ments
IS T
AN CE
, âĢĿ
Ġ9 1
Ġ9 7
m ig
Ġh ospital
for d
. ]
iz es
Ġp en
-- -
ph one
O J
ĠAcc ount
Ġdefin ition
ĠC an
lic ation
Ġf unc
m aking
ĠW ill
ĠA R
Ġdire c
ĠL ong
ĠRe view
is che
ai res
Th ere
ĠAm endment
P ub
Ġh al
Ġ9 2
ĠÅ ł
Ġin j
Ġimplement ation
Ġv Ãµ
Ġ199 5
f unction
ond s
Ġob serv
Ġex ecutive
" ,
ĠB ar
Ġcapac ity
C o
Ġcop y
S erv
f l
orpor ate
j en
y pe
Ġa ge
Ġlegis l
eng th
Ġapp ear
Î Ł
yd ro
ur er
is ing
Ïĥ ÎµÎ¹
Ġd ass
ex p
Ġl ie
Ġ eller
Ġim medi
ĠCom merce
ĠD I
Ã§ Ãµes
Ġar tikel
iti z
p a
v et
ÏĦ Îµ
Ġf ew
Ġex port
Ġgr ants
Ġf ra
Ġt ext
su ch
ain s
str uc
ÏĦ Î¹
it en
os ition
Ã ľ
I ON
Ġlik ely
Ġ( âĢľ
Ġ ĠĊĠĠĠĠĠ
ici ans
n et
Ġamend ments
Ã¼ l
olog ies
n ik
202 2
ah r
ell ig
Ġser ve
ĠW ater
Ġst ated
Ġ8 4
Ġ ĠĊĠĠĠĠĠĠĠ
Ġ x
Ġ...................................................................................................... .
ak is
ar ticle
av or
Ġsection s
Ġdocu ments
end en
10 7
Ã¸ r
Ġart ÃŃculo
ĠOr gan
Ġer ror
ar a
Ġtrans port
P O
Ġ ĠĠĠĊĠĠĠĠĠĠĠĠĠ
al ity
Ġte achers
Ġ8 8
Ġw ages
ĠGar c
ra y
Ġn ext
Ġfam ilies
ed er
se e
ad es
Ä«b as
or ney
ĠP ort
ĠÎ ·
Ġab s
sh all
Ã ļ
Ġprof essional
D ef
Tr ans
id d
ĠP erson
ĠD ivision
tr ans
Ġpl ant
Ġf oc
Ġ9 4
y k
Ġfor ce
Ġ ÏĮ
l ers
Ġk as
199 9
ART MENT
ri er
Ġpop ulation
l ie
ĠP L
Un ion
Ġpl us
angu age
Ġha z
Ġm es
Ġreg ional
Ġiniti al
Ġs ources
M eas
ĠS pecial
U ND
Cont inued
Ġins titutions
ĠSt reet
Ġconduct ed
Ġ ud
Ġ7 7
Ġf urn
Ġop tions
ĠH er
Ġtim es
Ġcons ent
ĠAnn ual
i ment
Ġmo tion
re ase
ĠM A
Ġd r
ag ues
Î ¶
Ġh at
Ġmax imum
c raft
ĉĠ ĉĠ
ĠR ed
o pp
sh ip
Ġsus p
UR N
f ol
Ġb re
ĠP res
Ġhow ever
us h
A nd
Ġ1 11
iz z
Ġtax es
Ġal s
ĠEn vironmental
ĠY ou
he t
g ed
Ġpublic ation
ĠS A
Ġs ize
Î¼ Î²
Ċ ĊĠĠĠ
Ġbet ter
ne k
Ġpr Ã©s
w ays
R el
Ġpropos al
Ġs w
Ġenact ment
E m
Ġg ive
tire ment
ĠS c
Ġexp ense
Î¯ Î¿Ïħ
mit t
ĠIn t
ec k
M AN
Ġ....................................................................................................... .
Ġb es
Î¼ Î¿
ĠB al
Ġe f
b ack
M B
ĠT reasury
Ġcom mit
Ġ8 9
Ċĉĉĉĉĉĉĉĉ ĉĉĉ
Ġorig in
Ġrecogn ized
ne h
ĠEng ine
ed s
Ġeconom y
Congress ional
IN E
âĢ¢ âĢ¢
oc c
ik e
ĠEuropÃ¤ ischen
Ġfor mer
Ġout standing
10 9
Ġsu fficient
F in
ol es
d ate
ĠA N
Ġac quisition
Ġv or
y p
ĠIN C
ĠL LC
ÅĽ ci
r ist
L IC
ĠR ules
Ġa id
S ch
ĠT ax
C ons
Ġac cept
Ġ Ã¶
Ġo k
Ġapplic ations
el ine
xx xx
h as
v ol
Ġ ,
ran ch
om in
Ġh ard
tif y
) **
Ġenc our
Ġ1 12
13 0
re en
vis ory
ord ning
ec ause
om as
ĠB u
Ċ ĊĠĠĠĠĠĠĠĠ
Ġse lected
Ġg em
Ġbel ie
r ate
. ;
or ity
I E
ĠL and
30 4
tit y
Ġm echan
Ġregist rant
ĠP ost
z er
Ã¡n y
Ġc ut
et ing
Ġr ise
ĠMr s
l iv
Ġf ee
IC E
K ER
ĠF irst
Ġneed ed
Î¼ ÏĮ
Ġ7 1
P ri
ill s
3 01
Ġim pos
gin ia
Ġ ĠĊĠĠĠĠĠĠĠĠĠĠĠĠĠ
Ġw omen
Ġlo ok
Ġdis ch
Ġd ur
ell es
Î¯Î± ÏĤ
ĠU r
Ġbro ad
h and
ĠAn al
A ss
at ers
Ġst art
ĠAn y
r ac
I m
Ġ ĠĠĠĊĠĠĠ
Ġk ont
Ġf ire
Ġdem and
ab el
Ġstr ateg
14 0
ig en
l en
ĠM od
Ġ10 5
app ro
M A
Ġconcer ning
02 0
b lic
Ġ........................................................................................................ .
ĠC reek
ber g
ĠGarc ÃŃa
m o
A ct
Ġm g
IG H
Ġ10 3
ĠWh ite
pp er
nos ti
Î» Î¿
u je
wh ere
n ers
V I
Ġp Ã¤
Ġf unction
10 8
Ġmod ific
ĠGEN ERAL
16 0
Ġo thers
ES T
G A
Ġact ual
Ġ6 00
Ġk i
ĠL eg
ren g
Ġd uty
se ment
st ate
Ġcover age
em a
b ar
ĠVer ordnung
Ġen h
l ier
ian a
Ġequ ity
ĠL im
ord ing
ĠConse jo
ĠC R
Ġre duction
ricult ural
e u
Ġs till
ĠSTA FF
11 4
E l
Ġcol lected
Ã¨ s
Ġcom o
um a
f ield
ĠConse il
re ci
ĠE s
ĠREP ORT
Ġn ach
Ġo w
11 1
ATION AL
Ġcirc um
Ġorder ed
ĠPol icy
K E
f essional
n ah
Ġb ar
H ouse
ÏĦ Î®
Ġag greg
Ġ7 9
or ti
ch apter
" (
Ġh tt
Ġsub sequ
at ter
Ġdevelop ed
h en
Ġc oll
Ġad equ
la w
Ar tikel
Ġh ousing
mar ily
M ed
Ġit ems
R EC
ul g
am in
Ġadminist ration
Ġvehic le
Ġli abilities
Ġtar get
f act
ar ia
ell ing
ĠComp ensation
E B
ĠS he
cer tain
Ġpri mary
Ġb uilding
ell en
D S
azz joni
if ically
O ff
Ġ Ïĩ
z z
em or
p en
ĠH igh
i ques
Ġal ong
Ġto gether
ain t
ĠE S
as ons
Ġc u
ellig ence
Ġb il
Ġmethod s
ĠS H
il t
Ġar tik
pl an
Ġ......................................................................................................... .
Ġ1 20
i as
ĠGu ard
Ġe missions
Ġlic ense
idad es
Ġcomp ar
at eral
Ġst ep
Ġ199 4
Ġ8 2
ĠReg ister
Ġprac tices
com pl
ĠA rea
Ġg ent
Ġh ouse
p x
Ġs old
AN T
Ġ ut
ĠF ood
Ġtrans actions
Ð ¸
ĠO ur
Ġnot es
Ġes pecial
Ġpo ints
ĠUn iversity
TION S
Ġop tion
Ġinter ests
Ġaut om
ropri ations
ven ues
Ġprem ium
ang ed
Ġstr ong
m ith
un a
j ud
ĠFore ign
ac es
Ġap art
Ġ1 15
ĠS an
ĠâĢĵâĢĵâĢĵ âĢĵâĢĵ
Ġi Å¡
Ġal ready
em ic
ĠP ay
ic z
ne w
Ġcor respond
Ġindic ate
ĠPRES ID
T X
ful ly
ĠAr tikel
Ġm ove
Ïģ Ïī
11 3
G eneral
Ġ10 6
ast a
ĠSh ort
ĠP ark
ot s
an ov
Ġresp ectively
Ġe ine
Ġapplic ant
Ġqual ified
and er
Ġli quid
ic ial
C ar
Ġdes cription
Ã© ho
r act
Ð µ
Ġ8 6
re p
Ġinsp ection
id s
Ġcon c
u h
is tics
Ġadop ted
Ġdesign ed
Ġse ek
att ers
Ġd one
o ch
Ġhab itat
Ã¤ ÃŁ
ĠSEN ATE
j as
p ore
h av
V A
Ïģ Î³
pro duc
PP E
Ġex ec
Ġtrans action
Ġreg ion
Ġ.......................................................................................................... .
ĠRegul atory
Î¿ Î¹
ul ly
b i
P l
b or
Ġt ur
11 6
I Z
Ġso ci
Ġexperi ence
Ġpercent age
k ov
Ġpresent e
D R
P ublic
âĢĿ )
at al
af e
l ife
Ġs ix
is en
Ġcomp ly
ĠM ich
Ġrequest ed
Ġrec ent
um ul
ĠF l
ĠM ex
ri f
Ġtest ing
ĠComm unity
min al
ĠM embers
in f
en ed
Ġcommunic ations
ber t
Î· ÏĤ
Äį en
Ġbur den
ĠP ower
Ġm emb
Ġmean ing
Ġent ered
ĠC AR
S ON
Ġoblig ation
ĠÎµ Î½
Ġ10 8
am s
S o
un k
Ġgrant ed
i ro
Ġf arm
Ġbusiness es
Ġo pp
Com mission
ep ing
w ould
Ġass um
Ġpro b
AL E
) ]
ĠÎ´ Î¹Î±
12 1
Ġf all
Ġthere fore
B l
ĠD O
Ġpr Ã©
Ġwh ose
Ġm ag
ad s
ĠC olum
ĠAuthor ity
ĠAmeric ans
Ġexp endit
ĠV an
m u
Ġevalu ation
Ġo vers
Ġacc ounts
ĠCh ina
Ġp ÅĻ
ĠR O
ĠL A
Ġac tive
ĠP at
ĠB ro
Ġm and
an i
z Ã¡
ĠD EP
p ol
Ġparag rap
Ġequ ival
Ġval ues
Ġn ature
Ġpoliti cal
Ġp il
el ines
ĠIn vest
ac hed
Ġpre ced
Ġle ase
w ide
Î¹ Î¿
Ġche ck
ITI ES
Ġdist rict
ĠWh en
Ġidentif y
Ġrespons ible
ĠI d
O H
Ġ8 3
Ġb on
ĠB el
Ġprevious ly
itt le
ĠO ver
ĠAss ociation
Ġcarry ing
ĉĠ Ġ
reh ensive
en z
g i
Ġ........................................................................................................... .
M in
a mento
oun g
ervis ors
enc ed
ad en
ad ing
Ġb ound
UR E
ĠFlor ida
ut o
90 60
P r
ĠReg ist
Ġg ada
H U
ĠFor ce
ĠGe org
Ġex cess
c ision
reng th
clud e
ab il
Ġa round
and id
Ġmin im
Ġ19 34
O r
ti d
pos ition
Ġter rit
Î £
Ġs ens
ĠM or
l ia
ain e
d ul
Ġa an
ain ed
Ġp p
ĠT rad
Îµ Ïħ
ĠE ach
ĠT able
Ġk ur
eg en
lich en
in ion
il s
Ġ2 40
t as
Ġenti re
D I
crib e
Ġdif fic
ĠS uch
Ġbe i
3 75
Ġres erv
c ap
t es
Ġg ar
Ð ¾
ÏĦ ÏģÎ¿
Ġli ability
Ġth ous
Ġoccup ational
ĠIR B
Ġann oun
Ġd ro
T Y
Meas ured
unic ations
Ġch arge
Ġe mergency
Ġ {
Ġp ack
ol ina
Ġpos itions
Ġ06 34
or age
Î¼ÎŃ Î½
ĠN ation
Ġde al
D es
Ġ10 7
ĠS afety
ĠE ar
Ġmajor ity
Ġag reed
Ġrecord ed
Ġpr ices
Ġproced ure
00 6
Ġcustom ers
Ġcommun ities
Ġdef ense
ÃŃ n
Ġ............................................................................................................ .
2 20
Ġloss es
id th
ou is
Ġaltern ative
re z
ga ap
it os
om s
N ote
Ġinte gr
p d
Ġcomple ted
I s
A cc
ĠRes ources
Ġtem por
ĠH ar
Ġ1 14
el a
Ġmonitor ing
Ġcour se
XX X
Ġn ation
Ċĉĉĉĉĉĉĉĉ ĉĉ
Ċĉĉĉĉĉĉĉ Ċĉĉĉĉĉĉĉ
Ġprin ci
umb ers
ĠMedic are
Ġeduc ational
IT H
Ġ202 3
Ġa k
Ġs ont
Ġd omestic
Ġ1 80
d s
Ġ1 25
ond ary
N E
om eland
Ġ __
y c
ĠÏĢ Îµ
Ġpe tition
p on
V al
Ġguid ance
Ġorig inal
Ġt ri
st ru
Ġche m
12 6
it es
y z
B O
ault ed
Ġinvol ved
atis tics
Ġp ow
Ġaud it
Ġpri marily
or ation
f it
Ġmin utes
Ġcons olidated
J une
Ġout side
ourn al
Ġdetermin es
Ġauthor ities
ĠCo ast
T O
Ġindust ries
t ure
R C
11 7
Ġdis e
ab ilit
ĠCO MP
á ĥ
ĠJ ustice
Ġt u
F S
ed e
Ġ8 1
Ġbene fici
idd le
ĠS ERV
Ġreceiv ing
Ġach ieve
ĠR ET
ti cles
ĠC A
ĠP ER
Ġgro und
Ïī ÏĤ
ik a
Ġ............................................................................................................. .
qu est
Ã© ri
Ġpen al
t ers
12 3
e al
ĠF ac
Ã¶ l
18 0
B R
ra in
ĠThere fore
Ġco ordin
Ġto p
b et
Ġapp endix
tiv es
s elf
ar ks
ĠÏĦ Î±
u est
Ġ1 50
65 9
Ġapp lied
Ġdu ties
Ġhist or
Ġtyp es
v ania
Ġhaz ard
. -
ect ors
Ġthan k
ĠA us
z Äħ
Äģ m
N L
ĠEx hibit
Ġb uild
Ġs ist
ĠK ar
C L
ĠEx p
11 9
Ġcomp ared
Ġper man
Ġcl ar
ĠCons titution
Ġcircum stances
ik k
Ġl ight
s a
ectiv es
I ES
ĠCON T
ocu ment
Ġtrans mit
Ġsubs idi
30 5
ne j
Ġm ail
Ġc orporation
ĠSci ence
ĠV A
ĠC redit
Î¼ Î±
Ġparagrap he
p ret
ĠCont ents
ĠS E
h ouse
M ay
ĠB as
Ġk ey
Ġk Ã¤
ĠÃ ī
CH APTER
Ġm m
Ġd urch
Ġm erc
Ġch all
Ġc ode
IN T
ail ability
IT ED
h io
f il
Ġ199 0
tion al
an im
Ġprep ared
00 5
ra k
Ã³ d
ĠIN TER
end ers
n Ã½
AB l
quire ments
Ġfl oor
ij n
th rough
ĠN L
Ġen vironment
Ã© se
Ġrecommend ations
ĠTr ust
P ER
Ġdisclos ure
ĠÎ ¬
ĠIn f
ĠF AA
AIR B
## ###
20 5
Ġ ust
ici ency
Ġrece ip
ĠLo an
Ġintern al
È Ļ
ILL ING
Ġtr ust
Ã¤ Ã¤n
Ġcolle agues
Ġre d
Ġcommunic ation
30 3
Ġ.............................................................................................................. .
h an
Ġb orrow
ĠV olume
Ġfunc tions
Ġsubstanti al
Ġre pe
le vel
s yl
cl ass
Ġris ks
ĠV I
ĠSch ool
V ID
o id
F A
Ġar range
id os
per ty
ĠO ne
ant a
Ġprepar ation
oc r
Ã© d
ow a
ri j
ĠSt e
Ġk u
Ã© l
ti tive
. **
D C
th an
Ġsupp ly
ott om
A b
Ġt it
Ġs m
IS TR
Ġperiod s
the ir
3 74
Ġal le
Ġmov ing
in ical
Ċ ĊĠĠ
Ċ ĉĉĉ
ĠG ra
Ġreduc ed
Ġappropri ations
at ud
EN S
n it
oc al
ĠS im
2 40
ag y
13 5
Ġvess el
ik o
re st
Ġv ac
ĠB ur
Ġr un
Ġsol ic
Ġval id
ad or
Ġra d
H ON
ul i
Ġh onor
Ġall oc
Ġphys ical
Ġm ater
Ġ ----------------
M IN
Ġwas te
ri z
Ġrelations hip
ĠState ment
ĠD oc
od o
u ge
ĠTra de
Ġk ind
ĠH uman
Ġs ind
ĠTechn ology
ĠI ND
Ġappropri ated
Ġcontin ued
ire d
Ġf avor
ego ti
11 8
ij iet
Ġse q
f und
it able
AB LE
ĠN or
30 6
Ġ............................................................................................................... .
E s
c enti
am ily
Ġf ri
RES ENT
struc tions
An s
ĠN ote
t ar
Ġf oot
m ost
et ro
k g
Ġind ependent
Ġd ollars
p an
Ġst rength
Ġplan ning
gl ied
W N
12 4
ĠOFFIC ER
u a
Ã¥ d
Ġref lect
Ġf irm
Ġobtain ed
Ġtax able
Î¸ Îµ
Ġf ully
3 50
ĠĊĠĠĠĠĠĠĠĠĠĠĠĠĠĠĠĠĠĠĠĠĠĠĠĠĠĠĠĠĠĠĠĠĠĠĠĠĠĠĠĠĠĠĠĠĠĠĠĠĠĠĠĠĠĠĠĠĠĠĠĠĠĠĠĠĠĠĠĠĠĠĠĠĠĠĠĠĠĠĠĠĠĠĠĠĠĠĠĠĠĠĠĠĠĠĠĠĠĠĠĠĠĠĠĠĠĠĠĠĠĠĠĠĠĠĠĠĠĠĠĠĠĠĠĠĠĠĠĠĠĠĠĠĠĠĠĠĠĠĠĠĠĠĠĠĠ Ġ
b al
ĠF ish
Ġpro hib
in formation
19 0
Ġpr int
om an
Ġn ie
Ã³ p
um s
Ïģ Î·
Ċĉ Ġ
M R
Ġstud ies
r ants
Ġparticip ation
I AL
ut ing
Ġs ust
Ġadjust ments
ĠVir ginia
IS SION
Ã© p
Î» Î·
Ġear ly
Ġth ings
12 2
Ġemploy er
ĠG overn
Ġexpos ure
L T
3 02
ĉĉĉĉ ĉ
ĠFil ed
A TIV
ĠA S
Ġprac tice
12 9
enn syl
itiz ens
Ã¡ k
ef ore
Ġl anguage
ret urn
ĠUn iÃ³n
el i
Ġr Ã©s
Ġ1 60
Ġsepar ate
ĠOper ations
Ïĥ Îµ
ĠL td
Ġd iv
Ġw age
Ġf ram
17 5
fÃ¼ hr
ĠCh ar
Ġaggreg ate
17 0
S h
Ġpass ed
Ġs ide
Ġaccord ing
ĠPro ject
Ġcons umer
g ing
ons or
ĠRegul ations
Ġ................................................................................................................ .
Ġapart ado
es tern
Ġ20 5
Ġsu gg
ĠComm on
Ġcor rect
ify ing
z k
ĠG as
Ġmark ets
D ie
Ġdiscuss ed
ny ch
Ġimp acts
ÏĥÎµÎ¹ ÏĤ
40 6
tex t
Ġpart nership
z ione
le m
ĠÏĦ Î¹
Ġk oh
Ġques tions
Ġweek ly
d ata
Ġinc entive
s er
ob ile
Ġfail ure
& &
ĠÃ ª
Ġlong er
n ÄĽ
Ġm Ã¤Ã¤r
Ä Į
Off ice
\* \*
. :
ĠS w
ĠR ates
ĠSu pp
Ġre lease
W ith
O G
a uthor
Ġpro gress
ĠF IN
Ġexerc ise
It em
p ublic
ĠG A
lic he
ĠI ll
ĠP ap
ut ory
Ġmil es
00 2
TH E
Ġt aking
EC T
itig ation
ij os
v il
ens ions
ĠUn it
Ad minist
99 0
ĠAssist ance
ie k
Ġfac ilit
ĠPar lamento
l ov
er ror
Q u
AS H
Ġdep end
Ġcontrib utions
am en
ĠÏĥ ÏĦÎ¿
g s
ĠÃª tre
Ġp om
Dec ember
Ġresult ing
Ġre tain
Ġconcern ed
Ġp age
Î¿Ïħ Î½
W ashington
ĠeuropÃ©en ne
el ij
d ed
Wh ere
ĠR uss
p ad
ĠM o
Ġhal f
ĠS pec
Ġinvest ments
01 1
B A
st aat
Ġ ik
Î¯ Î½
Ġt as
Ġsu per
Ġre form
Ġcomp et
Ġhist ory
ac ional
Ġoccup ation
20 3
m ay
ĠCar olina
P h
Ī Ĵ
Ġde emed
00 000
ĠMad am
m b
ĠQ ual
Ä ¯
Ġpro p
Ġpresent ed
Ġt w
Ġmi emb
n on
ac ific
Ġ................................................................................................................. .
Ġpar ts
Ġbelie ves
un to
Ġad min
et ail
Ġknow ledge
Ġtem per
at ur
J uly
Ġsit u
Ġ1 13
Ġdire k
15 5
of tw
Î± Î³
um u
Ġdetermin ing
ĠÏĥ ÏĦÎ·
Ġde ath
Ġre venues
ĠCent ral
In ter
20 4
Ġacc ur
V ER
Ġw ird
Ġch o
Ġth er
clus ive
ill ing
om m
Dep artment
Ġpa per
Ġask ed
ro b
/ =
ĠSt ud
i ents
Ġdel le
Ġh arm
Ġfin ance
ĠE nd
Äĵ m
Ġreg istered
Ġext end
M c
ĠRET URN
Ġc anc
) -
ĠR em
A c
Äģ ci
rit ing
Ġnet work
Ġadvers e
em p
Ġein er
12 8
h older
end a
ĠColum bia
LO Y
at om
ĠREP RESENT
7 22
G roup
et ers
Î ł
Ġproble m
abl ish
ti o
ĠâĢĵâĢĵâĢĵ âĢĵ
ĠE conom
Ġregul ar
occ up
O ct
Ġsur face
ĠC L
Ġ ill
Ġsign ed
x y
Ġf a
Ġ2 99
ĠCO DE
ĠAg riculture
ens us
ĠC ost
M T
re tion
Ġelect ric
an ie
Ġrequ ests
Ġfact or
Ġ ________________
d om
Ġc ur
Ġb ring
Ġj ed
ar ily
ĠV eterans
Ġstra ight
y r
ĠIns titute
Ġinvestig ation
Ġv ic
Ġschool s
ch t
ri ef
15 6
ru ed
Ġp es
ĠH E
Ġthrough out
Ġb ody
ennsyl vania
-------- ----
ĠB ay
pr ises
Ġwh y
Ġdeliver y
L ESS
Ġ.................................................................................................................. .
Ġsub chapter
ĠT ur
par te
m argin
ĠInter est
ĠP A
Ġro le
comp any
ic ing
Ġso le
Ġt ag
Ġcer tification
rid ge
ell aneous
o ud
Ġe lection
20 8
ectiv eness
ant o
im iento
tr act
ĠNo tice
Ġper centi
Ġs ig
Ġo l
oftw are
Ġover all
Ġm otor
Ġproceed ings
st en
ens k
ĠP ART
Ġwho le
ĠÎ¼ ÎŃ
U TH
ĠMex ico
ĠÅ¡ t
Ġpro d
ĠE L
Ã ¢
ibr ary
Ġcoun ter
Ġf requ
ill ed
Ġair craft
ell s
Ġcre ate
A ug
isc ellaneous
Ġtem pore
Ġg es
Ñ Ĥ
ĠÎ £
ĠS ol
\_\_\_\_ \_\_\_\_
R is
ograph ic
Ã© ny
u it
Ġloc ation
k al
ĠO ut
ino is
Ġus es
t able
ient e
Ġcompon ents
l am
Ġoffer ed
ĠS ales
Ð ½
Ġhe ar
Ġe uro
Ġtax pay
14 5
ĠPri vate
ans as
iv es
Ġcont ra
l im
Ġdirect ors
id ence
Ġsc ope
Ġ ;
Sec retary
ĠDav id
Ġown ed
Ġcal endar
00 4
ĠI D
Ġj us
00 3
c ount
Ġre cip
l ad
ĠS k
UB LIC
< /
w est
a a
Ġev ents
c an
ild life
Ġ199 3
D o
20 9
ĠFore st
at ures
Ġcol lect
Ġn i
Ġnot ed
40 5
Ġlim its
U nder
Ġac res
Ġc andid
ĠH and
ĠW eb
ĠAdminist rative
ĠPRESID ING
Ġparticip ants
Ġconcern s
In s
ing en
N Y
ĠO ccup
ĠÎ »
Ġn em
os a
D D
ĠB L
Ġb is
g ment
ist ing
Ġtele phone
S e
Ġserv ing
29 0
ter neh
part y
Ġtra vel
n s
b order
Ġ199 2
it Ã©s
70 3
ĠDEP ARTMENT
ens en
Ã¤ h
c ast
Ïģ Î¸
a ud
ĠAbs atz
v as
Ġass emb
ÃŃ m
EP A
we ek
c all
2 15
Ġ1 16
Ġcl ose
y e
ĠĊĠĠĠĠĠĠĠĠĠĠĠĠĠĠĠĠĠĠĠĠĠĠĠĠĠĠĠĠĠĠĠĠĠĠĠĠĠĠĠĠĠĠĠĠĠĠĠĠĠĠĠĠĠĠĠĠĠĠĠĠĠĠĠĠĠĠĠĠĠĠĠĠĠĠĠĠĠĠĠĠĠĠĠĠĠĠĠĠĠĠĠĠĠĠĠĠĠĠĠĠĠĠĠĠĠĠĠĠĠĠĠĠĠĠĠĠĠĠĠĠĠĠĠĠĠĠĠĠĠĠĠĠĠĠĠĠĠĠĠĠĠĠĠĠĠĠ Ġ
R I
bur g
Ġt ro
Ġb ij
Ġass ign
in Äģ
ĉĉĉĉ ĉĉĉ
Ex pos
enti sts
P C
Ã¤ ll
S L
el er
Ġre asons
ĠCor ps
ail y
Ġlegisl ative
ĠA PP
Ġof ten
Ġass et
ATIV ES
ĠT ar
Ġword en
ĠSP EA
Ġocc ur
Ġ................................................................................................................... .
Ġr Ã©g
it ness
min ation
Ġ19 86
i ans
Ġ ul
Ġaus ge
ni h
G u
He alth
Î ¤
GR AM
Ġsal aries
Ġde i
Ġo t
Ġd iss
Ġvehic les
Ġqu an
ĠR ober
Ġv eterans
ure ment
cl u
pl ay
ĠÏĥ Îµ
urr ency
F rom
ĠCh ild
ĠSPEA KER
Ġdetail ed
Ġprocess ing
ĠÎµ ÏĢ
j ects
Ġmanufact uring
k k
ke z
Ġent ry
ĠĊĠĠĠĠĠĠĠĠĠĠĠĠĠĠĠĠĠĠĠĠĠĠĠĠĠĠĠĠĠĠĠĠĠĠĠĠĠĠĠĠĠĠĠĠĠĠĠĠĠĠĠĠĠĠĠĠĠĠĠĠĠĠĠĠĠĠĠĠĠĠĠĠĠĠĠĠĠĠĠĠĠĠĠĠĠĠĠĠĠĠĠĠĠĠĠĠĠĠĠĠĠĠĠĠĠĠĠĠĠĠĠĠĠĠĠĠĠĠĠĠĠĠĠĠĠĠĠĠĠĠĠĠĠĠĠĠĠĠĠĠĠĠĠĠĠĠĠ Ġ
ĠStandard s
Ġra il
Ã¨ res
Ġs elf
ĠSUB CHAPTER
n ic
Ġag ent
13 6
en k
ĠIs land
ump ing
ĠS che
og y
Ġse x
on o
Ġgent leman
pro ve
ĠH ousing
Ġk tor
Ġcall ed
Ġviol ation
re port
ĠL ouis
. ''
Ġinc urred
Ï Ĭ
Ġsit es
ĠcrÃ©d it
lement ary
Ġest ate
ĠG er
ĠWh at
ĠN one
Ġeff ic
Ġpar te
Ġf ig
Ġindic ated
13 4
Ġt ek
Ġst ructure
ĠĊĠĠĠĠĠĠĠĠĠĠĠĠĠĠĠĠĠĠĠĠĠĠĠĠĠĠĠĠĠĠĠĠĠĠĠĠĠĠĠĠĠĠĠĠĠĠĠĠĠĠĠĠĠĠĠĠĠĠĠĠĠĠĠĠĠĠĠĠĠĠĠĠĠĠĠĠĠĠĠĠĠĠĠĠĠĠĠĠĠĠĠĠĠĠĠĠĠĠĠĠĠĠĠĠĠĠĠĠĠĠĠĠĠĠĠĠĠĠĠĠĠĠĠĠĠĠĠĠĠĠĠĠĠĠĠĠĠĠĠĠĠĠĠĠĠĠĠĠ Ġ
ĠK ing
Ġass igned
r il
ir k
ĠĊĠĠĠĠĠĠĠĠĠĠĠĠĠĠĠĠĠĠĠĠĠĠĠĠĠĠĠĠĠĠĠĠĠĠĠĠĠĠĠĠĠĠĠĠĠĠĠĠĠĠĠĠĠĠĠĠĠĠĠĠĠĠĠĠĠĠĠĠĠĠĠĠĠĠĠĠĠĠĠĠĠĠĠĠĠĠĠĠĠĠĠĠĠĠĠĠĠĠĠĠĠĠĠĠĠĠĠĠĠĠĠĠĠĠĠĠĠĠĠĠĠĠĠĠĠĠĠĠĠĠĠĠĠĠĠĠĠĠĠĠĠĠĠĠĠĠĠĠĠ Ġ
Ġm atters
Ġord ers
Ġsp ending
en Ã©
IT T
Ġ3 11
S p
AR E
Ġbas ic
if i
Ã© ment
Ġc red
d own
t at
R LD
Ġ ĠĠĊĠĠĠĠĠĠĠ
Ġp ra
Ġadd ing
Ġet t
12 7
20 6
L V
l oss
AS T
ĠInter ior
ĠMit glied
ur pos
w ere
ĠSU PP
op h
chaf t
Ġl og
Ġl ed
O b
Ġc ity
ĠÎ ®
Ġgood s
ĠEst ados
Å ±
ĠRes erve
ot o
Ġeff ort
ĠR od
Ġpay able
Ġund ers
Ġn u
Ġallow ed
work ers
Ġ.................................................................................................................... .
Ġren ew
O F
ak se
Ġtre ated
âĢĻâĢĻ .
ĠC are
ĠMar ine
Ã¥ n
Ġinc orporated
Ġvess els
un it
I d
ord ination
ĠApp lic
Ġcons id
vision s
st all
ab e
w end
air man
Ġest able
Ġ4 80
Americ an
ĠA T
Ġet c
Ġexp ect
2 30
ĠM er
Ġtra ding
( "
Ġdiffic ult
mon th
Ġro ll
Ġofficial s
Ã¦ r
Ġhere in
Ġexp and
Ġprovid ers
P H
W A
des ign
f r
7 50
] ,
ur ers
Ġimmedi ately
b ro
com ple
Ġadv ance
v in
Ġfor ms
Ġm or
13 9
Ġde leg
us a
Ġp oll
at k
the y
el o
ib ilities
Ġke ep
d ec
ĠÎ ¸
Ġser ies
Ġc r
ĉĉĉĉĉĉĉĉ ĉĉĉĉĉĉĉĉ
Ġwork ed
ĠIn sp
Ġcustom er
c ar
in er
ie g
14 9
Ġr ather
with standing
Ġel imin
13 2
ĠH omeland
Î± Î»
Ġal i
Ġv olume
h am
ro d
Ã³ s
Ġrespons ibility
h ang
ues tion
Ġgu arant
Ġn umer
ĠL am
ward s
Ġn urs
in ary
202 3
01 5
ĠB et
ĠN avy
ĠL et
ch en
33 5
h te
G e
v ide
C ES
ĠAl aska
Ġcateg ories
Ar t
ab ric
ĠR est
ig ne
ĠAssist ant
dul ed
m is
ÏĦÏģÎ¿ ÏĢ
Ġst and
Ġpro por
ĠTH K
pe z
Ġrev ised
Ġex cluding
16 5
S u
ĠS um
Ġit em
Ġman agers
Ġv ai
ĊĠĠĠĠĠĠĠĠ ĊĠĠĠĠĠĠĠĠ
Ġinf rastructure
ch er
ĠP age
ĠN atural
Î Ļ
ass a
O ccup
ich er
Ġperform ed
Ġow ner
ne z
au f
Ġtechn ologies
Ġg lobal
Ġv ia
r at
Ġdisch arge
Ġnorm al
Ġcaus ed
ĠH R
Ġan ticip
02 5
ad er
tiv ities
, âĢĶ
P ursuant
Ġcons titu
ĠIntern et
Ġ..................................................................................................................... .
Ġres ol
Ġ --------------------------------
AN S
y ond
ĠP an
Ġproble ms
Ġd om
P resident
ĊĊ ĉ
ti ble
l Ã¤
Ġaff ili
Ġm akes
valu ation
ri m
duc ed
ÏĢÎ¹ ÏĦÏģÎ¿ÏĢ
Ġv y
n ost
it et
ĠAtt orney
Ġsp ace
g est
B S
tern al
ĠÎ ļ
Ġ10 9
pro duction
r Ã¤
Ã Ħ
Ġst ation
RO LL
Ġcomp rehensive
and es
ann el
ut t
k now
Ġha pp
Ġn egoti
Ñ Ģ
h u
NG L
ĠREPRESENT ATIVES
ĠIR ON
F orm
Rel ative
ĠI T
ri o
T e
ant es
Ġn eb
ac he
Ġpermit ted
F r
as tern
t oc
os ph
form ance
ett a
GEN CY
Ġp ip
Ġn ov
ĠÃ ľ
14 4
ĠO hio
Ġc ross
Ġdecision s
un s
Ġopport unities
Ġc amp
Ġn uclear
ÏĮ Î½
ess a
Ġcharg es
U G
Ġre im
b ra
fic ation
Ġsubsequ ent
Ġpreced ing
Ġ1 17
p ass
Ġsur ve
Ġpun kt
y le
Ġne ver
od ay
ĠD u
ĠS in
Ġb anks
Ġincre asing
eme ins
40 4
sk e
m ail
clud es
if t
Ġc itizens
al k
Serv ice
ĠC ivil
Ġb Å«
ĠC urrent
ens ed
Ġadjust ment
18 5
Ġfoc us
Ġchem ical
Ġ4 00
Ġrepresent atives
Ġl ot
Ġdep artment
Ġgro ss
lia ment
Ġremain ing
2 25
Ġ3 01
ĠEurope o
e ment
Ġcontain s
ĠE in
th ere
Ã¡ ci
Ġcontrol s
od es
tiv ity
16 6
b on
Ġm achine
Ġv ed
le z
ĠST ATES
h at
Ġ...................................................................................................................... .
V N
Ġwe bs
Ġ id
f ont
Ġcom mittees
ther n
ĠB O
he st
pd f
I O
N ON
Ã ģ
Ġall a
Ġz w
ia i
g t
ĠIns urance
ĠF DA
Ġop inion
ang er
4 25
anim ous
40 3
st a
ĠE d
ĠD an
ĠS mall
, *
ĠGeorg ia
op s
Ġend ing
Sen ate
ĠCla use
us i
Î¿ ÏĤ
O THER
Ġapp lies
2 10
og en
ari os
Ġt ai
ĠF eb
ĠDirect ors
B e
ĠD i
1 000
Î¼ Îµ
E V
ĠC ash
13 3
pres as
im ate
Î Ĺ
Ġcar ried
M L
g ar
Ġfix ed
aj o
ÏĦ Î¬
Ġspec ifically
ac tive
ĠA v
Ġsub mission
C ORP
w ho
AN GE
ĠÏĦÎ¹ ÏĤ
Ã½ m
Å¡an as
cep ted
ul let
P D
Ï Ī
on der
Ġb ed
Ġ1 30
ĠF L
Ġinv ent
Ġal leg
75 5
a ÅĤ
20 7
lement al
ĠF rom
2 70
Äģ k
Ġincre ases
Ġu it
ĠĊĠĠĠĠĠĠĠĠĠĠĠĠĠĠĠĠĠĠĠĠĠĠĠĠĠĠĠĠĠĠĠĠĠĠĠĠĠĠĠĠĠĠĠĠĠĠĠĠĠĠĠĠĠĠĠĠĠĠĠĠĠĠĠĠĠĠĠĠĠĠĠĠĠĠĠĠĠĠĠĠĠĠĠĠĠĠĠĠĠĠĠĠĠĠĠĠĠĠĠĠĠĠĠĠĠĠĠĠĠĠĠĠĠĠĠĠĠĠĠĠĠĠĠĠĠĠĠĠĠĠĠĠĠĠĠĠĠĠĠĠĠĠĠĠĠĠĠĠĠĠ Ġ
am ise
Ġword s
ist an
Ġc ult
Ã© nÃ©
Ġm ass
op a
, .
ĠN I
Ġac quired
Å ł
Ġclass ification
tic a
2 14
w are
D is
anu fact
Îµ ÏĦÎ±Î¹
d y
33 3
miss ie
is i
Ġto o
ĠPro posed
il a
in der
in cip
O ur
Ã¡ b
Ã¡n ÃŃ
P ol
~ ~
d ress
Ġsub part
ĠÎ ²
ĠH old
Ã¶ s
Ġatt end
Ġdepos it
Ġadop t
j et
n Ã½ch
ell o
Ġ2 50
d as
Ġcol lec
Ġdevelop ing
ĠRe venue
ĠWill iam
Ġ....................................................................................................................... .
pl ing
Ġter ror
AN K
ri ers
ist e
âĢĻâĢĻ ;
urch ase
ĠM AR
ĠMart in
m un
2 11
2 80
ri k
Ġf u
UR ES
Ġ3 65
Ġregist ration
Ġthous ands
B ILLING
anc y
M O
ate gy
ĠM ill
l uss
Ġcateg ory
ĠU se
ĠB uilding
estim ony
ĠM al
2 16
ĠS ept
25 5
ĠCap ital
im a
Ġhtt p
Ġoffic es
w ell
EMENT S
ot ts
ie j
m id
F igure
ĠState ments
e urop
eth yl
m ing
ĠprÃ©s ent
L Y
ah l
Ġres erve
Ġin nov
Ġs ell
ĠProgram s
ud a
Ġatt rib
Ġst ruct
ig an
zen ÃŃ
Ġrecogn ize
Ġissu ance
Ġparagraph s
Ġ 0000
19 5
Ġcalcul ated
ĠO k
Ġj ew
Ġenh ance
Ġm ortgage
ĠAnal ysis
4 50
am ed
or i
Ġfin ancing
ĠG l
ĠCommission e
Ġk ap
Î¿Ïħ ÏĤ
ĠL ake
t op
Ġgovern ments
id ade
r ations
ew ork
em pt
uste e
ill a
w orth
ĠA CT
cal e
Ġcom mission
tion ed
ĠIt em
ĠCom ments
le ist
Ġe i
ĠgÄ§ all
Ġl ittle
ors ch
Ġmulti ple
Ġm aj
h om
Ġhim self
fic ial
Ġexem ption
AS S
ce an
Ġbe g
is hes
ĠD rug
Ġpl at
tig o
Ġon ce
ING TON
ai ver
d an
is a
Ġder iv
ro z
ur t
ĠR ad
he alth
or f
Ġp i
st ream
ek t
Ġconsult ation
Ġr ural
Ġ........................................................................................................................ .
Ġoper ate
Ġinstru ment
Ã «
Ġav oid
Ġd uly
ĠR EG
} ,
our s
14 6
Ġliv es
Ġinter pret
ĠM O
p et
Ġover time
16 9
b and
25 00
2 17
ĠWork ers
Ïģ ÏĮ
l io
pro t
Ġ ''
Ġgo als
b ank
Ġp ap
ĠE ast
S U
ĠĊĠĠĠĠĠĠĠĠĠĠĠĠĠĠĠĠĠĠĠĠĠĠĠĠĠĠĠĠĠĠĠĠĠĠĠĠĠĠĠĠĠĠĠĠĠĠĠĠĠĠĠĠĠĠĠĠĠĠĠĠĠĠĠĠĠĠĠĠĠĠĠĠĠĠĠĠĠĠĠĠĠĠĠĠĠĠĠĠĠĠĠĠĠĠĠĠĠĠĠĠĠĠĠĠĠĠĠĠĠĠĠĠĠĠĠĠĠĠĠĠĠĠĠĠĠĠĠĠĠĠĠĠĠĠĠĠĠĠĠĠĠĠĠĠĠĠĠĠĠĠĠ Ġ
I F
Ġwork er
Ġcont ent
Ġpres cribed
cul ated
13 7
Ġav ailability
o ir
tain ment
IC H
ab out
Ġp ÅĻÃŃ
ist or
ut or
at en
out her
Ġst ream
uks en
c ks
ÃŃ c
pr ise
Ġcons ervation
Å¾ i
ac hes
ett ing
ĠY es
Ġstud ent
Ġwith d
oc ks
um e
ro v
P E
Ġser ious
V IS
z y
). .
ĠP s
\ :
orti z
60 3
employ ment
ĠEurope a
ĠÎ± ÏĢÎ¿
or ado
Ġtrans ferred
Ġinf lu
te en
ĠM ass
Ġsit uation
M arch
n u
CO MM
Ġappoint ed
ter ed
Ġs em
r in
30 9
Ġbe yond
Ġ66 33
ĠÎķ ÏĢÎ¹ÏĦÏģÎ¿ÏĢ
Ġ ĊĠĠĠĠĠĠĠĠĠĠĠĠĠĠĠĠĠĠĠĠĠĠĠĠĠĠĠĠĠĠĠ
Comp any
Äħ c
13 8
Ġcivil ian
et ary
Ġhere by
Ġcomple x
el m
Ġex c
N umber
Ġbon uses
th ing
Äħ ce
ĠAd visory
G U
i ation
s ystem
os ti
Ġcompe tition
gl ish
ĠM us
f Ã¶r
ĠJ ournal
Ġsav ings
01 9
Ġprom ote
Ġcompon ent
Ġchall eng
Ġrec overy
S H
ĠS av
Ġar ticle
Ġ ĠĠĊĠĠĠĠĠĠĠĠĠĠĠĠĠ
ĠApp ropriations
01 6
IC K
Ġ ĠĠĠĊĠĠĠĠĠĠĠĠĠĠĠĠĠ
ĠM ore
Ġdo ing
ĠdÃ© cision
L EMENT
Ãº blic
ĠÏĥÏħ Î½
Ġlead ership
Man agement
ĠPRO GRAM
r ators
g overnment
ubl ik
ver t
ï¿½ï¿½ï¿½ï¿½ ï¿½ï¿½ï¿½ï¿½
un n
Ġ......................................................................................................................... .
ĠS am
is l
ĠRe form
ef its
Ġhold ing
Ġcoun sel
Ġadequ ate
g ra
ĠG o
or ge
Ġ1 18
Ġz Ã¡
ĠIn come
Ġle ft
J ohn
vi ation
Ġre place
Ġn ar
Ġh olid
TI C
ĠPar lement
W E
Ġimplement ing
Ġcontain ing
r ical
Ġrec on
o Å¡
TI T
abl ed
Ġinstru ments
ab b
ĠD en
A f
Ġad vis
ell ow
Ġw aters
im p
Ġag ents
Ġsci entific
ĠPro ced
en za
Ġcomb ination
htt ps
Ġsci ence
op oul
ood s
2 19
Ġpati ents
Ġt on
2 18
Î¬ Î½
year s
iz ations
Ġwh om
Ġparticular ly
ÏĢ Î±
M C
Ġcharacter istics
ĠD uring
ok ing
S R
Ġenact ed
ell i
terneh men
ĠS mith
act or
ĠTechn ical
7 17
Ġdec rease
ĠT reat
Ġ !
ers ey
Ġcent er
Ġdeg ree
14 8
im s
Ġdel ay
Ġ3 70
tis an
16 4
2 75
Ã³ pez
Ġact ually
I l
ĠD ie
ĠM aterial
Ġdisc retion
est ing
Ġbill s
M Y
16 3
Ġ ide
Ġno tification
ĠD EF
Ġclean ers
ĠL Ã³pez
p id
im as
Ġobj ectives
Ġad j
ut ri
Ġparticip ate
Ġrev ision
ĠB re
G Y
ĠDec ision
ĠIntern al
2 60
el j
em pl
Ġan ti
n ak
ar Ã¡
Ä ·
ĠEff ective
re es
2 13
Ġk an
Ġm arch
h ard
ha res
01 3
D ire
unic ip
ĠW D
ab en
pro fit
Ġcon v
p erson
ĠĊĠĠĠĠĠĠĠĠĠĠĠĠĠĠĠĠĠĠĠĠĠĠĠĠĠĠĠĠĠĠĠĠĠĠĠĠĠĠĠĠĠĠĠĠĠĠĠĠĠĠĠĠĠĠĠĠĠĠĠĠĠĠĠĠĠĠĠĠĠĠĠĠĠĠĠĠĠĠĠĠĠĠĠĠĠĠĠĠĠĠĠĠĠĠĠĠĠĠĠĠĠĠĠĠĠĠĠĠĠĠĠĠĠĠĠĠĠĠĠĠĠĠĠĠĠĠĠĠĠĠĠĠĠĠĠĠĠĠĠĠĠĠĠĠĠĠĠĠĠĠĠĠ Ġ
Ġproceed ing
ĠV II
ĠReg ional
Ġproper ties
ĠÎ ĳ
ain ing
Ġexpress ed
23 5
AS E
ĠWh ile
es ter
g le
15 4
Ġspecial ty
0000 0000
le ft
ĠM ary
ent ure
Ġa le
o e
clos ure
ĠS W
l s
im port
j ection
14 7
Ġoper ator
ollow ing
ĠÃ ¨
Ġimp air
ÃŁ nah
Ä« g
Wh ite
Ġrec re
Ġcontin ues
le ased
Ġproduc ed
N et
Ġcompe titive
C ol
Ġcri minal
Ġa y
ĠÎ Ķ
Ġr end
40 8
Ġ.......................................................................................................................... .
Ġdo or
ĠMed ian
Ġcont rolled
P a
O Y
v ious
ĠCom missie
Ġrel ief
ĠB Y
Ġdev ice
ge b
Ar tik
ĠAcc ording
ĠS CH
ÏĮ ÏĦÎ·
Ġcon ference
ĠÎµ Îº
IR B
15 9
ROLL ED
50 4
. .]
ĠA SS
Ġsen ior
Ġco al
Ġunderst and
19 7
ij e
N AN
if orm
che s
Ġd ig
und red
ĠD ocket
Ġin put
ĠP ennsylvania
w idth
. ..]
it ors
e ur
Ġst orage
16 7
Where as
Ïģ Îµ
e ks
t ry
Ġd ivers
Ġmarket ing
ĠAn gel
Ġcon vers
res hold
S ales
60 4
ĠÎµ ÏĢÎ¹
ĠP al
ĠEv rop
ut s
iz otts
a an
outher n
ĠA G
ĠD ay
Ġp Äģr
86 6
ar se
Ġcl inical
Ġmiss ion
Ġobj ection
Ġ3 73
Ġcomm od
Ġsubst ance
en ant
ĠM ont
Ġto im
ĠH is
et ts
Ġ4 79
ĠRo ad
Ïĩ Îµ
B I
Ġp u
le ge
Ġstr ategy
is tic
Ġexpendit ures
duc ts
14 3
Ġre tirement
ĠV ice
che z
ĠM ain
Ġinterest ed
Ġcent ral
r Ã¡
Ġn umbers
C ap
re me
ĠMark et
Ġtrans ition
C or
ze ug
Ġestablish ing
ind ing
Î» Îµ
Ġl ub
ĠAf ric
Ġpl aced
CE E
ir ms
if ik
Ġon der
ĠIll inois
Ġl ay
over ed
ĠJ un
ess ment
Ġmonth ly
s es
Ġrepresent ative
er i
Ġl id
IG N
is ka
ok e
Ġto t
ĠP acific
ing u
Ġel se
in to
Ġreceip t
Î¿Î½ Î¹Ïĥ
IS H
O W
Ġeff iciency
Ġ........................................................................................................................... .
ĠR a
D irect
Ġf re
Ġim posed
13 1
H L
Ġs afe
Ġeff ectiveness
00 8
Ġl ines
01 2
Res p
ĠEx t
Ġag ricultural
ĊĠĠĠĠĠĠĠĠĠĠĠĠĠĠĠĠĠĠĠĠĠĠĠĠĠĠĠĠ ĊĠĠĠĠĠĠĠĠĠĠĠĠĠĠĠĠĠĠĠĠĠĠĠĠ
ir ts
ris iko
enti ally
l ist
Ġd ocket
Ġn ep
ĠApp endix
15 3
Ġele ments
4 02
ĠS il
Ġm al
Ġsci entists
Ġt urn
P re
U K
Ġle ave
Ġret ail
B L
ĠÏĥÏĦÎ· Î½
19 3
00 9
Ġvot ing
h ere
5 50
Ġoff set
ad z
e it
Ġy et
SM EC
Ã¡ z
ot ti
rup t
ĠWD TH
Ġlimit ations
ati cal
il es
E Ãľ
ĠN W
24 4
Ġe gy
ĠA pr
ign ificant
ĠAr med
ĠO f
ij as
Î¼ Î¿Ïį
ĠA venue
Ġsignificant ly
Ġv ig
Ġp an
iss Ã£o
ĠP M
b ed
Ġtrib al
Ġam b
ip ar
Ã¡ d
Ġcolle ge
Ġcre ated
19 8
fol io
fer ences
Ġcont ribution
europ a
ĠIs su
Ġvers ion
Ġperman ent
Ġimp ago
ÄĹ l
ve z
ĠC amp
P B
Ġ13 9
ĠCoun sel
30 7
ĠG rant
Ġind irect
Ġdise ase
ĠST AT
Ġm ach
Ġfor ces
35 6
Ġfin ans
Ġrequ iring
l age
Ġdeb ate
jon ijiet
15 7
Ġin structions
3 60
d ist
Ġown ership
Ġsp Ã©
Ġ** (
our ly
ĠAd v
izotts Ã¡g
b es
Å¡ t
Ġeng aged
Ġsupport ing
j n
ĠF iscal
" >
ĠW orld
ul ate
z ung
Ġsche duled
Ġ ĠĊĠĠĠĠ
Ãº n
Ġ ĠĠĊĠĠĠĠĠ
Ġâ ĪĴ
ĊĠ ĊĠ
Ġequival ent
Ïĥ ÏĦ
Ġh om
ÅĻÃŃ zenÃŃ
our i
Ġc el
ĊĊĊĊĊĊĊĊĊĊĊĊĊĊĊĊ ĊĊĊĊĊĊĊĊĊĊĊĊĊĊĊĊ
C EN
ĠF ull
f ort
ĠIm p
ĠSub committee
Ġear lier
Ġrule making
ĠD IS
ĠM at
01 06
17 9
R ating
Ġwebs ite
Ġ............................................................................................................................ .
l g
s m
Ġcontinu ing
Ġdest in
J an
ĠA ud
Î¼ ÎµÎ½
ĠÎº Î±Î½
c or
Ġausge fall
re ad
Î¹Îº Î®
G S
t ax
Ġw riting
D ocket
Ġtempor ary
ĠEur Ã³p
all a
Ġw ur
ĠR ights
Ġutil iz
Ġele kt
Ġreason ably
Ġf ace
Ġstra ips
os ter
Ġaut res
Ġte am
Ġk or
ING S
ĠCh rist
ĠN E
ĠO MB
Ġevalu ate
16 8
ĠpÃ¤ iv
er en
Ġ199 1
Ġprocess es
Ġtim ely
AL TH
14 1
Ã į
ot ing
199 8
02 9
O per
ĠDO E
00 7
ty pe
F O
Ġsp r
15 8
ech ts
ch ild
Ġup d
ĠSt aff
em y
Ġsu re
ĠR icht
Ġs oftware
Ġn orth
ĠH o
Ġm ess
C Z
Ġp ie
01 4
gress ional
ĠM y
ĠÌ ģ
om ent
Ïĥ Î¹
ĠPar liament
e en
: "
Ġs outh
50 6
Ġsubstanti ally
Ġdiscuss ion
G UE
28 5
Ġav ec
i Å¼
in come
Ġ66 01
ĠJ ersey
ost en
m Ã¤
Ġde fic
incip al
ĠRe quest
Ġappropri ation
Ġ1 87
24 5
Ġadjust ed
Ġz one
Ġc orporate
Îº Îµ
ur g
it an
ĠvÃµ i
Ġun ter
Ġp ou
Ġdo ub
ĠCh ange
Ġfl u
Ġext ended
be en
Ġs Ãº
Ġconsum ers
Ġprof it
ĠA GENCY
ers ons
S c
Ġm Ã¡s
ĠMed ical
ic iones
Ġrecomm ended
22 6
tic olo
50 5
Ñ ģ
ra tic
60 5
Ġac cepted
ĠE D
k et
Ġm l
reed om
29 5
Î´ Î¿
ab s
art ers
ar be
ĠN ame
ind ust
ĠCon struction
Ġdirect ed
ĠF urther
ru kt
Ġunder t
" )
re ased
Ġs ich
ĠAf ter
f i
zen ia
ump tions
Ġt ests
Ġprovid er
FL AT
US T
Ġcomp uter
Ġlim itation
Äģ d
ĠCOMM ISSION
Ġz um
ke it
RO M
A K
iss a
17 6
Ġdire ction
EC H
Ġholid ays
ic he
40 7
b it
30 8
Ġ............................................................................................................................. .
Ġ Å¼
23 9
Ġpart ner
j er
att le
Ġs ession
25 6
Ġm ix
17 4
au er
ĠM and
Ġa o
Ġz ijn
Ġext ension
Ġb er
Ġprinci ples
Ġ19 74
Ġmemb res
ĠC S
t os
zÄħ d
Ġprodu kt
ĠF UR
Ġoper ational
ag nos
ific ations
t ats
Ġcas o
ĠN Y
dition ally
Ġgar anti
22 3
Ġun ion
P art
ĠCom un
Ġf t
o i
14 2
els er
4 10
d ep
ke eping
Ġconf lic
ĠMitglied staat
ĠS ant
Î» Î±
us z
E urop
b el
ound ation
imin ary
ĠÏĢÎµ ÏģÎ¹
Ã¼ h
ĠIn iti
ĠgÄ§ and
., *
Ġach ie
Ġs il
Ġk os
Ġse a
Ġelig ibility
p ly
ru it
ER N
40 9
ĠRo om
C P
ning er
Ġun certain
Ġo ld
ĠApp ro
Ġexce ption
Ä«b u
end ments
Ġ( $
g roup
Ġd ollar
Å¡ k
RES S
ullet in
Ġst atis
um mer
ĠEconom ic
ow ie
Ġpl ay
Ġded ic
u uta
Ġl ack
3 20
ĠB ecause
CI AL
Ġko ht
Ġd ivision
Ġdep art
ĠÅ¾ e
ĠH a
s c
he it
24 9
60 6
ĠR EL
Ġt Ã¤
Ġv agy
ĠD R
M on
IN D
arg o
v ÃŃ
ĠSt atistics
b u
C B
ÏĦ ÏīÎ½
Ġb rief
ĠI l
ĠAg ent
ris is
ĠPar ticip
ent a
Ġdirect or
ĠÎºÎ±ÏĦ Î¬
n umber
Ġw r
Äį ek
z one
v Ã¤
i qu
Ã¡n chez
ĠC ustom
Ġestablish ments
- (
Ġsur v
oh ol
Ġprior ity
Ġausgefall en
Î³ ÏģÎ±
Ã© ben
ĠS Ã¡nchez
19 6
AT OR
ĠCer tific
S te
Ã¶ d
Ġd an
f s
Ġ19 78
Ġar ticles
Ġm ind
Ġrespons ibilities
mig ration
ĠV ol
ot y
Ġ> /=
ar ation
Ġstat utory
ola mento
15 2
Ã ĵ
Ġra z
Ġ19 88
ĠK on
arb or
3 10
Ġp ension
n ut
Ġmod ified
70 4
Q uestion
Ã¶ k
ĠCom issÃ£o
g Ä§
Ġn os
el en
35 9
eth ing
Ġto wn
18 9
Ġcomp ris
s ur
Ġm ut
Ġinte g
Ġe mission
lan tic
ĠIs lands
Ġimprove ment
serv ice
Ã¼ t
18 4
ic t
Ġmiemb ros
2 12
Ġf lex
ĠC oll
02 1
ĠÎµ Î¾
Ġ.............................................................................................................................. .
ĠĊĠĠĠĠĠĠĠĠĠĠĠĠĠĠĠĠĠĠĠĠĠĠĠĠĠĠĠĠĠĠĠĠĠĠĠĠĠĠĠĠĠĠĠĠĠĠĠĠĠĠĠĠĠĠĠĠĠĠĠĠĠĠĠĠĠĠĠĠĠĠĠĠĠĠĠĠĠĠĠĠĠĠĠĠĠĠĠĠĠĠĠĠĠĠĠĠĠĠĠĠĠĠĠĠĠĠĠĠĠĠĠĠĠĠĠĠĠĠĠĠĠĠĠĠĠĠĠĠĠĠĠĠĠĠĠĠĠĠĠĠĠĠĠĠĠĠĠĠĠĠĠĠĠ Ġ
ĠD eb
qu al
ĠkÃ¶ z
Ġg ain
am is
W R
el ig
v u
Ġ19 80
ret aries
Ġp ub
Ġgem Ã¤ÃŁ
Ġo ct
Ġl ength
ERS ON
Ver ts
i ber
ĠI tal
3 90
Ġflow s
23 6
N ame
18 6
ĠM io
Ġtermin ation
È Ľ
urr ing
Ġe lement
ĠCon tract
ASH INGTON
el ing
CT A
ir cul
Ġocc urred
v os
ĠD ES
B E
Ġk ter
ĠÃ ¥
aw are
Ġcooper ation
IL S
Ġs ie
Ġar ch
con f
t echn
ĠJ oint
ost on
Ġaff ord
L es
ĠRober t
Ġj ustice
Ã¤ hr
F irst
Ġf ishing
ĠR ock
if er
App ro
Ġro ad
ÏģÎ¹ Î¸
Ã¡s i
An n
ĠElect ric
Ġch anged
Ġpil ot
p ower
Ġ ĠĊĠ
R EG
it ar
ed en
hav ior
ĠSystem s
00 02
Ġprac tic
Ġtransmit ting
Ġtaxpay er
ĠH aw
y an
Ġweight ed
et en
ĠSu pport
ĠW il
v at
s ite
r d
ir ation
ks i
Ġde ep
Ġ \
Ġr ende
Ġh ydro
EN CE
P M
l ass
Ġcommit ment
ĠR os
Ġbe z
Ġpo z
ij o
it ud
as is
ĠF ort
Ġ30 9
Sub ject
ist ance
id u
Ġd ne
Ġprodu ce
for der
Ġinvol ve
Ġsum mary
24 6
CH ANGE
33 9
r s
15 1
ĠS pr
elf are
c urrent
ati e
Ġv eter
Ġse ason
Ġ âĢĺ
Ġy oung
the se
Î¿ Î»
im i
ĊĊĊĊ ĊĊĊ
ĠC ler
22 4
y er
iss ion
Ġac compl
ĠÃī tats
ĠF ern
Ġm ic
Ġm us
Ġ2 45
com es
Ġfl ood
Î± Î¸
ĠW ITH
Ġcon sequ
Ans wer
s ion
19 4
Ġ3 66
Ġal ways
Ġrestric tions
ĠP AR
ĠEur atom
b ottom
in te
to k
B ut
Ġb ox
ĠGu id
Ġhead ing
Ġs olid
Trans portation
* )
Ġauthor ize
ĠS er
y ou
Ġa i
iss ipp
ĠM D
Ġcomment ers
ĠN M
Ġmed ic
ric k
ÏĢÎ¿ Î¹
in ations
estim m
17 3
ang ing
ĠS z
ĠM ic
Ġ ĊĠĠĠĠĠĠĠĠĠĠĠĠ
Ġbro ught
ĠDI AM
m ade
Ġcomp uted
N C
Î¹Îº ÏĮ
Pro gram
Ã »
Ġa ides
ag a
col or
Ġ12 3
Ġ iden
Ġfind ings
: :
Ġsett lement
U AL
Ġsepar ately
ĠDirec tive
IC ES
ist ent
Ġlead er
Z CTA
urr ence
Ġmar ine
or o
N ATIONAL
k on
Ïģ ÎŃ
az ioni
end ant
ĠJ ul
ĠB esch
om ing
oh l
Ġw itness
Ã§ a
ap an
Ġd ar
ĠL u
reci ation
Ġadop tion
ill ance
ĠR ich
ĠPub l
oth ing
t Ã³
m ain
g iv
3 80
Ä« jum
Ġespecial ly
Ġpr ze
Ġ3 60
V E
ĠCom pl
Ġcertific ate
ach ing
Ġallow ance
m as
htm l
ed i
ĠR ady
ste in
Ã© rie
Ġcont re
ah ren
ĠEngine ers
Ġ............................................................................................................................... .
ul o
ĊĠĠĠĠĠĠĠĠĠĠĠĠĠĠĠĠĠĠĠĠĠĠĠĠ ĊĠĠĠĠĠĠĠĠĠĠĠĠĠĠĠĠĠĠĠĠĠĠĠĠĠĠĠ
ĠF ile
l ut
33 4
N S
j an
ps on
ĠTh omas
am endment
26 5
Ġmillion s
ent er
Ġdis ability
Ġan ex
Ġvic tim
Ġrel i
Ġmaintain ed
w ood
ĠV or
ues day
v ens
ence ment
av ing
is ke
Ġsu ff
18 8
33 6
O f
ĠN av
50 3
ess e
Ġind ex
um in
Ġv a
I X
Ġw ind
ro g
Ġde ad
ĠL ess
ĠTrad ers
n Ã¡
ĠC D
issipp i
OT AL
23 4
ĠA ust
our th
am os
Ġw ish
Ġprint ed
h Ã¶r
Ġannual ly
es k
er k
Ġi h
Ġ66 02
Ġaddress ed
Ġtechn icians
Ġ ĠĠĠĊĠĠĠĠĠĠĠ
ĠPro vided
Ġpati ent
Ġ19 89
Ġd aily
eg u
4 99
f ers
Cal culated
Ġp al
16 1
ĠFin al
reg ulations
h is
Ġtr ue
J A
ĠC E
ak en
Ġjud gment
Ġemploy ed
S eptember
16 2
ci o
ĠFin ance
Ġprodu k
b us
. \
Ã© m
Ġe j
a el
Ġh ogy
h ad
70 6
ĠBl ack
unt ary
ĠIndust rial
Ġunderst anding
Ġs yst
Ġsecond ary
D ata
UTH OR
Ġde ferred
Ġcomment er
Ġdirec tive
01 8
Ġw ays
Ġreview ed
Ġrel ig
re k
29 6
tim ated
Ġh or
ĠE R
Î¿Î½ ÏĦÎ±Î¹
n ecess
l ight
ĠSen ior
Ġdec ember
Ġres ource
ST R
Ġth us
Ġw aiver
Ġpat ent
Ã ĸ
Ġimplement ed
at us
17 8
b ody
Ġinter ven
02 4
Ġman ager
ĠPro cess
Ġac company
Åĳ l
22 8
B r
ÃŁnah men
Ġu pp
ĠFUR THER
Ġy hte
Ġelect ed
Kom is
ch anges
Äĵ r
70 5
Ġsent ence
Ġfe ed
Ġse lection
ress ion
Ġmanufact urer
ach t
ĠR ef
hour s
Ġm id
ÏĦÎ¹Îº Î¬
ĠInvest ment
ĠÎ± Ïħ
Ġaward s
un al
MENT S
it el
02 7
ĠO S
ĠU s
23 8
Ġdev ices
Ġreim bur
e ad
us ion
] .
eng er
Ġkon k
Ġh ope
Ġal ter
Ġs ym
Ġin clu
T ra
app ropri
ĠD as
Ġp lease
ti ec
No tice
Ġth reshold
ec onom
m az
N e
** **
02 8
kt or
in ery
Ġauthor ization
Ġdam age
Ġcon gressional
199 7
d etermin
Rep ort
Ġ................................................................................................................................ .
en o
Ġinter val
NO TE
50 8
24 7
% )
Ġcomple tion
Ġc es
35 5
i us
Ġ29 6
su pport
Ġmed idas
Ġk ad
ĠD A
ĠS O
liv ing
Ġess ential
st ra
Ġcler k
ra wn
ot ed
18 3
urs day
ist en
ĠReg ion
od a
Fin ancial
ĠDirec tiva
Ġr ank
l Ã¡
22 7
ĠEqu ity
Ġimprove ments
Ġpart ners
enn ess
l ast
n ec
ro y
ĠT ime
Ġd raft
4 80
B P
acks on
02 6
An y
22 2
arb on
======== ========
ens ch
ĠF e
G r
Ġa way
Ġcon ver
D OC
Ġc ollar
19 2
26 6
ĠCONT ACT
ĠX X
ĠÃ©t Ã©
17 7
L o
Ġ29 5
ĠEmploy ees
ĠG R
AS A
p aid
: #
Com ment
Ġra tio
ĠWe ber
33 7
Ġg ew
Ġapp eal
ce m
ÃŃ k
ĠN a
Ġes pec
Ġp la
ach us
ang en
ĠB E
C redit
el ho
pad ding
em m
ĠAL LOY
Ġstep s
B G
Ġag o
01 7
Ġf ond
ĠT ele
os ed
ĠRepresent ative
ĠA ction
3 25
AR R
AL DE
18 7
D K
UL T
22 9
av ailable
Äĵ j
ĠJ ames
Ġco ast
ĠO l
Ġt estimony
Ġrec ently
hib its
ar ms
C oun
Ġpress ure
TX T
ĠOrgan ization
Ġt ex
ĠAl though
Ġtal k
Ġsupp lies
ĠW al
Ġmeas ured
V EL
Ġa ug
Ġjud icial
Ġth ough
e ach
Y ST
Wh en
i Äħ
ĠS R
Ġu ved
Ġnear ly
o ught
ĠÎ ¹
ing er
aj a
nÃ© ho
Ġun ique
ist o
ĠG eb
M U
ik s
Ġale bo
id ents
199 6
Ġguid elines
Ġmeet ings
ĠĊĠĠĠĠĠĠĠĠĠĠĠĠĠĠĠĠĠĠĠĠĠĠĠĠĠĠĠĠĠĠĠĠĠĠĠĠĠĠĠĠĠĠĠĠĠĠĠĠĠĠĠĠĠĠĠĠĠĠĠĠĠĠĠĠĠĠĠĠĠĠĠĠĠĠĠĠĠĠĠĠĠĠĠĠĠĠĠĠĠĠĠĠĠĠĠĠĠĠĠĠĠĠĠĠĠĠĠĠĠĠĠĠĠĠĠĠĠĠĠĠĠĠĠĠĠĠĠĠĠĠĠĠĠĠĠĠĠĠĠĠĠĠĠĠĠĠĠĠĠĠĠĠĠĠ Ġ
Ġlie u
b os
Ġfund ed
ĠÂ ·
Ġ4 25
ĠD on
Ġem ail
Ġr ating
19 1
ĠS hares
ed nes
le ms
Ġclos ed
ĠC z
res ents
Ġviol ence
. _
Ġdesign ation
ĠE QU
mitt el
ef it
v end
02 3
ĠI ran
ak ers
b usiness
cons ider
ĠH ome
ĠÎ¿ ÏĢÎ¿
ĠEX P
Ġh undred
ĠOn line
Ġm Ã¡
ag ue
f en
ST A
ĠHE ALTH
ĠT RA
al se
Ġno vem
p ati
ĠF UND
tit utes
Ġinvol ving
Ġrem ed
ig t
LO W
Ġn ec
Ġidenti fication
Ġneb o
Ġun animous
ici ary
Ġco ordination
Ġdisc ri
reg on
p ite
Ġass umptions
Ġ2 30
y ers
at u
17 2
60 7
b b
Th at
Ġproceed s
3 30
ord s
G AN
ĠS M
Ġrelati va
Äĵ t
le um
re w
Ġc z
Ġf er
ĠSEC UR
) ).
60 9
Ã¤n Ã¤
Ġste el
Ġans wer
Ġ................................................................................................................................. .
op y
EL D
TI N
ĠPart nership
qu are
ak t
Ġl ink
ĠRe quirements
titution al
Ġe ks
ous es
Ġtrans mission
emor and
ĠC hem
ĠMet hod
23 2
ĠC ri
ĠC ast
ĠS eries
17 1
S in
ĠB i
ok a
ĠCons olidated
ĠP o
ut able
Ġshow s
ss ue
ord ening
id ed
ĠN C
Ġjo in
Ġpl ants
Ġ19 87
Ġf el
t te
Ġy outh
70 7
n em
Ġhouse hold
ĠD er
75 4
ĠS ome
Î Ŀ
Ġto ok
Ġon t
ic ate
Ġpay s
Ġutil ity
45 5
ĠE mergency
Ġrecommend ation
Ġconf idential
IR C
ĠÂ§ Â§
ic ian
Ġab use
Ġhig hest
ĠAccount ing
The se
roll er
Ġm argin
Ġcomb ined
23 1
54 13
Ġa pr
Ġder ived
ĠÏħ ÏĢÎ¿
Ġcont ing
E lect
ĠRel ated
ĠU SA
el ly
ond ay
tit uted
ĠB ri
Ġinj ury
Ġin ves
3 40
Ġri ver
Ġdesign ate
Ġdies er
oc ratic
Ġcar bon
ĠM il
Ġl abel
Ġdiffer ence
Ġ8 00
29 4
18 2
ch i
Ġar tigo
Ġh u
Ġun able
ĠA u
all s
lin ie
Ġengine ering
im es
ĠFac ility
Ġwe ap
Î¼ Î·
ĠR ate
33 2
t ag
l ong
Ġseg ment
Ġsupport ed
F T
as te
Ġn Ã£o
sk y
Ġparticip ating
as i
ĠR u
Ġein em
Ġen force
Ġmer ch
Ġanex o
18 1
Î» Î¯Î¿Ïħ
ednes day
l at
Ã¶ t
Ġrev ise
Ġfra ud
Ġcar rier
k ra
Ġremain s
Ġinvent ory
ĠFr ank
AN G
Ã¶ m
T echn
27 6
Ġal c
end o
ra q
Ġfar ms
ĠÏĦ Î¿Î½
75 9
Î Ķ
Ġre ally
he z
Ã¡ ra
Y ear
[ [
Ġinvest ors
Ġanim al
it z
ol t
o o
ĠT om
Ġdrug s
ant age
LE Y
22 1
23 7
| |
Ġn Ã¡
IGH T
Ġse en
ĠDes ign
ī ¤
ĠH el
Ġsec ure
Ġj ul
at ell
ĠdÃ© f
Ġadvers ely
UN T
ĠOper ating
Ġencour age
ĠSub s
Ã¨ me
Ġre ti
Ġto ward
Ġstat ute
ies e
O ne
Ġappear s
Î»Î¿ Î³
Ġd op
ĠÄįl Ã¡n
Ġd ich
Ġg rad
D en
Ġs ul
Ġindust rial
ĠSt r
p oint
Ġallow s
Ġeffic ient
Ġsh ip
Ġ.................................................................................................................................. .
Ġcoll abor
Ġdepos its
ĠPs N
if ies
ĠÂ °
Ġcop ies
Ġmed ia
ĠI S
ĠCommission er
comm unications
AC K
ĠE T
Ġbe gan
ĠÎ ł
en ia
Ġcare er
50 9
AR S
Ġc y
g ue
Ġn acional
Ġra di
am ple
o it
ri ff
U P
r ich
Ġfl ight
ĠCol orado
F C
Ġm ul
ĠCO VID
Ġb order
ÏĬ Îº
25 4
Ġre pl
7 30
ĠÎºÎ±Î½ Î¿Î½Î¹Ïĥ
Ġintro duced
Ġassoci ation
ier ung
Ã¼ b
ĠEX CHANGE
Ġgra du
ans ion
ut z
90 5
ĠM anufact
35 7
Ġd eter
Ġtemper ature
Ġj ak
70 9
Ä £
h ing
Ġannoun ced
ĠgÄ§ al
riz ona
ĠJud ge
Ġin g
âĢĿ ),
Ġl ending
ĠP en
tern ational
enc ing
Ġwar rant
Ġ4 01
ett u
Ġmanufact urers
Ġremov al
not es
ig er
Ġext ra
n om
ÃŃt Ã¡s
Ġcom merce
ĠM AN
ĠG re
ĠTe achers
Ġle ar
V L
ce ption
u til
ateg ory
02 2
ĉĉĉĉĉ Ċ
Ġmin or
Ġdri vers
or tion
ul ated
Ïħ ÏģÏī
Ġwe eks
to ber
Ex ecutive
Ġc rop
ĠA uf
33 1
Ä« dz
OR K
Ġcer tified
Ġ6 659
Ġbec ame
ĠN ative
ĠMich igan
Ġl ost
50 7
Ã¤ nder
Ġim m
Ġz e
he ast
Ġl ive
ear ing
etro leum
Ġac ts
Ġgo al
Ġsole ly
27 9
a ign
il er
p is
ient es
mb H
d os
Ġf abric
Ġd il
Ġliv ing
achus etts
4 14
ĠDe z
MIN ISTR
Ġsuccess ful
ER R
Ġs in
S outh
ĠCO LD
IN LESS
E uro
ĠA mer
Ġmod ification
on ly
Ġrepe al
Ġon going
ĊĊ ĉĉĉĉ
Ġ1 40
l ung
ĠIn vestig
J anuary
Ġovers ight
Ġb ir
ag ency
ul atory
Ġl ate
IC AL
Ġtrans par
ĠB us
Ġum a
< =
S up
nd ez
Ġso on
Ġel Åĳ
ĠĊĠĠĠĠĠĠĠĠĠĠĠĠĠĠĠĠĠĠĠĠĠĠĠĠĠĠĠĠĠĠĠĠĠĠĠĠĠĠĠĠĠĠĠĠĠĠĠĠĠĠĠĠĠĠĠĠĠĠĠĠĠĠĠĠĠĠĠĠĠĠĠĠĠĠĠĠĠĠĠĠĠĠĠĠĠĠĠĠĠĠĠĠĠĠĠĠĠĠĠĠĠĠĠĠĠĠĠĠĠĠĠĠĠĠĠĠĠĠĠĠĠĠĠĠĠĠĠĠĠĠĠĠĠĠĠĠĠĠĠĠĠĠĠĠĠĠĠĠĠĠĠĠĠĠĠ Ġ
ĠPro duction
Ġur ban
ÏģÎ¹ Ïĥ
Ġfri end
H O
r ÃŃ
ĠSTA INLESS
Ġfore st
Ġe ines
Sen ator
lig t
un te
o tion
Ġexam ination
Ġ................................................................................................................................... .
ĠK al
Ġer r
Ġsup erv
ĠVal ley
Ġ3 85
in u
199 5
Ġinstall ation
AT ER
a Ã§Ãµes
am ber
ipar tisan
ĠWith out
n am
Ġarrange ments
Å¡ i
4 01
o Å¾
ĠLim ited
Ġ19 82
Ġpre l
25 8
Ġon line
ner g
Ġo le
Ã¥ r
iz aciÃ³n
Ġ ĠĠĠĊĠĠĠĠĠ
Ġhigh ly
ĠAC TION
Ġl u
itt el
80 5
Ġexem pt
Ã³ g
Ġw ait
Ġimpair ment
ĠQual ity
ach er
Ã¡ ly
ĠRepublic an
ount ain
Ġimport ance
M en
it Ã¤
ÏģÎ¸ ÏģÎ¿
36 6
ĠÏĢÎ±Ïģ Î¬
24 8
Ġar gu
Ġp ending
Ġcon ven
Ġde ploy
b ill
g han
olo Äį
24 2
Ġresp ective
Ġoffer ing
28 6
ĠEn forcement
ĠK ore
pec ts
ac co
g ent
nÃ© es
Ind ust
ĠF air
atk oz
Ġv id
ĠRel ations
60 8
Ġpenal ty
enness ee
n ou
H ow
Å¾ e
a ment
Ġs oll
Ġmin eral
Ġc ame
ocu ments
O I
od u
Ġestable c
ĊĊ ĊĠ
ĊĠĠĠĠĠĠĠĠĠĠĠĠĠĠĠĠĠĠĠĠĠĠĠĠĠĠĠĠ ĊĠĠĠĠĠĠĠĠĠĠĠĠĠĠĠĠĠĠĠĠĠĠĠĠĠĠĠĠĠĠĠ
Ġd ÄĹl
Ġfurn ished
33 8
th ose
90 6
Ġc urrency
ÏĢ Îµ
ic iÃ³n
Ġrecogn ition
A tt
ĠAn nex
lic ations
Ġtr ack
Ġpos itive
Ġpriv ile
Ġse lect
ĠCer tain
ĠCan ada
Ġrad io
te il
LEMENT ARY
ĠG reen
F ort
cl a
Ïī ÏĥÎ·
ĊĠĠĠĠ ĊĠĠĠĠ
l ines
34 9
Ġc ard
ĠD ocument
Ġn ing
45 9
ĠR en
f ac
Ġdes crib
29 3
Ġinc ident
ĠSche dule
4 20
Ġseg u
Ġremov ed
am iento
ĠD a
Ġul tim
24 3
Ġc ov
Ġef ect
ĠÎ± ÏģÎ¹Î¸
un ch
ĠA viation
Ġcom mitted
Ġme ets
Ġl at
ĠP os
ĠĊĠĠĠĠĠĠĠĠĠĠĠĠĠĠĠĠĠĠĠĠĠĠĠĠĠĠĠĠĠĠĠĠĠĠĠĠĠĠĠĠĠĠĠĠĠĠĠĠĠĠĠĠĠĠĠĠĠĠĠĠĠĠĠĠĠĠĠĠĠĠĠĠĠĠĠĠĠĠĠĠĠĠĠĠĠĠĠĠĠĠĠĠĠĠĠĠĠĠĠĠĠĠĠĠĠĠĠĠĠĠĠĠĠĠĠĠĠĠĠĠĠĠĠĠĠĠĠĠĠĠĠĠĠĠĠĠĠĠĠĠĠĠĠĠĠĠĠĠĠĠĠĠĠĠĠĠ Ġ
87 0
75 6
ĠÎ Ļ
Ġj un
Ġconcent ration
27 8
f a
ism o
Ġrep resents
ĠPa ul
ia us
Ġpre vention
Ġrestric ted
Ġup date
25 9
Ġ12 1
id ing
anc o
Ġs y
al le
pro cess
Ïħ Î½
Ġconst ruct
Ġtra ffic
Ġengine ers
ĠAcc ess
erv ed
N orth
Ġcl imate
ĠA y
ĠDef in
ĠÏĢÏģÎ¿ Ïĥ
Ġsom ething
ĠSt ation
Ċĉĉĉĉĉĉĉĉ Ċĉĉĉĉĉĉĉĉ
Ġk ell
ALL OY
Ġint ent
Ġas et
re ce
. ).
ĠK e
ÏħÏģÏī ÏĢÎ±
Ġunder lying
Ġik ke
ĠCO ILS
Ġs owie
Ġc risis
im al
leg al
wh en
ĠS ince
Ġf ight
Ġd arb
p age
Ġreg olamento
Ġg ot
i rop
r um
Ġpublic ly
Ġchalleng es
i ere
Ġe ver
ĠB R
ĠH OT
ĠA B
ov Ã©
Ġ.................................................................................................................................... .
26 4
t em
ax imum
ri ve
] ]
ÏģÎ¯ Î¿Ïħ
Ð ²
F IRB
ĠCh apter
Ġm ig
39 5
yc le
Ġn um
80 6
Ġ4 05
it ol
ĠDem ocr
ur b
nÃŃ ch
Ġpropos als
Ġsatisf y
Ġprodu its
ĠZ us
) âĢĶ
por zÄħd
ĠI ssue
du k
at os
Ġhe ard
ĠPer cent
Ã ¯
ĠcrÃ©d ito
H E
iv ing
Ġb id
ĠÎ¿ Î¹
Ġ ~
ys es
F Y
T itle
ĠI r
Ġl it
ĠFor ces
ĠPart y
199 4
Ġen able
ĠPro ducts
Ġ12 2
Ġf ast
ti ge
Ġch arter
ĠTh ank
ĠPro fessional
f ish
Mr s
in ning
28 9
Ġloc ations
Î ľ
ĠO pen
Î¿Ïį Î½
Com m
Ġimpos e
v y
per iod
D RESS
h y
).. .
spec ific
A z
Ġp ath
Ġtechn iques
C D
27 7
ÏĥÎµ ÏīÎ½
en en
Ġcons titute
Î¼ ÏĨ
Ġparticip ant
ÏĦ ÏĮ
lie ÃŁ
ti se
26 9
D er
ÏħÏģÏīÏĢÎ± ÏĬÎº
ib les
sh ould
necess ary
k Ã¡
Ġv ÄĽ
Ġpar ents
F E
Ġcharg ed
Ġvot es
34 6
Ġst anov
Ġac ad
. /
ĠM ilitary
ĠN RC
ÃŁ er
ĠAuthor ization
er d
n io
x ic
rop ol
ĠA UTHOR
Ġe merg
Ġ Ã¤r
h n
Ġpermit s
ĠU E
Ġcontract or
ĠPubl ishing
anz a
ÃŃc ÃŃ
is lation
Ġk tÃ³
e als
uer to
Ġpro s
NON ALLOY
ĠJ OH
h abilit
Ġwithd raw
urpos e
p f
ges ch
Ġener g
ĠReport ing
ad v
Def aulted
Ġk un
H T
Ġpa ÃŃs
Ġ20 4
âĢĶ âĢĶ
Ġdeliver ed
op an
K um
ms el
ablish ment
ain st
ĠÎ´ Î¹
ĠF ra
ĠKing dom
3 15
ĠV III
ĠRegist rant
Ġle tt
Ġw y
S V
ĠSERV ICES
90 4
ÃŃ nez
ĠCom b
Ġoper ated
) ),
pr ac
Ġclear ly
tiv o
0 50
Ġprom ulg
Ġn y
te k
ific aciÃ³n
Ġp ued
Ġen ough
Ġm ont
Ġat tention
2 99
Occup ation
ER C
ĠF ROM
ent y
Ġs anc
ĠO vers
Ġno tify
Ġa kt
36 9
Ġvari ety
am ine
ĠG emeins
Ġg al
b efore
Ġn el
Y ou
YST EM
Ġst op
om b
ĠFIN AN
Ġ ig
Ġlarg er
Ġdiffer ences
H C
Ġinst ead
im en
Ġits elf
ĠJ os
ĠCons ervation
Ġt rial
i ot
25 3
Ġc ikk
ĠG lobal
hard t
kl ad
IL ITY
s im
T T
Ġur ge
uest o
k un
Ġmill ones
Ġar ba
ĠSum mary
ĠC lean
am men
Ġa j
ol g
ĠTra ining
ti er
Ġat tiec
ĠMedic aid
Ġsett ing
Ġlabor atory
nex e
80 4
ĠP UBLIC
Ġsubsidi aries
Ġins titu
G B
27 2
Ġpr ÃŃ
Ġsi ÄĻ
Ġa qu
ĠC re
cl ose
as se
ĠSh are
ac ji
al so
Ġn iet
Ð »
ed o
ĠMart ÃŃnez
Ġfacilit ate
ight ed
un kt
Ġam ortiz
W S
DE P
ĠEst ado
Ġfac ts
ĠG mbH
A U
ol ar
ĠpÃ¤iv Ã¤nÃ¤
Ġsu iv
Ġper tin
En g
n ame
ĠMitgliedstaat en
E ach
il o
em i
Ġ..................................................................................................................................... .
ru pp
Ã¡ roz
em n
ĠL T
Ġcount y
Ġb onds
Ġ3 15
Ġconcern ant
ff ent
Ġs end
Ġ1 19
Ġc ele
g po
ning en
ĠPro perty
j os
28 3
ĠS UR
ec ondary
IN S
Ġsubmit ting
ĠS eg
Ġfind s
ĠL ew
Ġgra de
90 3
ĠIm plement
cont ent
Ġalloc ated
ĠApp lication
7 13
ĠB izottsÃ¡g
Ġc ad
Ġnav ig
St ock
Ġ12 4
acc ord
Ġwork s
ĠAr ch
2 33
Ġm oment
Ġpop ulations
uc ky
r z
Äįen st
ap e
d ivision
ĠOr d
ind ex
35 8
ises ti
ĠP ie
Ġb ond
ĠCol lege
ens ing
ĠDep art
4 40
45 6
Ġt ip
Ġpow ers
2 73
G N
Ġanal y
ÅĦ ski
over ning
Ġpro pri
Ġlarg est
Ġj anu
count ry
b est
Ġpurch ased
ia ÅĤ
Ġre design
Ġm ap
34 4
Ġint elligence
Ġ19 85
90 9
A pril
leist ungen
S pe
74 9
28 4
ne ment
Ġ12 9
Ġs el
Ġs ept
ĠL ist
M AR
Ġall ocation
re f
ĠD ATES
ado res
ĠĊĠĠĠĠĠĠĠĠĠĠĠĠĠĠĠĠĠĠĠĠĠĠĠĠĠĠĠĠĠĠĠĠĠĠĠĠĠĠĠĠĠĠĠĠĠĠĠĠĠĠĠĠĠĠĠĠĠĠĠĠĠĠĠĠĠĠĠĠĠĠĠĠĠĠĠĠĠĠĠĠĠĠĠĠĠĠĠĠĠĠĠĠĠĠĠĠĠĠĠĠĠĠĠĠĠĠĠĠĠĠĠĠĠĠĠĠĠĠĠĠĠĠĠĠĠĠĠĠĠĠĠĠĠĠĠĠĠĠĠĠĠĠĠĠĠĠĠĠĠĠĠĠĠĠĠĠĠ Ġ
75 7
29 7
z et
Ġreduc ing
Ġe as
Ã¼ ss
Ãª n
ĠÃ Ĺ
Ġa ts
ĠB or
lo ad
ab ama
Ġsust ain
Ġcons ists
ra el
il ing
)... .
che d
m ont
re ira
an al
olog ists
ĠF arm
ropol itan
a mente
ĠInt elligence
o ti
ir med
Ġw est
Ġ16 5
f low
Îķ Îļ
Ġra ised
Ġkoht a
Ġpro hibit
sk o
80 9
Î¸ Î·
25 1
Ġcalcul ate
Ġz m
F ore
ĠDas hes
in y
D el
Ġeng age
Ġhistor ical
Ġn ari
36 4
R EP
Ġrecip ient
Ġ ĠĊ
msel ves
IT S
0 30
erst ate
Ch ar
ĠCON S
ÏĮÏĦÎ· ÏĦÎ±
ound s
ĠInd ividual
P ort
Ġdocument ation
Ġmod els
ĠPa per
ĠGro ss
EU T
Ġstrateg ic
ĠAn g
F ood
ĠN ES
Ġpol ice
Ġconform Ã©ment
ati vely
Ġapp ar
emorand um
ĠB uch
h ler
ĠO THER
c ing
88 5
ic ago
v or
b ass
en ge
l og
la h
b ind
ĠC ORP
unicip al
Ġm ati
erm any
Ġrem ove
Ġ...................................................................................................................................... .
is Ã©
35 4
Ġr ent
Ġ ie
at um
w an
L os
- ,
ĠJ r
ĠJOH N
or ter
ĠÎ ľ
Ġfin anz
Ġpar ent
Z Z
an Äį
ITT EE
. ),
0 40
me as
Ã¡s ok
ĠR ail
Ġo h
Ġjud ge
it ch
O ver
74 4
v Ã©
Ġrepresent ed
Ġpag al
fin ancial
ien st
7 87
t otal
Ġsam pling
uss ch
ol ine
70 8
ĠĊĠĠĠĠĠĠĠĠĠĠĠĠĠĠĠĠĠĠĠĠĠĠĠĠĠĠĠĠĠĠĠĠĠĠĠĠĠĠĠĠĠĠĠĠĠĠĠĠĠĠĠĠĠĠĠĠĠĠĠĠĠĠĠĠĠĠĠĠĠĠĠĠĠĠĠĠĠĠĠĠĠĠĠĠĠĠĠĠĠĠĠĠĠĠĠĠĠĠĠĠĠĠĠĠĠĠĠĠĠĠĠĠĠĠĠĠĠĠĠĠĠĠĠĠĠĠĠĠĠĠĠĠĠĠĠĠĠĠĠĠĠĠĠĠĠĠĠĠĠĠĠĠĠĠĠĠĠĠ Ġ
Ġa er
7 20
st andard
ĠIndust ry
Ġexp ended
Ġmin ority
Ġpractic able
Ġseek ing
cont ract
ÃŃ v
ti iv
Ġt es
ĠVal ue
Ġ13 5
Em ploy
c ond
ous ly
Ġinform aciÃ³n
ĠE F
ĠS a
ED ERAL
o a
Ġm ental
ĠB ranch
Ġdo ku
Ġan g
ĠL os
ĠK Ã¶
fin anz
Ġsp ent
âĢĿ ).
Ġnurs es
ati va
Ġhear ings
ic an
44 4
ĠAt lantic
Ġs ense
ĠMary land
ens ity
Art ÃŃculo
Ġneg ative
isch er
6 50
).... .
in as
ev ada
ĠH UD
ĠH en
24 1
Ã© ration
def aulted
75 8
B ar
Ġfram ework
Ġf est
Ã¤ tt
om et
W est
Ġshare holders
5 20
Ġl in
ĠL ic
ĠB ox
ĠPar lament
Â ¿
Ã©t odo
ĠG es
ĠAl tern
ÅĦ st
ist Ã¤
Ġadv anced
ed uc
3 65
Ġ** *
pe ople
L I
L eg
Ġport folio
Ġve get
Ġstrateg ies
ang ible
Ġs and
ĠAss essment
C ED
M e
E st
ĠG on
Cl ass
t wo
ĠÏĦÎ¿Ïħ ÏĤ
Ġk Ã¶n
Ġpropos es
Ã¼ n
34 8
elij k
Ġbe h
26 3
Ã©s Ã©
lik e
ĠResp onse
26 8
Ġrequ is
Ġexam ine
ĠCon f
O UR
ĠM ortgage
Î ¡
Pro fessional
Ġresid ents
tim es
ĠR isk
Ġb ud
Ġso und
ĠAss oci
Ġsam ples
ow e
T ype
34 3
Ġeff ectively
Ġ202 4
ĠP ass
Ġprac tical
ĠN EW
Ġv ien
Ġf on
G overnment
Ġl Ãµ
irop as
Ġprze z
Ġe th
26 7
re al
ĠFer reira
Ġ13 6
ĊĠĠĠĠĠĠĠĠĠĠĠĠ ĊĠĠĠĠĠĠĠĠĠĠĠĠĠĠ
Ġexp ed
Ġs Äħ
m illion
gl ich
Î» ÎŃ
ĠTh us
Ġcent ers
Ġass urance
ĠW all
D P
ep h
Ġaward ed
ĠI raq
Ġprep are
oles ale
Ġ....................................................................................................................................... .
D ER
Ġrende let
ĠV e
Ã©s i
7 16
Ġcap abilities
)..... .
ĠM S
ver tis
ĠDep uty
Ġown ers
Ġhospital s
ĠU m
ci pl
Ġmes ures
ĠR echts
âĢ¢âĢ¢ âĢ¢âĢ¢
Î¯ Ïĥ
ah men
k nown
g raph
Ġproduct os
Val ue
h ood
Ġmet al
i ol
osp od
ĠP oll
ll a
0 70
Î³ Îº
ĠFund s
hal ts
T M
W omen
ĠPri or
il let
Ġto ols
Ġla id
ĠPRO D
tic as
n as
Ġk il
Ġpar lament
Ġ15 5
ĠH all
Î¿ Î¼
an Ã¡
ĠF ire
ĠPer iod
ĠH ol
Ġpar am
46 8
ich tig
in vest
Ġword t
ĠCom mercial
Ġv Ã¤l
Ġbuild ings
g if
ÃŃ as
Ġsig u
Ġreceiv es
urs ing
rep resent
ĠEar nings
Ã¼ ck
is er
Ġf irms
38 3
ut om
Ġfa ith
ust a
2 87
tain ing
7 15
ĠÎ Ł
D em
Ã¼ f
f ahren
inn es
ection s
ĠM ajor
A ir
ac ij
Ġdi agnos
ĠÃº Äį
Ġ19 84
ew ska
In t
Ġext r
comm od
ir it
Ġsim ply
Ġlead ers
Ġb ig
ĠP eter
at av
29 8
Ġvir t
ĠCo oper
ĠÎ±Î½ Î±
as ts
M ark
w eg
ĠOccup ational
Ġun ivers
ell ung
37 8
Ġn ap
73 5
Î· Î³
C F
ul ner
Wh at
Ġimmedi ate
Ġguarant ee
ĠF re
occup ations
ĠM eas
in ti
z ial
ipp ing
ut ures
Ġbe havior
Ġch ief
Ġd war
Ġ14 5
ra b
3 70
Ġth ing
g n
ĠN uclear
isc uss
zen ie
Am endment
45 8
ĠÃ Ħ
ĠJ apan
ect ing
N ov
ist as
ob s
25 2
Ġbl ock
25 7
Ġpres cribe
or ing
Artik olu
Ġfor ordning
D uring
Ġt ips
Ġn Ã©g
ĠPre vention
S ur
Ġsubst ances
rupt cy
Ġtak es
sk Ã½
Ġal most
raf o
Ġact ing
Ġman age
D ated
ĠC ER
st ud
Ġst age
t ah
ĠA verage
EC TION
ĠÏĥ ÏĩÎµ
Ġcour ts
ĠÎ ¤
os it
Ġconf irm
Ġn one
ĠD etermin
D EC
ob il
uj Ãº
ĠMiss ouri
g ren
S F
re ich
ÏĢ ÏĦ
ic io
Ġus ers
ÅĽ Äĩ
ĠOper ators
ĠM achine
but ton
Ġconvers ion
Reg ist
ac ing
ĠB ill
== =
ĠRe v
Ġ........................................................................................................................................ .
Ġ12 6
ini Å³
em ption
Ġclos ing
ĠCompl iance
Ġ1 79
Pro t
ak ota
C AS
ĠSUPP LEMENTARY
IN I
f red
ons in
app lication
f Ã¸
e lect
45 4
io on
h end
ĠS i
ĠH az
v ien
Ġadminist rators
S k
B al
hal t
Ġm as
Î± ÏĤ
ĠÏĥ Ïį
ĠP ress
mid t
innes ota
z ek
Ġevalu ated
F l
re ction
Ġen roll
ich ts
Ġv Ã¤
Ġm iddle
ĠClass ification
Ġdig ital
ĠĊĠĠĠĠĠĠĠĠĠĠĠĠĠĠĠĠĠĠĠĠĠĠĠĠĠĠĠĠĠĠĠĠĠĠĠĠĠĠĠĠĠĠĠĠĠĠĠĠĠĠĠĠĠĠĠĠĠĠĠĠĠĠĠĠĠĠĠĠĠĠĠĠĠĠĠĠĠĠĠĠĠĠĠĠĠĠĠĠĠĠĠĠĠĠĠĠĠĠĠĠĠĠĠĠĠĠĠĠĠĠĠĠĠĠĠĠĠĠĠĠĠĠĠĠĠĠĠĠĠĠĠĠĠĠĠĠĠĠĠĠĠĠĠĠĠĠĠĠĠĠĠĠĠĠĠĠĠĠĠ Ġ
Ġto ld
us p
f irst
isc onsin
own ed
ot ype
ov ed
ĠW ell
Ġc ell
ĠC all
DRESS ES
f Ã©r
n ational
al ty
34 2
Î¿Ïħ Î»Î¯Î¿Ïħ
46 6
ti p
Ġg i
38 4
3 12
Des cription
id al
ĠÅ ½
Ġmeasure ment
st and
Ġun iversity
Ġdef ault
39 6
serv ices
Ġform a
is o
ĠÃ©t abl
Ġro om
nis se
Ġc it
Å º
45 2
ĠH ourly
Ġk ann
ĠSt a
Ġdispos ition
Ġoper aciones
Ġe k
Ġp iec
um i
ĠGe orge
Ġcon cluded
Ġun iform
L aw
s che
Ġrep ay
ĠOFFIC E
ĠCoun ter
o is
Ġ12 8
37 1
ĠO p
ĠJud iciary
ĠM C
Î¼Î±ÏĦ Î±
Ġatt ached
ĠÏĮ ÏĦÎ¹
Ġ1 33
Ġex cluded
Sec urities
Ġe lec
ti ff
Ġther eto
Ġett Ã¤
D r
UN ITED
Ġd z
ag n
ĠWh ere
)...... .
t Å³
ef t
Ġcom unit
Î¯Î½ Î±Î¹
Ġins ert
Ġsubsidi ary
b ol
ĠT A
Ġ }
Î¸ ÎµÎ¯
Ġh en
% ,
ĠN ATIONAL
ĠAd ditional
ĠFr anc
Ġtr uck
ĠPr ice
ĠGA O
80 8
Ġgener ation
Ġco up
Ġg Ã©nÃ©
ĠAm endments
Ġocc urs
ar v
ĉĠĉĠ ĉĠĉĠ
or um
35 3
pay ment
Ġpercenti les
26 2
i Ä¡
36 3
Ġdefin itions
Ġdisc ount
Ġdetail s
B ro
ĠW ildlife
Ġ2 10
Ġcons olid
M D
ĠAc quisition
Ġph ase
ĠFr ance
m osph
ĠM ur
ar u
Ġmed ian
Ġs ka
Ġnote ik
Ġcooper ative
ĠInd ex
Ġthere after
ĠRep orts
ĠG ard
Ġ1 70
produc ing
ĠP H
ĠCol lection
ho z
w al
84 3
Ïģ Î®
Ġal though
ĊĊ ĊĠĠ
por ter
Ġpro ud
" :
Ġf ebru
Ä« t
ĠC he
Ġre ach
Ġ15 6
Îķ Îķ
r icht
yst s
2 88
ter ior
ÏĢ ÎµÎ¹
) *
AP IT
Ġn Ã©
ĠK op
Ġimpro ved
ĠMiss issippi
Ġuse ful
Ġinter im
h igh
orpor ations
ĠB on
27 1
Ġ[ (
ĊĠĠĠĠĠĠĠĠĠĠĠĠĠĠĠĠĠĠĠĠĠĠĠĠĠĠĠĠĠĠĠĠ ĊĠĠĠĠĠĠĠĠĠĠĠĠĠĠĠĠĠĠĠĠĠĠĠĠĠĠĠĠĊĠĠĠĠĠĠĠĠĠĠĠĠĠĠĠĠĠĠĠĠĠĠĠĠ
Ġresult ed
ĠCor p
ĠS YSTEM
Ġsp onsor
34 1
Ġpercenti le
Ġ......................................................................................................................................... .
ĠF D
Ġdivid ends
Ġt ell
me ans
Ġobserv ed
Ġb ipartisan
Ġein en
s ome
Å ½
Ġcomp ens
Ġattrib utable
Ïī Î³
ak k
Ġcanc er
Ġand ere
Ġdoku ment
Direct or
Ġno tific
is ms
pl us
ell t
36 8
ic er
che id
le ments
C er
Ġw el
ĠO regon
v ÄĽ
35 2
Ġbenefici aries
Ġabs ence
Ġv el
ĠEqu ipment
R IN
ĠSERV ICE
Ġcon j
Ġpro st
Ġfe as
ih il
ĠB ack
Ġ15 7
Oct ober
ĠUr ban
with in
m m
C ost
Ġaccompany ing
Ġt ark
ĠCon dition
Ġ ram
Ġsupp orts
ard ing
ĠS ME
37 7
R ies
Ġanticip ated
Ġe ing
)....... .
is u
Ġ13 1
ic on
Ġa asta
t ri
ĠRes ults
Ġra ise
ĠB orrow
3 85
Ġproduc ers
d ens
Ġb od
Ġmin n
ol ved
ĠÎķ ÏħÏģÏīÏĢÎ±ÏĬÎº
ĠCO UN
Ġconsum ption
S D
Ġinsp ectors
Ġapplic ants
Ġro und
j em
d on
pro vided
IV ER
and a
4 15
b il
UR R
Ġo raz
ĠP OL
Ad v
ĠEmploy ment
Ïĩ ÎµÎ¹
ĠLi ber
Ġsubs id
miss joni
ĠPl ant
ort e
26 1
7 89
Ġ ĠĊĠĠĠĠĠĠĠĠĠĠĠĠĠĠĠĠĠĠĠĠĠĠĠĠĠĠĠĠĠĠĠĠĠĠĠĠĠĠĠĠĠĠĠĠĠĠĠĠĠĠĠĠĠĠĠĠĠĠĠĠĠĠĠĠĠĠĠĠĠĠĠĠĠĠĠĠĠĠĠĠĠĠĠĠĠĠĠĠĠĠĠĠĠĠĠĠĠĠĠĠĠĠĠĠĠĠĠĠĠĠĠĠĠĠĠĠĠĠĠĠĠĠĠĠĠĠĠĠĠĠĠĠĠĠĠ
ĠR om
stall ation
uer do
Ġac know
ĠM ac
Ġform al
L and
ÏĦÎ¿ ÏĤ
hold ing
ind ividual
Ġidentif ying
Ġ3 69
z es
ers e
rit t
s ize
ed a
V EN
ĠU l
Ġfore going
ent ucky
ig he
Ġpres ence
no ÅĽci
Ġdr Å¾
ĠEx cept
ah o
ĠÎ´ ÎµÎ½
OL U
ĠMe eting
Ġc en
M et
Ġ5 01
ĠÂ ¥
M ont
ĠSec ond
ĠEn ter
ĉĉĉĉĉĉĉĉ ĉĉĉĉĉĉĉ
c ase
man agers
Ġappro ve
emb ra
y g
ĠL eb
ur ation
Ġfoot notes
ĠPap ad
Ġf ine
ĠComm unications
ĠM ik
Ris que
75 3
ĠRed uction
65 5
Ġest e
Ries go
ic tion
ĊĉĠ Ġ
Ġar v
ĠF oundation
90 7
Î¹Îº ÏİÎ½
it ect
ER GY
vis ed
)........ .
Ġw et
Ġpropor tion
S al
le w
H ar
ĠCom mittees
k ins
i ÄĻ
99 5
ĠSEC TION
es o
ener ation
Ġ2 70
uc cess
Ãºblic a
ĠZ w
ĠRe lease
ĠAd ditionally
ist ory
p ow
Ġdis abilities
ĠÎµ Î¯Î½Î±Î¹
ĠB ased
on ia
la ments
Ġassist ants
Ċĉĉĉĉĉĉĉĉĉĉĉ Ċĉĉĉĉĉĉĉĉĉĉĉ
, âĢĻâĢĻ
Ġal g
ĠA rizona
B ank
6 20
lo or
2 74
35 1
ĠInsp ector
Ġf Ã¶
li que
Ġc a
Ġmod ern
ar ticolo
Ġclean ing
49 5
Ġhold ers
Ġa ware
" ),
Ġc m
Ġ ĠĠĊĠĠĠĠĠĠĠĠĠĠĠĠĠĠĠĠĠĠĠĠĠĠĠĠĠĠĠĠĠĠĠĠĠĠĠĠĠĠĠĠĠĠĠĠĠĠĠĠĠĠĠĠĠĠĠĠĠĠĠĠĠĠĠĠĠĠĠĠĠĠĠĠĠĠĠĠĠĠĠĠĠĠĠĠĠĠĠĠĠĠĠĠĠĠĠĠĠĠĠĠĠĠĠĠĠĠĠĠĠĠĠĠĠĠĠĠĠĠĠĠĠĠĠĠĠĠĠĠĠĠĠĠĠĠĠ
tra g
Ġso il
ĠSant os
Ġ.......................................................................................................................................... .
d r
ĠÅ Ľ
Ġrelig ious
Ġs ets
Ġfail ed
ĠRegul amento
7 12
h ow
Ġappoint ment
ĠH ig
Ġfin ding
ĠL O
tr as
Ġvac ations
z u
Ġex clusive
Ġsal ary
Ġac id
4 60
Ġthe mselves
ĠPol ice
7 60
Ġmed lems
k el
ĠÃľ ber
ot to
Ġe ast
iti me
Ġval st
all ow
Ġml n
ĠP od
Ġmerc ado
Ġe lev
ier a
49 6
( .
4 30
Ġad ap
ĠPost al
C he
ien ÄĹ
Ġins ured
ĠSup reme
at akse
3 11
S an
Ġw ent
Ġli ber
Ġh o
Ġa uth
f ollowing
Î¼ÏĨ ÏīÎ½
entific ation
34 7
Ġreduc tions
46 9
B et
ĠTr ustee
as tic
ĠEUR OP
Ġfe atures
Ġn ad
ĠP ack
ĠV a
P erson
Ġbank ing
Ġin comple
Ġau ch
ĠCertific ate
Ġ13 4
Ġtotal ing
Ġ ĠĊĠĠĠĠĠĠĠĠĠĠĠĠĠĠĠĠĠĠĠĠĠĠĠĠĠĠĠĠĠĠĠĠĠĠĠĠĠĠĠĠĠĠĠĠĠĠĠĠĠĠĠĠĠĠĠĠĠĠĠĠĠĠĠĠĠĠĠĠĠĠĠĠĠĠĠĠĠĠĠĠĠĠĠĠĠĠĠĠĠĠĠĠĠĠĠĠĠĠĠĠĠĠĠĠĠĠĠĠĠĠĠĠĠĠĠĠĠĠĠĠĠĠĠĠĠ
Ġt ons
ĠT X
5 10
73 6
ub ic
E r
Ġk Äģ
al ta
3 45
Ġch annel
ic ted
)......... .
ipp ed
ĠÎº Î±Î¸
Ġs yn
ij k
ow ych
F ebruary
Ġrespons es
c el
Ġmu ka
7 14
Ã¥d ets
rec ogn
af t
ci es
ghan istan
us ti
ĠTrib unal
Ġprot ected
osition en
ĠSch w
ĠCont inued
n g
ĠIm prove
Ġso us
ĠCler k
App endix
28 1
ti sh
ĠCom ment
Ġann u
ist ry
ĠM CC
ĠO P
Ġquarter ly
Ġstock holders
Ġpre ferred
I st
ĠLet ter
cem bre
ar p
ĠPar laments
H OL
ĠC M
M od
Ġelse where
Ċ ĊĠĠĠĠĠĠĠĠĠĠ
ĠNES OI
v s
Ã ¿
ĠSp ace
fund ed
EM A
utri tion
ron ically
Ġview s
ĠP oint
ke y
wh at
Ġ3 02
Ġd ry
ĠT est
ĠdÃ© cembre
Ġp ok
h d
Ġp ad
36 1
I AN
ĠT ri
Ġn amed
.âĢĻâĢĻ .
u an
R U
ĠG en
ĠLo ans
ĠG od
73 8
Ġind epend
" .
Ġse k
ress ed
Ġsup ervisors
ab ase
ĠC IRC
6 84
mission en
36 7
che v
ree ments
c ollar
st ruct
Ġw ide
Ex p
val ue
Ġac quire
Ġther ap
Î¼ Î¬
ĠfÃ¶r ordning
ĠB eg
Ċ ĊĠĠĠĠĠĠĠĠĠĠĠĠ
Ġassess ments
Ġrel ation
b ach
Ġc at
d uring
Ġs earch
ĠvÃ½ rob
all o
Ġst yle
39 8
H z
Ġkos ke
ola ment
44 8
Ġd raw
3 88
ĠEvrop sk
d if
Ġnec es
h im
ress es
ĠAD MINISTR
Åĳ k
ins i
Ġconsid ers
28 2
44 9
Ġmethod ology
ĠS and
rif ten
ĠOb ama
ĠNM FS
tit ude
pe tition
Ġ........................................................................................................................................... .
ag en
Ġfr Ã¥n
ĠUN ITED
clus ions
29 1
Ġpenal ties
tar get
ĠC ase
Ġ 000000
Ġu Å¾
Y es
P ay
Ġlead ing
L U
29 2
Ġg y
sh ore
Ġk er
ĠM E
Ġemploy ers
Ġb ranch
Ã© v
ĠN ON
anci a
ĠĊĠĠĠĠĠĠĠĠĠĠĠĠĠĠĠĠĠĠĠĠĠĠĠĠĠĠĠĠĠĠĠĠĠĠĠĠĠĠĠĠĠĠĠĠĠĠĠĠĠĠĠĠĠĠĠĠĠĠĠĠĠĠĠĠĠĠĠĠĠĠĠĠĠĠĠĠĠĠĠĠĠĠĠĠĠĠĠĠĠĠĠĠĠĠĠĠĠĠĠĠĠĠĠĠĠĠĠĠĠĠĠĠĠĠĠĠĠĠĠĠĠĠĠĠĠĠĠĠĠĠĠĠĠĠĠĠĠĠĠĠĠĠĠĠĠĠĠĠĠĠĠĠĠĠĠĠĠĠĠĠ Ġ
sp ace
l os
Ġbound ary
ĠAl so
7 74
ĠEv ans
ĠĊĠĠĠĠĠĠĠĠĠĠĠĠĠĠĠĠĠĠĠĠĠĠĠĠĠĠĠĠĠĠĠĠĠĠĠĠĠĠĠĠĠĠĠĠĠĠĠĠĠĠĠĠĠĠĠĠĠĠĠĠĠĠĠĠĠĠĠĠĠĠĠĠĠĠĠĠĠĠĠĠĠĠĠĠĠĠĠĠĠĠĠĠĠĠĠĠĠĠĠĠĠĠĠĠĠĠĠĠĠĠĠĠĠĠĠĠĠĠĠĠĠĠĠĠĠĠĠĠĠĠĠĠĠĠĠĠĠĠĠĠĠĠĠĠĠĠĠĠĠĠĠĠĠĠĠĠĠĠĠĠĠ Ġ
Î±Î³ ÏīÎ³
Ġadv oc
us er
ĠPlan ning
).......... .
isl ative
Ġpre c
ĠĊĠĠĠĠĠĠĠĠĠĠĠĠĠĠĠĠĠĠĠĠĠĠĠĠĠĠĠĠĠĠĠĠĠĠĠĠĠĠĠĠĠĠĠĠĠĠĠĠĠĠĠĠĠĠĠĠĠĠĠĠĠĠĠĠĠĠĠĠĠĠĠĠĠĠĠĠĠĠĠĠĠĠĠĠĠĠĠĠĠĠĠĠĠĠĠĠĠĠĠĠĠĠĠĠĠĠĠĠĠĠĠĠĠĠĠĠĠĠĠĠĠĠĠĠĠĠĠĠĠĠĠĠĠĠĠĠĠĠĠĠĠĠĠĠĠĠĠĠĠĠĠĠĠĠĠĠĠĠĠĠĠĠ Ġ
Ġdisp on
ĠP or
ĠS IP
ĠĊĠĠĠĠĠĠĠĠĠĠĠĠĠĠĠĠĠĠĠĠĠĠĠĠĠĠĠĠĠĠĠĠĠĠĠĠĠĠĠĠĠĠĠĠĠĠĠĠĠĠĠĠĠĠĠĠĠĠĠĠĠĠĠĠĠĠĠĠĠĠĠĠĠĠĠĠĠĠĠĠĠĠĠĠĠĠĠĠĠĠĠĠĠĠĠĠĠĠĠĠĠĠĠĠĠĠĠĠĠĠĠĠĠĠĠĠĠĠĠĠĠĠĠĠĠĠĠĠĠĠĠĠĠĠĠĠĠĠĠĠĠĠĠĠĠĠĠĠĠĠĠĠĠĠĠĠĠĠĠĠĠĠĠ Ġ
Ġrecogn izes
ig lio
umul ative
ĠM I
3 17
Ġb esch
ent ral
8 50
Ġacc eler
ex cept
ĠTrib al
ĠAc ad
at ric
Ġfinanci er
Ġd od
A ff
al en
Ġn aj
Ġbro ker
Ġs es
ĠĊĠĠĠĠĠĠĠĠĠĠĠĠĠĠĠĠĠĠĠĠĠĠĠĠĠĠĠĠĠĠĠĠĠĠĠĠĠĠĠĠĠĠĠĠĠĠĠĠĠĠĠĠĠĠĠĠĠĠĠĠĠĠĠĠĠĠĠĠĠĠĠĠĠĠĠĠĠĠĠĠĠĠĠĠĠĠĠĠĠĠĠĠĠĠĠĠĠĠĠĠĠĠĠĠĠĠĠĠĠĠĠĠĠĠĠĠĠĠĠĠĠĠĠĠĠĠĠĠĠĠĠĠĠĠĠĠĠĠĠĠĠĠĠĠĠĠĠĠĠĠĠĠĠĠĠĠĠĠĠĠĠĠĠĠ Ġ
Ġtra v
ĠO cean
xxxx xx
ĠĊĠĠĠĠĠĠĠĠĠĠĠĠĠĠĠĠĠĠĠĠĠĠĠĠĠĠĠĠĠĠĠĠĠĠĠĠĠĠĠĠĠĠĠĠĠĠĠĠĠĠĠĠĠĠĠĠĠĠĠĠĠĠĠĠĠĠĠĠĠĠĠĠĠĠĠĠĠĠĠĠĠĠĠĠĠĠĠĠĠĠĠĠĠĠĠĠĠĠĠĠĠĠĠĠĠĠĠĠĠĠĠĠĠĠĠĠĠĠĠĠĠĠĠĠĠĠĠĠĠĠĠĠĠĠĠĠĠĠĠĠĠĠĠĠĠĠĠĠĠĠĠĠĠĠĠĠĠĠĠĠĠĠĠĠĠ Ġ
Ġpot entially
Ġrec over
Com ments
Ġkom is
ĠBen efits
am ination
ĠÏĥ ÏĦ
ĠStud y
K A
ĠM R
con n
ol ly
3 14
39 4
Ġw ie
ĠOvers ight
Ġal iment
v acy
Ġd ates
D EM
Ġpropos ing
ik op
au k
Ġhazard ous
Ġk m
ĠS ett
ad el
enti f
Ġp s
i Å³
S pec
Kum missjoni
ĠSe lected
Ġadmin ister
Ġnom ination
Ġ14 1
Ġprel iminary
t oday
f ree
90 8
Ãª t
Ä ł
Ġviol ations
W ork
b ell
Ġ16 1
th ird
ĠG reat
Ġdemonstr ate
65 6
Ġal ien
Ġc ette
Ġrelati vo
ug al
se ments
ick ing
37 2
-------- ---
Ġfinanci aciÃ³n
ĠL ibrary
ĠI owa
Ġj Ã¤
Ġhtt ps
Ġhealth care
Ġaplic aciÃ³n
habilit ation
Ã¼ hr
QU IR
yn am
Ġsist ema
ĠT ECH
j al
Ġconform idad
g ers
ne ed
Ġv Ã©
Pri vate
Ġcompar able
ĠO il
Â ®
ĠMa ÃŁnahmen
ĠS F
u ff
Ġ| |
Ġv acc
cont rol
Y S
Ġc ui
199 3
Ġpl aces
ĠL ange
Ġp le
Ġanal yses
mer o
b oard
Ã³ m
Ġsum mar
comm encement
NO T
ĠPer formance
ig a
te le
Ġn ames
ĠÎķÏĢÎ¹ÏĦÏģÎ¿ÏĢ Î®
ov o
B ased
OR E
ÅĻ ed
87 7
ĠFINAN CIAL
Ġatt ack
ĠRicht linie
)........... .
ĠPr incipal
ac ity
Ġprot oc
Ġc od
ĠRecord s
am ount
76 3
el ess
Ċĉĉĉĉĉĉĉĉĉĉĉĉ ĉ
Ã ĺ
ici os
res h
ĠD akota
Ġdistrib uted
Ġ1 75
P ost
Ġnot hing
Ġod st
Ġle ases
Ġexec ution
ĠEn glish
Ĺ ı
44 6
M ad
65 8
7 88
Ġs olution
Ġdivid ing
38 2
r isk
c ost
y a
Ã¤r k
3 24
ĠJohn son
f amily
Ann ual
ĠÃ¶ ss
a ii
B el
Ġbi ological
ach ment
ĠC lear
Ġsc en
aj Ãº
ĠN ations
3 99
Ġconduct ing
Ġn ine
Î¿Î¹ Î½Î¿
l av
Ġimpro ving
ah u
Ġshe et
Ġ............................................................................................................................................ .
D z
Ġsex ual
Ã ¹
Ġc ore
ĠAc tivities
Ġdes cribe
Ġindic ates
Ġear ned
Ġassemb lers
Ġdemonstr ation
Ġst ations
3 22
c m
lah oma
Ġconcent rations
Î¿Î¹ Î½
Ġas pects
Ġerr ors
Ġv z
est e
M at
Ġsol utions
ot es
ffic ial
b eg
Ġapply ing
Ä«b Äģ
Ġgro unds
ĠH IV
Ġvon atkoz
Ġparti r
ĠI SO
Ġsk ills
IZ ATION
Ġgiv ing
Ġhe d
ym i
Ïģ Ïĩ
Ġrespond ents
ĠRes olution
sp ect
Ã©se k
roll ing
Ġs an
UC TION
en ie
ĠK u
ĠO TH
ĠTreat y
B B
Ġdispos al
ĠT ennessee
ĠG ulf
d ent
Ġhar vest
ie u
B udget
ĠĊĠĠĠĠĠĠĠĠĠĠĠĠĠĠĠĠĠĠĠĠĠĠĠĠĠĠĠĠĠĠĠĠĠĠĠĠĠĠĠĠĠĠĠĠĠĠĠĠĠĠĠĠĠĠĠĠĠĠĠĠĠĠĠĠĠĠĠĠĠĠĠĠĠĠĠĠĠĠĠĠĠĠĠĠĠĠĠĠĠĠĠĠĠĠĠĠĠĠĠĠĠĠĠĠĠĠĠĠĠĠĠĠĠĠĠĠĠĠĠĠĠĠĠĠĠĠĠĠĠĠĠĠĠĠĠĠĠĠĠĠĠĠĠĠĠĠĠĠĠĠĠĠĠĠĠĠĠĠĠĠĠĠĠĠĠĠ Ġ
ĠS m
Ġ Ã¡ll
d orf
J N
Ġreserv es
ĠR ico
ĠD et
D av
Ġc ircul
ie x
Ġst ake
ĠIn te
Ġg overning
Ġra pid
ĠSen ators
Ġexpendit ure
Ġb ad
C ode
ti le
Ġroz porzÄħd
om men
Ġsurve illance
be ing
Ġassum ed
Î¼Î±ÏĦ Î¿ÏĤ
Ġsk up
ti a
Î ¥
iz ada
Ġplat form
Ġthreat s
Ġanim als
Ġback ground
OC K
Ġa insi
ĠF O
p at
ĠP ursuant
)............ .
45 7
Ġfil es
Ġadv ice
ag ne
umul ated
ĠA ward
ĠCh anges
ond ere
Ġbenefici ary
3 13
Ġ14 4
ĠL ands
ĠĠĠĊĠĠĠĠĠĠĠĠĠĠĠĠĠĠĠĠĠĠĠĠĠĠĠĠĠĠĠĠĠĠĠĠĠĠĠĠĠĠĠĠĠĠĠĠĠĠĠĠĠĠĠĠĠĠĠĠĠĠĠĠĠĠĠĠĠĠĠĠĠĠĠĠĠĠĠĠĠĠĠĠĠĠĠĠĠĠĠĠĠĠĠĠĠĠĠĠĠĠĠĠĠĠĠĠĠĠĠĠĠĠĠĠĠĠĠĠĠĠĠĠĠĠĠĠĠĠĠĠĠĠĠĠĠĠĠ ĠĊĠ
Ġmaintain ing
S G
Ġroz hod
v od
or ig
iv ely
AN N
ci e
5 40
zÃ¡ lez
aj e
ain tiff
In formation
Ġs af
Ġmarch Ã©
Ġissu er
ĠS oci
ink ing
Ġto m
ENT S
Ġfinance ment
Å« t
ĠÄ ¡
ĠP UR
A F
an v
Ġwe b
EC R
Ġdur ation
end ants
Ġregul ated
he ld
pos al
ĠIR S
Ġn as
ov Ã¡nÃŃ
45 3
p rop
ĠEuro opa
i Äĭ
85 5
at y
W ill
IT E
ÃŃ fic
AT A
N or
ĠS om
are a
ĠP ow
ĠGon zÃ¡lez
ĠAct ing
ĠAd just
pro vide
he ight
00 86
leg es
Ġl Ã©g
Ġus er
Ġmin ing
Ġ ĠĠĊĠ
k os
Ġem presas
ĠI MP
Ġcomm e
Ġcon text
vertis ing
Ġ7 00
39 7
ĠSub title
Ġsu c
Ġvol untary
j Ã¡n
R ET
ĠK ap
ÏĪ Î·
Ġcomp rom
ÅĨ em
ons ors
ĠN ich
Ġse ven
Ġobj ective
Ġle ur
ĠP AY
So cial
Ġrecre ation
Ġs cale
G AS
Ġgener ated
DEP ARTMENT
Ġlo ad
ģ Ħ
Ïģ Ïİ
ent h
A uthor
irts chaft
Ġ............................................................................................................................................. .
\ <
ĠA IR
Ġamend ing
ĠIndian a
ĠBal ance
ĠComp uter
Ġsp re
Ġdisch arg
TA IN
Ã©s z
STA FF
Th ursday
L ES
O d
Ġlabor ers
5 12
ĠDez ember
ra h
u ment
Ġz d
g rant
ĠMass achusetts
ĠCon vention
Ġvot ed
c rit
Ġdeliver ies
)............. .
ĊĊ ĉĉĉĉĉĉĉĉ
b as
ri ft
Ġform at
80 3
ĠM iscellaneous
ĠMich ael
Ġacc rued
ĊĊĠĠĠĠ ĊĊĠĠĠĠ
ĠMon th
Ġsugg ested
ord an
â ģĦ
Ġapp reci
Ãª te
b orn
tic ut
ĠJ ackson
D on
ÏģÎ¿ Ïį
jud ic
ĠB il
ĠMod el
Ċ ĊĠĠĠĠĠĠĠĠĠĠĠĠĠĠĠĠĠĠĠĠĠĠĠĠĠ
ot te
Ġterrit or
a e
ĠOffic ers
sp Ã³l
0 60
ĠLouis iana
Ġgr and
Ġcon vey
Ġinvestig ations
m aterial
Ġ20 3
j s
ĠHe ad
ĠO PER
Ġpur su
ze ich
Î´ Î¹Îº
er ic
ix ed
Ġbl z
pati ent
OR S
f ull
ĠEx cluded
re ach
Ġtyp ically
Ġhe l
ĠAccording ly
orsch riften
ines e
ig u
M Ã©todo
Ġcri me
Ġproject ed
C ash
39 1
Ġadminist ra
73 9
man agement
ĠF our
app lic
86 9
46 4
Ġres c
Ġ5 02
Ġnumer ous
nec ticut
Ġaltern atives
Ġweap ons
ici embre
Ġanal yz
or ne
Ġens uring
Ġpro sec
Ġwork force
ĠL es
ĠDel aware
EM P
ĠS ever
Ġpan el
am o
Ġst ay
87 6
ĠY our
am as
h over
Ïģ Î¿Ïħ
chaf ts
min e
3 18
Ġcon vention
Ġf i
ys ical
Ġlevel ed
l ength
ĠKommission en
lo oking
Ġ4 06
ĠN ow
ĠspÃ© cial
Ġcorrespond ing
IC A
Ġla ik
Ġdis play
ĠRep ublik
it ro
ikop ositionen
T uesday
ast os
Ġdep th
Ġcom ing
Ġs ou
ĠM el
31 0001
Ġcon clusion
Ġf it
ot ton
ĠU ND
ĠTrans fer
Ġd iciembre
Ġn Ãµ
Ġch airman
Ġproper ly
Ġprohib ited
Ġh on
Ġhe at
ĠD ise
ons ider
at ta
ĠK MU
cri ptions
Ġp resident
Ġf ulf
l ar
ĠCon ference
Ġpun to
el lect
ã ĥ
st off
in ÄĹs
Ġkont rol
h of
Ġaddress es
Ġ19 77
Ġmen tioned
ig o
Un it
al is
ĠV ill
36 2
hic le
ĠP as
Ġun f
Ġ29 8
Ġs quare
Ġz ak
re b
the m
H ER
Ġre leased
Ġdist in
le te
Ġli ik
EN SE
Ġcont en
D ist
ĠHigh way
Ġexp ansion
ĠÎ¼Îµ ÏĦÎ±
w s
ĠP Ã©
Ġsu it
B er
ĠW estern
39 3
Ġv ary
ĠC MS
Ġ ĠĠĊĠĠĠĠ
Administ rative
Ã ®
n ote
T ext
Ġqu ick
Ġmat ch
Ġo ri
pro vid
aus halts
ĠCom itÃ©
ĠPe ople
Ġa Ã±
ace u
Ġelimin ate
ĠS ie
ĠF ield
mark et
Ġrail road
ess ions
ra j
z m
Ġvis it
Ġ3 50
ĠD urch
st ater
Ġmod ifi
Ġreimbur sement
Ġquan tity
ĠElect ronic
PR I
Ġ19 76
ol n
Ġ4 02
emor ial
ĠEngine ering
73 4
ject ed
Ġam ely
ĠNor thern
ĠF ont
ĠInd ians
Ġc ual
Ġlist ing
Ġson o
ĠĠĊĠĠĠĠĠĠĠĠĠĠĠĠĠĠĠĠĠĠĠĠĠĠĠĠĠĠĠĠĠĠĠĠĠĠĠĠĠĠĠĠĠĠĠĠĠĠĠĠĠĠĠĠĠĠĠĠĠĠĠĠĠĠĠĠĠĠĠĠĠĠĠĠĠĠĠĠĠĠĠĠĠĠĠĠĠĠĠĠĠĠĠĠĠĠĠĠĠĠĠĠĠĠĠĠĠĠĠĠĠĠĠĠĠĠĠĠĠĠĠĠĠĠĠĠĠ ĊĠ
Ġarrange ment
Ġ.............................................................................................................................................. .
ĠÃ© g
).............. .
Ġstruct ures
T N
c ard
ĠOver all
Ġh older
on k
44 3
ĠH y
ĠE G
ĠE valuation
5 60
Ġ3 74
Ġbre ak
ad minist
Ġ13 8
Ġto xic
ĠI X
Ġph arm
if th
et z
ĠAr t
ĠDec isiÃ³n
us ter
88 8
Ġfrequ ency
ond o
ri eb
l oc
Ġdis aster
d et
i ence
O O
Î¯ ÎµÏĤ
Ġ16 8
ed ing
Ġreplace ment
Ġcol um
Ġ19 83
ĠB ow
al er
oc ational
Ġst abil
Ġmess age
Ġt ables
ass o
ac on
Ġcor rec
Ġl ab
Ġartik lan
k end
ric ted
ĠO H
Ġ19 70
Ġ20 7
4 65
Appro che
ĠÎµ ÏĨ
Î· ÏĥÎ·
Ġ5 05
Ġdepend ent
ĠÎ£ Ïħ
UN G
P SE
76 6
L AND
s l
Ġpro spec
ut sch
Ġc ents
C la
Ġc iti
j est
Ġiz m
Î· Î¼
av es
A Z
ers ch
---------------------------------------------------------------- --------------------------------
Ġproc urement
Ġgovernment al
55 5
ĠS C
ĠGr ants
Ġ12 7
Ãªn cia
ĠSup er
Ġacad emic
Ġ4 12
kra ine
b all
Ċĉĉĉĉĉĉ Ċĉĉĉĉĉĉ
oss a
ĠP uerto
Ġm ai
6 40
ĠF E
Ġinflu ence
y tt
Ġs ays
elij ke
Ġsupp lement
Ġt end
46 3
ĠvÄĽ st
Ġcomb at
Ġpat tern
Ġgr up
ĠE w
import ant
Ġsec ured
ĠK y
Ġd ov
Äģci jas
B o
Ã³ ÅĤ
88 4
M ill
Ġrepresent ing
Ġupd ated
Ġpou Å¾
Ġn ust
p i
su pp
Ġar ising
Ġdies e
ĠM iddle
87 9
ĠNet work
ĠPh il
No vember
is ti
Ġe ight
ĠS K
Ġt Ã¶
Ad dress
ins urance
F air
I EC
m ake
76 9
ĠG y
c ell
Ġj Ãº
ĠT ier
Ġrecomm ends
c le
Ġ18 5
j sk
ĠChild ren
89 5
ĠC OR
Ã© ge
Ġ25 1
ze j
ĠĊĠĠĠĠĠĠĠĠĠĠĠĠĠĠĠĠĠĠĠĠĠĠĠĠĠĠĠĠĠĠĠĠĠĠĠĠĠĠĠĠĠĠĠĠĠĠĠĠĠĠĠĠĠĠĠĠĠĠĠĠĠĠĠĠĠĠĠĠĠĠĠĠĠĠĠĠĠĠĠĠĠĠĠĠĠĠĠĠĠĠĠĠĠĠĠĠĠĠĠĠĠĠĠĠĠĠĠĠĠĠĠĠĠĠĠĠĠĠĠĠĠĠĠĠĠĠĠĠĠĠĠĠĠĠĠĠĠĠĠĠĠĠĠĠĠĠĠĠĠĠĠĠĠĠĠĠĠĠĠĠĠĠĠĠĠĠĠ Ġ
de v
y en
ĠB ru
73 7
Ġke ine
199 0
Ġ2 38
ĠCap itol
ĠC am
m al
ĠTh om
g eneral
Ã¼ nd
E ff
ĠH istor
N M
Ä ı
Î¹Îº Î®ÏĤ
Ġ8 01
Ġsk al
qu ir
Ġiniti atives
Ġol der
Ġatt empt
ĠResp ond
)............... .
Ġcontrib ute
Ġproduc ing
49 4
Ð º
ĠREPORT S
Ġval uation
Ġtrib es
ĠCH AIR
ail ing
Ġ15 9
Ġro ck
Ġ15 8
Ġman aged
Ġt ies
The y
Ġprom pt
Ġtr as
rup tion
ĠB AS
ĠEs tim
Ġder ech
ĠB at
Ġ13 2
'' .
ĠdÃ©f aut
ak a
w in
Ġv ulner
Ġshow ing
Ġp ain
Ġal kal
Ġun s
Ġor g
ĠCons umer
ĠM as
ĠB end
Ġgrow ing
os to
ÏĮ Î³
Ġde ze
44 7
ĠFin anz
Ġc raft
ĠC ategory
anÃ¡ cs
Ġconflic t
Ġto ol
Ġdist ance
Ġ............................................................................................................................................... .
Ġ4 99
ĠAn hang
int as
. )(
et a
ĠO ption
Ġp ov
J Y
iv el
A pr
con duct
ir ty
ĠEn vironment
Ġs ov
av ad
qu arters
us el
cla im
Ġhe ight
n ega
g od
ro om
Ġbec omes
âĢ Ĳ
ale ment
ĠK enn
Ġk r
sch ool
49 8
c our
Aug ust
ĠI L
a mental
Af ter
Ġeurop e
Ġge ographic
SEC UR
ĠRel ative
Ġd nia
ĠSch ul
fe et
F il
UD G
hal ten
ĠSub part
roll o
Ġprogram me
\] ,
s mall
j ar
ris ti
ult aneous
46 7
4 24
ION S
Ġau ÃŁer
Ġcall s
Ġcomm and
ĠM ON
Ġas p
ĠF ed
Ġ2 11
ĠÄįl ensk
P e
pl om
ĠManufact uring
Ġs od
Ġprz y
P I
Ġre ached
employ ees
Ġl k
l ocal
0000 000
Ġ17 8
ÏĦÎ¹ ÏĤ
am ps
Ġj uni
h l
39 2
Ġdec line
po Äį
Ġw id
Ġdat os
d irect
Ġl ug
Ġdivid ed
Ġc ycle
Ġmod ify
Ġprior ities
Ġn im
Ġ3 33
S mith
aut res
r ero
Ã©r t
ĠBro wn
Ġ30 6
Ġ4 50
iz s
Ġw or
Ġf ill
qu er
ET ER
Es timated
Ġn od
Ġmodific ations
Ġc osp
ĠN evada
Ġfour th
Ġpom oc
Ġcamp aign
ti j
ĠB ern
Ä¡ Ä¡
Ġparti e
- .
Ġcompl aint
Ġ< =
Ġ5 52
ĠCl ark
Ġallow ing
c r
Con struction
Ġv ested
enc er
Ġ40 4
ĠE ll
re ch
Ġh um
as er
Ġc ited
Ġ ents
Ġadmin istered
Ġper ÃŃ
C ase
Ġad visory
o Äį
Ġ19 79
opoul os
CON S
ord ers
en stein
Ġg ene
Ġsupp lemental
og u
ĠK ansas
Ġ________________ ____
E qu
t tiva
)................ .
inter est
ĠFranc is
3 19
Ġfollow ed
ĠAl abama
Ġpubl ish
child ren
Ġsubsequ ently
ĠE C
55 4
Ġd anger
Ġded uc
ĠPro visions
atical ly
es a
ak ov
Ġvictim s
Ġg ains
Ġaccept able
ĠR ural
Ġdo it
ĠPÃ© rez
38 1
Ġliquid ity
ĠAg u
4 70
organ ization
ĠE iropas
s ent
IR E
Ġc ust
Ch airman
ĠSc ott
In c
Ġexp iration
M iscellaneous
Ġr ul
C urrent
Ġinc enti
Ġ3 75
ĠInf rastructure
an nexe
ograph y
86 7
9 50
L ow
Ġatt orney
Ïģ Î±ÏĦ
Ġzw ischen
Ġmed i
Ġ2 15
ĠASS IST
ĠW A
Ġcar riers
Ġk uri
ĠPay ment
Ġ ÏĨ
pt roller
W ednesday
Ġg eb
i Äį
par tie
ĠEuro pos
ĠL IM
Ġw ood
ateg or
Ġv Å¡
ĠTr ump
re ason
3 16
Ġsz er
min ute
ow s
Ġnon production
Î¼ÏĮ ÏĤ
Ġpo ol
ĠkÃ¶ vet
Ġb and
Ġsh aring
ĠL at
Ġmaterial ly
Î± Îº
Pro duction
H N
M ER
ang ered
ĠRich ard
Ġfol g
Ġaccur acy
49 7
ĠÌ Ī
F eb
Ġbir th
quis itions
ĠCent ers
Ġ2 20
G O
Ġl is
Ġ6 01
ĠS y
Ġdeg li
ut ral
am ble
Ġ2 12
ĠV is
88 6
k ansas
ĠSt an
v ity
Ċ ĊĠĠĠĠĠĠĠ
ĠL E
3 28
Ġm aks
OV ERN
ĠÎ± ÏĢ
3 29
45 1
ul k
Ġdec reased
Ġcap ability
77 7
Ġsmall er
ĠC ensus
S pecial
Ġfield s
74 6
ĠTe il
Ġan t
Ġwur de
Ġflex ibility
Ġa ver
ĠEn ts
B en
as ion
ur ant
ar ante
ĠUn its
Ġfr ont
aire d
wend ung
Ġc orporations
ĠL ife
ĠpÅĻ ed
Ġmove ment
Ġj anv
j Äħ
Ġsurve ys
ct u
ĠL ocal
4 11
Å¡ Ä·
ĠComm un
Ġh un
Ġv il
Ġ................................................................................................................................................ .
Ġktor Ã©
Ġ16 3
Ġm Ã©
Ġreview s
5 01
Ġm ile
ĠEN ERGY
Ġdefic it
ish ment
Ġreturn s
Ġaccur ate
ĠMan ager
Ġ1 000
Ġb ag
ff icking
Ġposs ession
Ã¶ ss
Ġspe ak
85 9
44 2
n ell
Ġ ies
L abor
ĠN ic
an je
Ġcom er
ik ke
Ãī tat
Ġv end
Ġm ot
ĠÃ ĸ
76 8
O ut
ĠB ase
Ġdam ages
Ã¦ ll
ere in
Ġ14 9
g as
80 7
Ġ14 2
ĠA lex
b id
Ġrepair ers
st on
89 2
Spe aker
79 5
Ġelect ronically
Ġs pl
Ġf em
Ġsp raw
)................. .
ĠJ o
op ulation
6 30
Ġlett ers
ĠH ill
Ġ19 65
Ġ ĊĊ
Ã¡ st
ĠĊĠĠĠĠĠĠĠĠĠĠĠĠĠĠĠĠĠĠĠĠĠĠĠĠĠĠĠĠĠĠĠĠĠĠĠĠĠĠĠĠĠĠĠĠĠĠĠĠĠĠĠĠĠĠĠĠĠĠĠĠĠĠĠĠĠĠĠĠĠĠĠĠĠĠĠĠĠĠĠĠĠĠĠĠĠĠĠĠĠĠĠĠĠĠĠĠĠĠĠĠĠĠĠĠĠĠĠĠĠĠĠĠĠĠĠĠĠĠĠĠĠĠĠĠĠĠĠĠĠĠĠĠĠĠĠĠĠĠĠĠĠĠĠĠĠĠĠĠĠĠĠĠĠĠĠĠĠĠĠĠĠĠĠĠĠĠĠĠ Ġ
Ġb end
Ġfew er
ge leg
OM B
Ġ20 8
ie b
Ġval or
s ignificant
Ġt at
Ġup or
Å¡ ÃŃ
In ternational
ĠLeg al
Å¼ y
ĊĠĠĠĠĠĠĠĠĠĠĠĠĠĠĠĠĠĠĠĠĠĠĠĠĠĠĠĠ ĊĠĠĠĠĠĠĠĠĠĠĠĠĠĠĠĠĠĠĠĠĠĠĠĠĠĠĠĠĠĠĠĠĊĠĠĠĠĠĠĠĠĠĠĠĠĠĠĠĠĠĠĠĠĠĠĠĠĠĠĠĠĊĠĠĠĠĠĠĠĠĠĠĠĠĠĠĠĠĠĠĠĠĠĠĠĠ
im Äħ
ĠEuro opan
ĠP ad
Ġdecl ared
Ġres idential
act ors
an es
Ġout l
Ġ16 4
ĠF ar
Reg olament
ĠC ut
ĊĠĠĠĠĠĠĠĠĠĠĠĠĠĠĠĠĠĠĠĠĠĠĠĠĠĠĠĠ ĊĠĠĠĠĠĠĠĠĠĠĠĠĠĠĠĠĠĠĠĠĠĠĠĠĠĠĠ
ĠB RO
4 90
ĠW ho
ech a
Ġf un
Ġexpl an
85 8
pan ic
T OTAL
5 49
ĠBel g
Ġ15 2
Ġsp ouse
it u
ll er
Ġl pp
L i
ĠKore a
ĠCh icago
ĠF amily
s ible
ĠR ap
Ġregard less
Ġ16 2
Ġacc ident
ĊĠĠĠĠĠĠĠĠĠĠĠĠĠĠĠĠĠĠĠĠĠĠĠĠĠĠĠĠĠĠĠĠĠĠĠĠĠĠĠĠĠĠĠĠĠĠĠĠĠĠĠĠĠĠĠĠĠĠĠĠĠĠĠĠĠĠĠĠĠĠĠĠĠĠĠĠĠĠĠĠĠĠĠĠĠĠĠĠĠĠĠĠĠĠĠĠĠĠĠĠĠĠĠĠĠĠĠĠĠĠĠĠĠĠĠĠĠĠĠĠĠĠĠĠĠ Ġ
6 10
ĠĊĠĠĠĠĠĠĠĠĠĠĠĠĠĠĠĠĠĠĠĠĠĠĠĠĠĠĠĠĠĠĠĠĠĠĠĠĠĠĠĠĠĠĠĠĠĠĠĠĠĠĠĠĠĠĠĠĠĠĠĠĠĠĠĠĠĠĠĠĠĠĠĠĠĠĠĠĠĠĠĠĠĠĠĠĠĠĠĠĠĠĠĠĠĠĠĠĠĠĠĠĠĠĠĠĠĠĠĠĠĠĠĠĠĠĠĠĠĠĠĠĠĠĠĠĠĠĠĠĠĠĠĠĠĠĠĠĠĠĠĠĠĠĠĠĠ ĠĊĠ
Ġconsider ing
84 8
7 11
and en
Ġg li
Ġtr ying
lec ts
ĠNich ol
Ġy ra
ĊĠĠĠĠĠĠĠĠĠĠĠĠĠĠĠĠĠĠĠĠĠĠĠĠĠĠĠĠĠĠĠĠĠĠĠĠĠĠĠĠĠĠĠĠĠĠĠĠĠĠĠĠĠĠĠĠĠĠĠĠĠĠĠĠĠĠĠĠĠĠĠĠĠĠĠĠĠĠĠĠĠĠĠĠĠĠĠĠĠĠĠĠĠĠĠĠĠĠĠĠĠĠĠĠĠĠĠĠĠĠĠĠĠĠĠĠĠĠĠĠĠĠĠĠĠĠ Ġ
Acc ount
ĠEw rop
is et
p ers
ĠW iel
ĊĠĠĠĠĠĠĠĠĠĠĠĠĠĠĠĠĠĠĠĠĠĠĠĠĠĠĠĠĠĠĠĠĠĠĠĠĠĠĠĠĠĠĠĠĠĠĠĠĠĠĠĠĠĠĠĠĠĠĠĠĠĠĠĠĠĠĠĠĠĠĠĠĠĠĠĠĠĠĠĠĠĠĠĠĠĠĠĠĠĠĠĠĠĠĠĠĠĠĠĠĠĠĠĠĠĠĠĠĠĠĠĠĠĠĠĠĠĠĠĠĠĠĠĠĠĠĠ Ġ
Ġz ero
Ġsim ple
P at
Ġ20 6
ine z
Ġclass es
ĠÃĦ nder
b ecause
W ater
Not es
ĠE EE
Ġ16 7
ĠPerson nel
st ance
ĠK r
ĠMain tenance
Ġexec uted
Ġaffect ing
Ġcom pos
ĊĠĠĠĠĠĠĠĠĠĠĠĠĠĠĠĠĠĠĠĠĠĠĠĠĠĠĠĠĠĠĠĠĠĠĠĠĠĠĠĠĠĠĠĠĠĠĠĠĠĠĠĠĠĠĠĠĠĠĠĠĠĠĠĠĠĠĠĠĠĠĠĠĠĠĠĠĠĠĠĠĠĠĠĠĠĠĠĠĠĠĠĠĠĠĠĠĠĠĠĠĠĠĠĠĠĠĠĠĠĠĠĠĠĠĠĠĠĠĠĠĠĠĠĠĠĠĠĠ Ġ
ĠChar les
ik u
itor ing
ĠT ype
ĠAr be
Ġna ÅĻÃŃzenÃŃ
ĠAfric an
appropri ate
Ġt ut
Å¡ Äį
Ġsist em
ĠAm ount
c d
j ÄĻ
B usiness
A TIVE
Ġmax im
Ġc odes
ecu ciÃ³n
85 6
46 2
4 12
Ġab y
ĠChem ical
Ġhe avy
ator ies
" ,"
Ġplan ned
t et
Ġmar zo
tic ally
it ure
tid umping
ren ch
Ġconst rued
emb ro
Ġcom es
ĠProced ures
Ġmin ute
Ġ---------------- ------------
ĠkÃ¶n nen
ĠbÅ« ti
Ġw ww
Ġcommod ities
at ok
88 9
Ex hibit
Fr ank
Ġgre en
Ġsub missions
ĠW y
Ġra pport
E IGN
ĠB ull
k or
ov at
ins ch
89 8
ĠM ann
Ġm ort
AL S
ĠAss ets
F ax
z Åĳ
art en
ĊĉĉĉĉĉĉĉĊĉĉĉĉĉĉĉ Ċĉĉĉĉĉĉĉ
ob jection
st ock
Ä¾ a
Ġ................................................................................................................................................. .
Ġper mission
Ġ19 0
ĠRec e
S EN
c ould
ĠC Y
tig en
ĠA F
Ġsup ervis
Ġal one
Ġ19 50
n av
g rad
Ġreg ions
ĠRepublic ans
ĠDI EM
Ġem ph
Ġt ik
in qu
).................. .
199 2
tain ed
4 35
Ġinform ed
Ġg er
ĠL ight
3 86
ĠDes cription
iew icz
Ġdedic ated
u pp
SI GN
O K
work ing
Ġp on
Ġw ildlife
Ġdepart ments
Ġ20 9
( -
ÄĻ d
Ã¤l t
Ġsp ect
nÃŃ ho
it us
6 80
Ġdon nÃ©es
ar Ã¡n
S W
Ġthere by
Ġcon d
B C
** (
ĠU tah
ĠnÃ©g ociation
Ġtrib e
Ġex ternal
Â ±
Ġcontre partie
Ġstri ke
ĠE astern
comm unity
Ġdo ct
ĠAg ricultural
str Ã¶m
Ġcol or
Ġwh ite
Ãº mero
Ġris que
Ġsw ap
65 4
Ġl itigation
it te
Ġpass enger
Ġges tion
ĠSup ervisors
84 7
Ġbes lut
R Y
Ġpass age
ow ania
AM E
en i
Ġso ught
87 8
arante ed
Ġeurop ea
Ġphys ician
000 3
Ġor al
Ġp ak
PR M
ad u
Ġh y
ĠT op
K redit
OR ATION
t ail
Ġ5 06
ĠWe ek
79 6
ĠA k
) }
Ġ14 7
ber ger
Ġve ik
Ġ5 10
V EY
ellect ual
89 6
OR Y
Ġhelp ers
Ġ4 23
ann ual
Ġsuper ior
EAR ING
ĠIs rael
IS C
ĠRE QUIR
I tal
egen parte
ĠG old
w hether
Ġf igure
ĠREG UL
Ġcalcul ation
Cal ifornia
Ġsubs tituted
in ner
ĠImp act
a Ã±
pol iti
Com put
Îµ Î»
99 6
Ġintern et
i ri
vers e
mit ments
IS O
Ġtreat y
Ġg egen
Ġwell s
ent re
Ġ24 8
al o
Ġabs ol
ess Ã¤
3 73
Ġm ars
f oot
5 30
Ã¤r g
Ġ \*
d eb
Ġm em
ĠMaterial s
Î´ Î¹Î±
Ġd ru
ac a
ÃŃ r
L et
4 75
Dire c
ou ver
Ġprofessional s
Ġspe ed
Ġl iter
ĠW ood
ed iment
sh ire
3 26
isch arge
as ti
a uc
let es
ĠC BO
Ġlic ensed
Ind icate
ĠP ir
Ġmanufact ure
ĠPr ac
Ġm ais
Ġveter an
S OC
Ġbo ok
Î ĵ
Äĵ ro
Ġvol unte
ĠP osition
ÏģÎŃ ÏĢÎµÎ¹
ist ant
Ġrecip ients
Ġ.................................................................................................................................................. .
Ġ14 3
A GE
ĠH ans
Ġcler ical
ĠFish eries
Ġrem arks
are k
ĠSECUR ITY
Ġmach inery
6 25
Ġcons erv
âĢ² âĢ²
Ġposs ib
r ity
ĠR et
T er
m ens
ON D
Ġcontract ors
b ry
Ġunders igned
Ġrelati vely
am ing
pos t
Ġ205 49
ĠCO L
ĠM ap
Ġout comes
Î³ÏģÎ± ÏĨÎ¿
z ig
Ġfoc used
Ar ch
ĠB ulletin
\ .
Ġ4 16
u esta
Ġd im
Ġdiss em
ĠÄ Į
m ember
and emic
Ġnorm as
opoul ou
G I
44 1
ceed ings
Ġmark ed
rad a
86 4
Ġreg ime
H and
Ġr ental
ĠH or
ĠTrad ing
ĠD ue
ĠC our
Ġexper tise
ÅĤ o
Ġ2 25
8 40
ĠC osts
O p
Ġcoll ateral
j Å³
Ġdirek tiiv
8 75
vi Äįi
r ust
Ġprac tition
Ġterrit ory
eff ective
ĠPro c
IC S
). ,
and ise
Ġpre t
Ã¡ c
V ol
Ġmeasure ments
VEL OP
ĠD EL
Ġqual ify
over ty
Ġim ports
A verage
Ġar bit
Ġthere in
Ġpro te
Ġalleg ed
Ġh omes
omm end
ĠG U
Ġtr y
87 4
v Ãµ
E d
ot ov
iet e
ub e
ĠC AL
Ġex ists
W ar
ins on
3 23
Ġserv es
)................... .
Ġproc Ã©d
ĠG ew
os en
Ġf reedom
ci ence
---- --
R ed
Ġef ter
Ġres ident
Ġ1 73
up on
Ġpun k
ill on
Ġv u
Ġw elfare
n al
ĠR oy
ac cess
am ment
V AL
E Z
ĠO ptions
Ġreal iz
Å¡ anu
ĠOffic ial
Ġjud ges
Ġtra in
Ġdirek tiv
Ġfri ends
Ġac commod
ĠStr ateg
T ime
Ġcontr Ã´
Ġth ought
Ġdec ided
Ġ Ä«
99 8
Ġconc urrent
4 23
66 6
ĠK och
m any
U MENT
ĠĊĠĠĠĠĠĠĠĠĠĠĠĠĠĠĠĠĠĠĠĠĠĠĠĠĠĠĠĠĠĠĠĠĠĠĠĠĠĠĠĠĠĠĠĠĠĠĠĠĠĠĠĠĠĠĠĠĠĠĠĠĠĠĠĠĠĠĠĠĠĠĠĠĠĠĠĠĠĠĠĠĠĠĠĠĠĠĠĠĠĠĠĠĠĠĠĠĠĠĠĠĠĠĠĠĠĠĠĠĠĠĠĠĠĠĠĠĠĠĠĠĠĠĠĠĠĠĠĠĠĠĠĠĠĠĠĠĠĠĠĠĠĠĠĠĠĠĠĠĠĠĠĠĠĠĠĠĠĠĠĠĠĠĠĠĠĠĠĠĠ Ġ
ount ry
stru ment
io x
Ġord inary
inc orporated
n ica
46 1
Ġsign ific
war eness
Ġ3 78
ier t
Ġexceed s
ĠAd vis
ux emb
F IN
Ġdis ag
ĠR ahmen
Ġest ab
ÏĨÎ¿ ÏģÎ¬
7 90
ĠGovern or
69 5
55 6
W ASHINGTON
ĠD ATE
Ġn ur
ĠEurop a
H P
een kom
ĠIN S
Ġm itig
Ġr ace
Ġ3 88
ĠH ospital
Ġassess ed
7 18
medi ate
Ġpe ut
Ġmov ed
Ġconsequ ences
ĠRe al
Ġgen om
85 2
g io
ÅĤ a
3 79
Ġwar rants
Ġ16 9
Ġ13 7
x i
Ġ19 81
Bl ack
Ã³ k
ta a
Ġac qu
Ġm amm
ÄĻ p
op im
enn y
b les
ĠHold ings
Ġobtain ing
ARD S
ob lig
s am
at ura
Ġden ied
Acc ording
Ġcult ural
Ġcad re
Ġ19 75
Ġrelationship s
Ġk ok
ĠÄįlÃ¡n ku
kez d
Ġtar iff
GEN ERAL
Ġ................................................................................................................................................... .
69 6
ĠFer r
Â £
App lic
ivers ary
Ġdemonstr ated
ĠM innesota
FIC ATION
ĠRuss ia
C N
ĠR ub
M iss
Åĳ s
Ġcontra parte
ĠX V
Ġperform ing
Ġallow ances
Ġno vember
S ept
11 11
le et
gr und
Ġrevision s
us ing
ĠM IN
ĠÏħ ÏĢÏĮ
49 3
ill i
in clude
ur idad
t ation
Ð ´
ĠEx hibits
ink ler
Ã¡ ri
m ist
ra is
4 13
Ġb ien
v oz
T D
Eng ine
su fficient
Ġyhte is
ĠC irc
Ġcomp ati
ĠBas in
Ġ30 3
ĠZ one
Ġpack age
Ġd ien
8 20
Ġextr action
ĊĊ ĉĉ
vious ly
Ġ17 2
Ã© rÃ©
ĠP urchase
tic ide
5 70
ĠLabor atory
Ġcateg or
ĠUn i
ĠW isconsin
ĠCons elho
Ġs is
ass ung
Ġtermin ate
ning ar
Ġinc hes
IS A
Ġform ation
am ilies
ĠPro f
Ġanal ysts
ut ch
ĠEurop ese
y se
end ent
Ġ ĠĠĠĊĠĠĠĠĠĠĠĠĠĠĠĠĠĠĠĠĠĠĠĠĠĠĠĠĠĠĠĠĠĠĠĠĠĠĠĠĠĠĠĠĠĠĠĠĠĠĠĠĠĠĠĠĠĠĠĠĠĠĠĠĠĠĠĠĠĠĠĠĠĠĠĠĠĠĠĠĠĠĠĠĠĠĠĠĠĠĠĠĠĠĠĠĠĠĠĠĠĠĠĠĠĠĠĠĠĠĠĠĠĠĠĠĠĠĠĠĠĠĠĠĠĠĠĠĠĠĠĠĠĠĠĠĠĠĠĠĊĠ
ĠH IGH
Ġh yd
tic o
EN N
r us
Ġmand atory
bet ween
ied er
any ch
Ġcer tif
s ame
ĠAf ghanistan
Ġsk all
Ġsub division
).................... .
ĠComm and
iel le
cont in
ĠP rom
Ġb ridge
eb ted
ĠCons iglio
Ġsu g
Ġta ik
prot otype
Ã¥ l
oty cz
st one
ĠJ O
ĠSch midt
che ll
ĠP ur
row th
Ġex act
Ġcont empl
ĠM onday
Ġdisclos ed
esch Ã¤
Su pp
s pr
ec ki
CO ATED
F ER
Ġ16 6
Å¾ io
Ġminim ize
ive au
zz joni
Ġb all
ON S
Ġpol ÃŃ
f ourth
Ġ40 9
Ġclos ely
m p
EM BER
ub a
Ġm ise
ĠpÃ¤ Ã¤t
Ġâ ī¤
ĠAg encies
b acco
7 10
86 8
DOC S
rel ating
Ġautor idades
lich er
fall risiko
ĊĊĊĠ ĊĊ
ĠCO M
ier ungs
u ct
aut or
Ġ15 1
ĠU til
ĠL ang
u ti
ic os
Ġo ts
aska ÅĨ
Ġwe ather
Ġpropos e
T ex
Ġcandid ate
V OL
C u
ti tions
ge ant
Y ME
ay lor
Ġintegr ated
Ġcon dic
Ã©c ur
Ġrec onsider
Î¹Îº Î¿Ïį
Ġ2 37
Resp onse
Ġex posed
Ġcred its
os ing
Ġ6 06
ĠM organ
lo Å¾
Wh ile
A v
program s
TION AL
egenparte iaus
Ġdetermin ations
4 16
Ġvari able
Î¹Îº ÎŃÏĤ
ĠFund ing
sub section
Ġz o
U s
ĠCONGRES S
Ġpres ents
Sc ott
ĠVor leistungen
Ċĉĉĉĉĉĉĉĉĉ Ċĉĉĉĉĉĉĉĉĉ
0 90
Ġinform ations
egenparteiaus fallrisiko
Ġm ine
000 5
E ar
low ing
ut os
ĠBl ue
Ġv olum
he id
ĠD ocuments
Ġcommit ments
ti Ã³n
w alt
Ġpri em
79 4
ĠT im
Ġbu ilt
ĠEmploy ee
Ġsc re
d ire
f ahr
Ġdem ande
Ġar ri
Ġ14 6
ĠdÃ© nou
Ġun employment
3 76
ĠdÃ©nou Ã©es
Kredit risiko
Ġintegr ity
Ġincomple tas
Ġevalu ating
Ġpri mer
Ġbe kezd
in form
ĠU p
Ġnovem bre
Ġ.................................................................................................................................................... .
am t
urpos es
Ġprob ably
de velop
ĠVer ordening
ark in
ĠBe z
ak as
ĠL uc
ĠHaw aii
Ġcommod ity
pl ant
ĠB ush
Ġaddress ing
'' ;
ge ben
48 2
ch od
ĠDist ribution
ĠSubs idi
Ġpo or
Ġ4 10
ĠperÃŃ odo
ien ia
in os
ultaneous ly
l ou
Ġre ly
tif s
Ã¡m og
Ġreturn ed
ĠRegist ration
Ġ5 12
O ld
H igh
Ġ q
d ie
ĠL ow
Ġcom unic
m ate
Ġm itigation
ĠRem arks
Ġbl ack
REP ORT
Î½ Ïī
Ġinter view
Ġus ually
Ġt ab
7 01
74 8
ĠCla ims
Ãļ ÅĻ
Ġn Ã¤
th y
al ers
ÃŃcul os
ĠUS DA
)..................... .
eme ensch
N a
Ġob ject
Ġh ost
R ule
Ġpr icing
6 60
ks en
Ġsu itable
D F
Ã©c ution
i in
Ġh ay
Ġvonatkoz Ã³
79 3
lev ision
Q S
Ġwill ing
Ġ4 14
ist ence
Ġ15 4
5 80
Ġsub title
Ġclar ify
Ġ ?
M ich
oc he
qual ified
ĠpaÃŃs es
ĠF eder
ĠF la
ĠRa ad
Ġf elt
Ġhe art
al ing
Ġbene ficial
iss en
i ad
99 7
ĠÏħ ÏĢ
Ġdis close
r ar
Ġpay ing
Ã¶ g
atell ite
Ġqu orum
Ġcandid ates
op es
gue z
Ġ________________ ________
de velopment
am er
4 18
ĠCz arn
ste ad
Ġg etting
ĠJ eff
Ġme hr
ĠTrib e
id ay
f iscal
ĠB Ã¶
ĠEurope jsk
Ġsanc tions
F iscal
p es
4 29
Ġre z
\ \
74 7
T VN
Ġ4 18
ĠâĤ¬ /
Ġp ile
US TR
ol y
Ġh ot
Ġde ber
Ġm arg
Ġdist ingu
Ġv ide
ĠÏĥ ÏĦÎ¹ÏĤ
Ġst atistics
Ġgiv es
Ġs ac
ĠT em
TIT LE
k in
ed ge
Ġpo unds
ĠK entucky
Ġsu d
ĠZ eit
Ġ( "
r ated
ult ure
with out
ĠPerson al
ĠKomis ji
Ġk ol
Ġ5 09
Ġachie ved
ĠG ood
Ġ4 15
pport unity
ud en
ĠCom ple
ĠPro duct
SECUR ITIES
ĠPl ans
ĠM aster
7 02
G reen
ĠCh inese
3 21
ĠKomis ija
Ã¦ iske
ĠProt oc
ay er
000 4
Ġa pril
M er
85 4
55 8
Americ a
Ġde be
ĠPh arm
ĠR EM
s ources
Ġclear ing
Ã³ r
Ag reement
l Ã©
tiv os
Ġd up
Ġj og
ĠCustom s
b urs
Ġm unicipal
ĠAD DRESSES
ric a
5 90
Ġ14 8
Ġl ors
p rom
rÃŃ guez
on n
at ri
nah me
Ġexceed ing
Ġj Äģ
Ġ2 23
ra it
iv o
65 7
val id
Comput er
D i
p ress
85 7
ĊĠĠĠĠĠĠĠĠĠĠĠĠĠĠĠ ĊĠĠĠĠĠĠĠĠĠĠĠĠĠĠĠĠĠ
H G
Ġ2 14
Ġlear ning
Ġc um
08 2
ĠÎ£Ïħ Î¼Î²
Ġext rem
ĠCom ptroller
G ra
ĠZus ammen
i ÅĨ
Ġac re
Ġto ler
ĠAn ton
ĠU red
ĠEQU IP
ĠSP EC
Ġ..................................................................................................................................................... .
ĠRod rÃŃguez
IL LE
Ġmanager ial
Ġm embre
Ġ15 3
ĊĊĊĊĊĊĊĊĊĊĊĊĊĊĊĊĊĊĊĊĊĊĊĊĊĊĊĊĊĊĊĊ ĊĊĊĊĊĊĊĊĊĊĊĊĊĊĊĊĊĊĊĊĊĊĊĊĊĊĊĊĊĊĊĊ
ĠRe ference
D L
d iv
Ġnon profit
Ġtrans fers
amb i
Ġhistor ic
79 8
Ċĉĉĉĉĉĉĉĉĉĉĉĉ Ċĉĉĉĉĉĉĉĉĉĉĉĉ
Ġdirec ts
k ri
Ġse in
ĠD HS
Ġfish ery
65 1
Î¬ Î»
cont inued
Ġfu q
ĠH ud
e urs
Ġs aw
ĠK ac
mar ks
Ġess ere
ĠCzarn ecki
Ġcompar ison
W I
le tt
ed y
Ġv s
ĠSt ev
ĠB rad
oj en
R em
back ground
ad just
ÃŃt ulo
ĠÎµÏĨ Î±Ïģ
OL ID
iss ue
acc ount
ĠSu ite
h in
Ġborrow er
ĠZ im
__ _
qu ality
os i
)...................... .
Ã©cur itÃ©
Ġsusp end
Ċ ĊĠĠĠĠĠĠĠĠĠĠĠĠĠĠ
Ġmor ning
Ġpriv acy
ĠNichol son
Ġper m
Ġno tified
Ġdead line
k op
Ġbe ar
Ġexam ined
ĠBe ihil
Ġne igh
Ġmembers hip
ĠL ee
3 89
4 45
Ġmater ia
Ġdispos itions
el ve
ph y
ĠÎķÏĢÎ¹ÏĦÏģÎ¿ÏĢ Î®ÏĤ
ĠJ ahr
SO UR
ut in
Ġsoci ety
Ġfail s
Ġtr ends
b udget
anc a
ÅĨ Äĵm
8 10
E ducation
Ġ17 1
arbe it
Î¿ Ïĥ
Ġcre ation
Ġtrans form
ĠU K
9 20
Ġb us
Ġk al
Î¼Î² ÏģÎ¯Î¿Ïħ
ĠH onor
Ġsim pl
am ended
y cl
s up
Ġg est
ov al
Adv anced
ors kÃ¡
Ġex clus
Ġth erm
Ġelectric ity
Ġm ell
ĠA LL
gr at
Ġvo ice
Ġre b
be z
Ċĉĉĉĉĉĉĉĉĉĉ Ċĉĉĉĉĉĉĉĉĉĉ
ell sch
Ġprom otion
48 3
Ġu pper
En glish
Ġin clusion
u ar
ĠDemocr ats
elig ible
Ġ19 73
Ġj est
we alth
8 01
ĊĉĠĠ Ġ
ussch uss
Ġmechan ism
Ãª me
ti z
ec urity
r ang
ĠA p
g ins
( ){
Ġ3 68
Ġtermin ated
Ġre pr
ĠFr iday
lic it
ac ent
Ġsp end
ol f
' re
ĠEurÃ³p ai
M o
un ion
econom ic
iv a
A TING
ĠM id
y es
te ur
ĠBorrow er
ĠM any
p unkt
it as
ari as
ĠÎ¸ Î±
Ġassist ant
Ġju in
7 40
R S
Ġnom bre
VELOP MENT
ov skÃ½
73 1
Ġconf irmed
ĠÏĢÎ±ÏģÎ¬ Î³ÏģÎ±ÏĨÎ¿
Ġind emn
Ġconcer ne
L as
Ã© rant
ĠTer rit
Per cent
Ġl Ã¤
Ġ3 20
ĠKomis ij
ĠP ot
l j
ĠAfric a
Ġd la
or r
CO L
ĠL ib
Ġu k
3 27
Y N
ĠStev ens
ĺ Ĳ
ĠG ermany
ĠM ul
ĠÏĢ ÏģÎŃÏĢÎµÎ¹
aid s
Ġrest oration
Ġen rolled
ĠPh ase
Ġsubs titute
Ex cept
ac ion
59 5
7 75
os ystem
ĠH U
D EN
Ġdoub t
Ïĥ ÏĦÎ·
76 4
3 87
ph ia
Ġass er
ĠBri tish
ĠK uh
Ġl Ä«dz
P END
ĠQu arter
Î¹Ïĥ ÏĦ
ig i
s ti
ĠD IR
Ġperiod ic
ĠBo ok
En vironmental
Ġ...................................................................................................................................................... .
ĊĠĠĠĠĠĠĠĠĠĠĠĠĠĠĠĠĠĠĠĠĠĠĠĠĠĠĠĠĠĠĠĠĠĠĠĠĠĠĠĠĠĠĠĠĠĠĠĠĠĠĠĠĠĠĠĠĠĠĠĠĠĠĠĠĠĠĠĠĠĠĠĠĠĠĠĠĠĠĠĠĠĠĠĠĠĠĠĠĠĠĠĠĠĠĠĠĠĠĠĠĠĠĠĠĠĠĠĠĠĠĠĠĠĠĠĠĠĠĠĠĠĠĠĠĠĠĠĠĠ Ġ
b urn
Ġt ask
orm al
he lp
ĠP lease
ĠÃ ¸
ĠSol ic
um us
ĠIn nov
Ġka ip
ugh ter
99 4
EP T
vel opp
Ġdur ante
Ġw ire
Ġm Ã³d
Ġmic ro
er ate
ĠS on
ti al
55 9
Ġ ĠĠĠĊĠ
c lear
99 3
week ly
Ġir Ã¡ny
Ġreceip ts
N atural
li est
Ġmati Ã¨re
Ġo c
en h
Ġ @
ou w
ra gen
j ali
Äħ cz
Ġpe ace
Ġcoun ties
ĠS ti
Ġsee ks
resp ons
Ġread ing
Cal ificaciÃ³n
ĠAPP RO
ĠM ag
z el
ad t
Ġsusp ension
ra ud
99 1
Ġt ad
Ġfon ction
ĠST ATE
ok ed
anc er
ebted ness
lic k
ers te
yb ers
\_\_\_\_\_\_\_\_ \_\_\_\_\_\_\_\_
AT O
Ġcontinu ous
ĠAM END
Ġpor tions
d ays
ĠS outhern
Ġadv antage
Ġ ________________________________
Ã¡mog at
ĠÃ© rt
Ġcele br
pp ed
Ä¼ a
66 7
ĠKom ise
ro Å¡
)....................... .
Ġspec ify
Ġ7 50
AM S
6 01
ĠU pon
âĢĻâĢĻ ,
Â »
Ġexper ts
> </
law s
le k
Ġded uction
Ġsk lad
ĠLe ad
Ġdisclos ures
47 1
ĠMc C
ĠPRO VIS
h i
Ġs elling
Ġform ula
Ġ4 11
j ur
4 17
Ġin struction
' ,
ĠV las
Ġexperi enced
et ti
Ġpresent ation
5 14
St andard
ĠDurch fÃ¼hr
Äģ l
5 02
ĠĊĠĠĠĠĠĠĠĠĠĠĠĠĠĠĠĠĠĠĠĠĠĠĠĠĠĠĠĠĠĠĠĠĠĠĠĠĠĠĠĠĠĠĠĠĠĠĠĠĠĠĠĠĠĠĠĠĠĠĠĠĠĠĠĠĠĠĠĠĠĠĠĠĠĠĠĠĠĠĠĠĠĠĠĠĠĠĠĠĠĠĠĠĠĠĠĠĠĠĠĠĠĠĠĠĠĠĠĠĠĠĠĠĠĠĠĠĠĠĠĠĠĠĠĠĠĠĠĠĠĠĠĠĠĠĠĠĠĠĠĠĠĠĠĠĠĠĠĠĠĠĠĠĠĠĠĠĠĠĠĠĠĠĠĠĠĠĠĠĠĠ Ġ
Ã¡l tal
Ġdisc ont
ke hr
on ent
Y B
Ġa pro
H IB
Ġro ute
ĠW inkler
Ġsh ut
Ġalc ohol
iz a
Ġretain ed
ĠĊĠĠĠĠĠĠĠĠĠĠĠĠĠĠĠĠĠĠĠĠĠĠĠĠĠĠĠĠĠĠĠĠĠĠĠĠĠĠĠĠĠĠĠĠĠĠĠĠĠĠĠĠĠĠĠĠĠĠĠĠĠĠĠĠĠĠĠĠĠĠĠĠĠĠĠĠĠĠĠĠĠĠĠĠĠĠĠĠĠĠĠĠĠĠĠĠĠĠĠĠĠĠĠĠĠĠĠĠĠĠĠĠĠĠĠĠĠĠĠĠĠĠĠĠĠĠĠĠĠĠĠĠĠĠĠĠĠĠĠĠĠĠĠĠĠĠĠĠĠĠĠĠĠĠĠĠĠĠĠĠĠĠĠĠĠĠĠĠĠĠĠ Ġ
P IP
Ġdid n
Ġenroll ment
p ot
Ġpip eline
reg ist
Ġs ulf
ĠĊĠĠĠĠĠĠĠĠĠĠĠĠĠĠĠĠĠĠĠĠĠĠĠĠĠĠĠĠĠĠĠĠĠĠĠĠĠĠĠĠĠĠĠĠĠĠĠĠĠĠĠĠĠĠĠĠĠĠĠĠĠĠĠĠĠĠĠĠĠĠĠĠĠĠĠĠĠĠĠĠĠĠĠĠĠĠĠĠĠĠĠĠĠĠĠĠĠĠĠĠĠĠĠĠĠĠĠĠĠĠĠĠĠĠĠĠĠĠĠĠĠĠĠĠĠĠĠĠĠĠĠĠĠĠĠĠĠĠĠĠĠĠĠĠĠĠĠĠĠĠĠĠĠĠĠĠĠĠĠĠĠĠĠĠĠĠĠĠĠĠĠĠ Ġ
ĠW H
and on
Ġe p
ĠL ud
56 3
Ġre ik
Ġissu ing
ĠDe leg
Ġreti red
ag an
Ċ ĊĠĠĠĠĠĠĠĠĠĠĠ
p resent
Ã¡s a
ad i
Ġsugg est
ĊĠĠĠĠĠĠĠĠĠĠĠĠĠĠĠĠĠĠĠĠĠĠĠĠĠĠĠĠĠĠĠĠĠĠĠĠĠĠĠĠĠĠĠĠĠĠĠĠĠĠĠĠĠĠĠĠĠĠĠĠĠĠĠĠĠĠĠĠĠĠĠĠĠĠĠĠĠĠĠĠĠĠĠĠĠĠĠĠĠĠĠĠĠĠĠĠĠĠĠĠĠĠĠĠĠĠĠĠĠĠĠĠĠĠĠĠĠĠĠĠĠĠĠĠĠĠĠĠĠĠ Ġ
olog ic
ĠSte el
48 1
j oy
b ox
uc ks
lag en
Î¾ Î·
identi f
ĠM ost
ĠĊĠĠĠĠĠĠĠĠĠĠĠĠĠĠĠĠĠĠĠĠĠĠĠĠĠĠĠĠĠĠĠĠĠĠĠĠĠĠĠĠĠĠĠĠĠĠĠĠĠĠĠĠĠĠĠĠĠĠĠĠĠĠĠĠĠĠĠĠĠĠĠĠĠĠĠĠĠĠĠĠĠĠĠĠĠĠĠĠĠĠĠĠĠĠĠĠĠĠĠĠĠĠĠĠĠĠĠĠĠĠĠĠĠĠĠĠĠĠĠĠĠĠĠĠĠĠĠĠĠĠĠĠĠĠĠĠĠĠĠĠĠĠĠĠĠĠĠĠĠĠĠĠĠĠĠĠĠĠĠĠĠĠĠĠĠĠĠĠĠĠĠĠĠ Ġ
ac i
ĊĠĠĠĠĠĠĠĠĠĠĠĠĠĠĠĠĠĠĠĠĠĠĠĠĠĠĠĠĠĠĠĠĠĠĠĠĠĠĠĠĠĠĠĠĠĠĠĠĠĠĠĠĠĠĠĠĠĠĠĠĠĠĠĠĠĠĠĠĠĠĠĠĠĠĠĠĠĠĠĠĠĠĠĠĠĠĠĠĠĠĠĠĠĠĠĠĠĠĠĠĠĠĠĠĠĠĠĠĠĠĠĠĠĠĠĠĠĠĠĠĠĠĠĠĠĠĠĠĠĠĠ Ġ
ĠS ite
65 3
i ors
Ġcre ating
O s
9 60
ĠSe a
resent atives
Ind ex
Ġc ru
ur ning
ĠUn ternehmen
ĠJ uni
8 80
P lan
Ġn ight
In come
Techn ical
Ġbl ood
Ġw orth
ĠCh amber
ent ed
ĠF ree
in ity
Ïĩ ÎµÎ¯
Ġ18 2
49 2
Ġfre ight
Ġamortiz ation
Y L
Ġqu ad
Ġp el
ĠA er
ĠBuch st
[ ...]
ric es
76 7
Ġdem Ã¡s
cri pt
Ġ2 26
ow y
mit ting
Ġop ening
4 22
Ġestabl ishes
Ġtest ed
ĊĊ ĊĠĠĠĠ
Ex t
Ġv yk
Ġharm on
Ġaff irm
Ġvalst yb
Ã¤r jest
Ġ2 16
ÏĨ Î±
ĠR SE
ĠSpe zial
Ġs or
T el
ol ving
Ġ4 17
AN E
Ïĥ Î±
ĠnÃ© cess
ĠÏĥÏĩÎµ ÏĦÎ¹ÎºÎ¬
Ġsuperv ision
ĠOk lahoma
ĠL oss
d ocument
Ġdescrib es
ĠC av
Ġb inding
A CH
0 75
En tre
ĠB art
od er
Ġdis cipl
ĠRuss ian
ÏĦÎ¹Îº ÏİÎ½
Ġserv icios
Ġb orn
Ġrem ember
âĢ ł
ĠDem ocratic
C are
5 15
Ġw he
Ġag rees
ĠÏĢÎµ ÏģÎ¯
Ċĉ Ċĉ
las ti
Ġ....................................................................................................................................................... .
Ġdecl ar
Ġrequest ing
Ġch air
Ġtip o
ĠTh ose
5 25
Ġin tention
ĠW ALL
R etail
e h
AG EMENT
Ġi hr
og a
ĠÏĢ ÏģÏĮ
ĠM Ã©
li ers
Ġf alse
Ġs pp
orpor ates
Ġ2 18
ĠC orn
ĠT own
L P
Will iam
op tion
Ġin fer
Ġcho ose
re quired
Ġprot ec
M AY
F ARE
rib utions
cap e
ĠEn tw
&& (
Ġ17 6
Ã§ o
L INE
Ġp anta
Ġindirect ly
Te achers
4 36
74 2
V ir
l ab
0 33
79 7
ite v
Ġo x
ky t
ortg ages
Ġoff ers
ĠÎ¬ ÏģÎ¸ÏģÎ¿
ĠM echan
ĠC T
Member us
Or gan
ĠProced ure
appro ved
ĠA reas
ĠAv ailable
Ġop tim
ĠM ess
Ġdistrib utions
ET Y
ĠT RE
Ġst k
ss on
)........................ .
ĠE lig
b ility
ign ment
S w
6 90
Ġ2 36
Ġespec ÃŃfic
Ġiden tity
Ġ2 90
85 3
Ġwitness es
Ġgr an
der ness
d ules
ĠTH IS
Regist rant
o on
ĠWith in
ĠprocÃ©d ure
ÏĦÎ¹Îº Î®
74 1
ĊĠĠĠĠĠĠĠĠĠĠĠĠĠĠĠĠĠĠĠĠĠĠĠĠĠĠĠĠĠĠĠĠĠĠĠĠĠĠĠĠĠĠĠĠĠĠĠĠĠĠĠĠĠĠĠĠĠĠĠĠĠĠĠĠĠĠĠĠĠĠĠĠĠĠĠĠĠĠĠĠĠĠĠĠĠĠĠĠĠĠĠĠĠĠĠĠĠĠĠĠĠĠĠĠĠĠĠĠĠĠĠĠĠĠĠĠĠĠĠĠĠĠĠĠĠĠĠĠĠĠĠĠ Ġ
s he
j Ã¡r
ati vo
ĠV iet
ĠGr und
ruct uring
Ġorgan ic
il ot
ni ec
ir j
Ġar reg
Ġappro aches
ĠEmploy er
Ġw ild
05 2
m at
Ġall ot
Ã¤ v
ĠPre ferred
reff ende
Ġop at
Ġd otycz
Ġalkal maz
o ÅĽci
Ġay uda
Äģ jum
am eter
ant ly
Ġass ure
ordin ary
ab ella
Ġentre prises
Ġpos ts
Ġbo oks
Ġf eb
49 1
Ã©t Ã©
ON G
ĠRe vision
Ġob st
Ġ76 34
EN G
g aben
ĠSci entific
Â «
Ġ6 09
Ġiniti ative
ĠR ob
Ġsu ms
C M
Ex change
Ġorgan ized
66 9
EW G
Ġbal ances
i mento
Ġver b
S um
Ġoff ense
05 9
Ġair port
ĠFac ilities
ili ation
ĊĠĠĠĠĠĠĠĠĠĠĠĠĠĠĠĠĠĠĠĠ ĊĠĠĠĠĠĠĠĠĠĠĠĠĠĠĠĠ
P ART
ĠV ic
Ġvol ati
f ect
Ġob s
int ing
RO DS
ĠD am
Ġsh ared
ter ing
Ġ2 22
IN TER
Ġaccompl ish
ĠK elly
ur as
ĠL ender
C an
ĠMay er
N one
IN C
Ġpremium s
pec tive
Ġre in
Ġdivid end
Ġref lected
oul is
Ġobserv ations
Ġpr ison
Ġarreg lo
Ġmat urity
ĠG ene
69 4
ĊĠĠĠĠĠĠĠĠĠĠĠĠĠĠĠĠĠĠĠĠĠĠĠĠĠĠĠĠĠĠĠĠĠĠĠĠĠĠĠĠĠĠĠĠĠĠĠĠĠĠĠĠĠĠĠĠĠĠĠĠĠĠĠĠĠĠĠĠĠĠĠĠĠĠĠĠĠĠĠĠĠĠĠĠĠĠĠĠĠĠĠĠĠĠĠĠĠĠĠĠĠĠĠĠĠĠĠĠĠĠĠĠĠĠĠĠĠĠĠĠĠĠĠĠĠĠĠĠĠĠĠĠĠ Ġ
w eb
Ċ ĊĠĠĠĠĠ
6 11
m and
PD F
Ġsubsection s
ĠP ip
Ġespecial izada
c ation
Sec urity
fl icht
cri p
Ġapp li
ĠT wo
Ġgreat est
ian o
Ġpod por
ĊĠĠĠĠĠĠĠĠĠĠĠĠĠĠĠĠĠĠĠĠĠĠĠĠĠĠĠĠĠĠĠĠĠĠĠĠĠĠĠĠĠĠĠĠĠĠĠĠĠĠĠĠĠĠĠĠĠĠĠĠĠĠĠĠĠĠĠĠĠĠĠĠĠĠĠĠĠĠĠĠĠĠĠĠĠĠĠĠĠĠĠĠĠĠĠĠĠĠĠĠĠĠĠĠĠĠĠĠĠĠĠĠĠĠĠĠĠĠĠĠĠĠĠĠĠĠĠĠĠĠĠĠĠĠ Ġ
r ale
Ag ency
O IL
Fore ign
askaÅĨ Äģ
em er
ĠS ud
Ġsever e
89 4
Ġsup ra
Ġpre st
73 2
Ġnari aden
rit ers
P UBLIC
Ġrefer ences
88 3
ĠĊĠĠĠĠĠĠĠĠĠĠĠĠĠĠĠĠĠĠĠĠĠĠĠĠĠĠĠĠĠĠĠĠĠĠĠĠĠĠĠĠĠĠĠĠĠĠĠĠĠĠĠĠĠĠĠĠĠĠĠĠĠĠĠĠĠĠĠĠĠĠĠĠĠĠĠĠĠĠĠĠĠĠĠĠĠĠĠĠĠĠĠĠĠĠĠĠĠĠĠĠĠĠĠĠĠĠĠĠĠĠĠĠĠĠĠĠĠĠĠĠĠĠĠĠĠĠĠĠĠĠĠĠĠĠĠĠĠĠĠĠĠĠĠĠĠĠĠĠĠĠĠĠĠĠĠĠĠĠĠĠĠĠĠĠĠĠĠĠĠĠĠĠĠĠ Ġ
ĠC ab
IS S
Ġind ivid
Ġdef endant
Ġps ych
ĠInc entive
Ġutil is
Ġ........................................................................................................................................................ .
pp ing
Ġk Ãµ
j el
ĠEnd ed
j t
Ġg all
ĠBesch luss
Ã¡ ban
r n
Ch ief
77 1
Ġgen ann
ĠP urch
Ġb it
Ã© nek
Ġt ule
h ab
ia z
ĠDefin itions
Ġaccess ible
Ġh od
ĠE FF
bes ondere
Ġsp ole
Ä« ba
Î Ľ
ĠPan el
Ġb iz
Ġ9 00
Ġresid ence
Ġa ko
D ay
m ax
le ad
ĠF ord
66 4
H Y
Ġ2 13
Ġb io
Ġpoll ution
Ġla i
an ch
h ydro
Ġcaus es
z w
Indust rial
Ġthous and
ric ts
m ajor
Ġ2 19
ĠJ ordan
adel phia
Pro perty
Ġp Ã©ri
Reg ulatory
av en
Ġz ap
Ã© ly
Ġparag rafo
Ġto bacco
Î¹Î± Îº
M ED
Ġwur den
ow ego
Ġtrans it
Ġp ages
ĠS ar
ib il
ĠAgu ilar
re quirements
est o
ĠNew s
por ary
Ġ3 51
Ġhigh way
ĠDise ase
ĠG a
Ġp elo
ĠT or
ĠÅ ĵ
Äįi Å³
ur ric
76 2
Ġpar k
Ġsolic it
Ġc ab
Ġnurs ing
Ġreg ister
Ġ2 29
En tered
d d
bo ok
59 4
Ġprof its
)......................... .
ĠAcad emy
Ġsuccess fully
Ġuved en
89 7
ĠR is
Ġ2 34
f ederal
ĠN ASA
TI ES
ĠU kraine
pl ed
ap ol
ĠBe hÃ¶r
Ġil legal
Ġex ig
ĠSpezial finanz
ĠMic hel
ati es
ter min
Ġir on
Ġciti zen
F ile
Ã¦ g
S he
Ġsay ing
URR ENT
ĠRu iz
ab a
Ġm obile
ĠRe tirement
Ġw on
Ġexist ence
79 2
Ġdist intas
Î¿Î½ Î¿Î¼
Ã¤n g
iam i
ab et
fici ency
Ġjun io
tt es
ĠG Ã¡l
Ġs lu
Ġannoun ce
â Ī
Ġcoordin ate
05 5
Ġhand ling
ut enant
86 3
UB ES
Ã¤ Ã¤t
Ġproduc er
Ġmechan ics
Ïİ ÏĤ
enn is
4 85
p encer
65 2
Ġst ocks
Ġext ensive
ĠJ im
5 13
ICK EL
ĠF EDERAL
ÏģÎ¯ Î¶
re y
pres a
Ġexpand ed
H AN
Ġw ife
ĠN ru
Ġtal king
ew er
p el
igne e
Ġnational e
Ġref lects
75 2
Ġpoll ut
r ates
Ġstraips nio
ac ÃŃ
Ġs ir
ĠÃ© conom
ĠLe h
EC U
at ado
st ed
ass en
act ory
m ond
e i
iz ont
Ġmiemb ro
4 19
ĠSUR VEY
ĠF ig
Ġassign ment
Î´ Î±
uv oston
ĠÅ¼ e
l ink
us o
ass er
Î¹Îº Î¬
ĠK ont
h aps
Ġf ib
Ġ30 5
56 7
Ġ[ ...]
Ġph one
ĠÎµÏĢ Î¯
4 84
ĠX III
ĠD od
87 3
unic ation
Ġpre amble
IN ES
ĉĠĠ Ġ
hem atical
Ġ19 5
Ġ Ã¡ltal
id ge
ĠF igure
Ġcons titutional
6 70
s pe
Å¡ u
qu ence
5 11
anu ar
Ġutil ities
ĠT ab
ut ation
ot he
Ġt ank
ĠW omen
ati v
j us
Ġto dos
K R
m ust
Ġwh olesale
Ġ4 22
Ġ2 60
iscuss ion
Ġd ial
ate ik
uv re
6 49
ĠÎºÎ±Î½Î¿Î½Î¹Ïĥ Î¼Î¿Ïį
Ġc ada
R a
Ġj uli
ĠkÃ¤ s
Ġdise ases
Not withstanding
ĠD rive
Ġsz Ã³l
ĠV ers
Ġec on
Ġnom inations
w y
Ġv ill
6 24
Ġk op
Ġ......................................................................................................................................................... .
t ures
86 2
Ġal ap
ĠÎ ¶
cl ause
Ins ert
v Ã¡
Ã³s Ã¡g
ĠMill er
ĠG RO
0 35
8 60
Ġint Ã©
John son
ĠAltern ative
ĠG RA
T P
Ġro y
00 94
Ġmed ium
par ticip
Ġcap able
Ġg ather
ĠA z
74 3
ĠM aine
ecu tives
ĠL yn
Ġref und
Ġsum mer
H Q
Äħc ych
Ġk at
ard i
Ġc iv
Ġdat abase
t g
ĠJos eph
ĠW ritten
Î Ĩ
Ġuncertain ty
Î½ Î±
Î· Î¼Î¿
Ġinc ons
Ġfurn ish
).......................... .
v ia
Ġb estimm
IT EM
Ġquick ly
ĠS elf
Ġb ottom
Ġdiscri mination
M y
re ib
Ġquan tit
ab ri
Ġmanufact ured
ĠX II
Ġkas ut
Ġwr ong
Ġ ^
ĠM ountain
ĠK ir
Ġst ress
ĠM ED
Ġorgan is
ÏģÎ¿ ÏĢÎ¿
ĠTh rough
ĠH EARING
IS E
Å¼ i
I r
end i
al ed
Ġsuc ceed
ade qu
Ġinst ance
ĠPos itions
Ġf ax
Ġ ĠĠĊ
ard en
st Ã¤
Ġb ere
Ġparti ally
Ġe g
) âĢĵ
Ġr ich
k ont
Ġpp m
Ġc argo
F e
ĠMan agers
Ġ2 35
Ġany thing
Ġju illet
ĠSTAT EMENTS
ĠResp ons
Ġst ability
Ġb ra
EN TI
Ġinc orporation
ys z
ons ored
ol ic
cheid ung
SS pencer
lig a
oc us
Sup ervisors
Ġspraw ie
Ġscre ening
ÃŁ e
ie go
ĠSec retaries
Ġref uge
Ġ3 72
ĠZ d
Ġje j
ĠszÃ³l Ã³
Ä¼ u
Ġ2 17
gif ter
ĠMin ister
vo ir
Ġcontract ual
ĠEx port
M al
ĠF aj
ĠSt art
ien cies
ar rollo
Ġdro it
ĠT ob
Ġ2 28
ĠL AND
Ġinterpret ation
8 30
GR IC
ĠC AS
ĠspÃ©cial isÃ©
Ġre ci
se y
[ .
ĠD OT
ĠMar ines
Ġ4 35
Ġsens itive
riter ia
55 2
fort un
Ġrecre ational
qu in
Ġ19 72
06 9
Ġv ital
Ġ4 24
Ġk ons
ĠCon g
Ġnot amment
ĠDe utsch
Ġ3 18
Ġ4 19
ĠStat us
Ġ3 37
ĠR og
I K
4 26
ĠA re
Ġw enn
59 7
ET T
Ġexpl ained
ĠF lex
75 1
Ġ2 80
Ġnew s
tic ular
% .
ĠM au
Ġt ir
Ġl ok
plan es
un er
res ult
66 8
a verage
PT VN
pro duct
in ers
ÎŃ Ïģ
Ġqu anti
ĠB EN
ĠDE VELOPMENT
ĠH arbor
ĠIndust ries
ĠB ec
mosph eric
99 2
199 1
ĠM ittel
Expos iciones
Ã¡n ak
87 1
Ġval u
Ġcompet ent
Ġan ge
Ã¨g lement
CR IP
Ġg od
Ġcho ice
Med ic
ĠEurop Ã¦iske
Ġlook ing
69 8
Ġtra ditional
f el
in io
ĠH AR
Ġad vertising
d ig
Ġ2 24
Ġpiec e
is z
Ġ.......................................................................................................................................................... .
ÏĬ ÏĮÎ½
59 6
v ote
ĠC ro
Ã½ mi
sen val
Ġspecific ations
i ar
ch ar
Ġreceiv able
Ġ `
iss ance
Ġ5 16
com b
ait ers
TI CE
ro duction
Ġinvol ves
Ġv Ã©g
Ġinst ances
ke iten
Ġs v
Ġcolum n
Ġs Ã©curitÃ©
cul ar
ec i
ĠL ast
Ġexce ptions
R o
ĠprÃ©s ente
ek e
Ġt Ã¡mogat
Ġint erstate
ID S
Ġhelp ed
66 2
ym o
87 2
C rÃ©d
Ġg ave
ĠD OD
9 40
ĠB os
ĠP et
Ġ4 30
r uction
Ġcont amin
UN IC
Ġemerg ing
)........................... .
ĠĊĠĠĠĠĠĠĠĠĠĠĠĠĠĠĠĠĠĠĠĠĠĠĠĠĠĠĠĠĠĠĠĠĠĠĠĠĠĠĠĠĠĠĠĠĠĠĠĠĠĠĠĠĠĠĠĠĠĠĠĠĠĠĠĠĠĠĠĠĠĠĠĠĠĠĠĠĠĠĠĠĠĠĠĠĠĠĠĠĠĠĠĠĠĠĠĠĠĠĠĠĠĠĠĠĠĠĠĠĠĠĠĠĠĠĠĠĠĠĠĠĠĠĠĠĠĠĠĠĠĠĠĠĠĠĠĠĠĠĠĠĠĠĠĠĠĠĠĠĠĠĠĠĠĠĠĠĠĠĠĠĠĠĠĠĠĠĠĠĠĠĠĠĠĠĠ Ġ
ĠRec overy
T exas
ys elf
Ġjanv ier
ĊĠĠĠĠĠĠĠĠĠĠĠĠĠĠĠĠĠĠĠĠ ĊĠĠĠĠĠĠĠĠĠĠĠĠĠĠĠĠĠĠĠĠ
Ġbas eline
ĠT ary
ĉĉĉĉĉĉĉĉĉĉĉĉĉĉĉĉ ĉĉĉĉĉĉĉĉĉĉĉĉĉĉĉĉ
in ated
ĠĊĠĠĠĠĠĠĠĠĠĠĠĠĠĠĠĠĠĠĠĠĠĠĠĠĠĠĠĠĠĠĠĠĠĠĠĠĠĠĠĠĠĠĠĠĠĠĠĠĠĠĠĠĠĠĠĠĠĠĠĠĠĠĠĠĠĠĠĠĠĠĠĠĠĠĠĠĠĠĠĠĠĠĠĠĠĠĠĠĠĠĠĠĠĠĠĠĠĠĠĠĠĠĠĠĠĠĠĠĠĠĠĠĠĠĠĠĠĠĠĠĠĠĠĠĠĠĠĠĠĠĠĠĠĠĠĠĠĠĠĠĠĠĠĠĠĠĠĠĠĠĠĠĠĠĠĠĠĠĠĠĠĠĠĠĠĠĠĠĠĠĠĠĠĠĠĠ Ġ
ĠÏĩ ÏģÎ·
u vent
compl iance
Ġun necessary
Ġ2 33
I OR
st Ã¤ll
o tive
Ġmerch andise
me et
ĠĊĠĠĠĠĠĠĠĠĠĠĠĠĠĠĠĠĠĠĠĠĠĠĠĠĠĠĠĠĠĠĠĠĠĠĠĠĠĠĠĠĠĠĠĠĠĠĠĠĠĠĠĠĠĠĠĠĠĠĠĠĠĠĠĠĠĠĠĠĠĠĠĠĠĠĠĠĠĠĠĠĠĠĠĠĠĠĠĠĠĠĠĠĠĠĠĠĠĠĠĠĠĠĠĠĠĠĠĠĠĠĠĠĠĠĠĠĠĠĠĠĠĠĠĠĠĠĠĠĠĠĠĠĠĠĠĠĠĠĠĠĠĠĠĠĠĠĠĠĠĠĠĠĠĠĠĠĠĠĠĠĠĠĠĠĠĠĠĠĠĠĠĠĠĠĠĠĠ Ġ
ĠP ersons
Che ck
4 32
Ġf oster
ĠS lov
ĠA sh
Ġex clusion
Ġc atch
ĠD EC
med ia
ĠĊĠĠĠĠĠĠĠĠĠĠĠĠĠĠĠĠĠĠĠĠĠĠĠĠĠĠĠĠĠĠĠĠĠĠĠĠĠĠĠĠĠĠĠĠĠĠĠĠĠĠĠĠĠĠĠĠĠĠĠĠĠĠĠĠĠĠĠĠĠĠĠĠĠĠĠĠĠĠĠĠĠĠĠĠĠĠĠĠĠĠĠĠĠĠĠĠĠĠĠĠĠĠĠĠĠĠĠĠĠĠĠĠĠĠĠĠĠĠĠĠĠĠĠĠĠĠĠĠĠĠĠĠĠĠĠĠĠĠĠĠĠĠĠĠĠĠĠĠĠĠĠĠĠĠĠĠĠĠĠĠĠĠĠĠĠĠĠĠĠĠĠĠĠĠĠĠĠĠ Ġ
h ol
Ġp andemic
Ġ2 32
Ġappreci ate
ĠM IL
ĠW er
ĊĠĠĠĠĠĠĠĠĠĠĠĠĠĠĠĠĠĠ Ċĉ
k r
ĠĊĠĠĠĠĠĠĠĠĠĠĠĠĠĠĠĠĠĠĠĠĠĠĠĠĠĠĠĠĠĠĠĠĠĠĠĠĠĠĠĠĠĠĠĠĠĠĠĠĠĠĠĠĠĠĠĠĠĠĠĠĠĠĠĠĠĠĠĠĠĠĠĠĠĠĠĠĠĠĠĠĠĠĠĠĠĠĠĠĠĠĠĠĠĠĠĠĠĠĠĠĠĠĠĠĠĠĠĠĠĠĠĠĠĠĠĠĠĠĠĠĠĠĠĠĠĠĠĠĠĠĠĠĠĠĠĠĠĠĠĠĠĠĠĠĠĠĠĠĠĠĠĠĠĠĠĠĠĠĠĠĠĠĠĠĠĠĠĠĠĠĠĠĠĠĠĠĠĠĠ Ġ
Ġhat Ã¡roz
Ġpartnership s
Ġno tif
ĠGu arant
ĠImplement ation
ey er
Ġ5 15
c arb
Ġph ot
ĠPar ties
ĠM u
88 2
ĠWiel and
7 24
ĠĊĠĠĠĠĠĠĠĠĠĠĠĠĠĠĠĠĠĠĠĠĠĠĠĠĠĠĠĠĠĠĠĠĠĠĠĠĠĠĠĠĠĠĠĠĠĠĠĠĠĠĠĠĠĠĠĠĠĠĠĠĠĠĠĠĠĠĠĠĠĠĠĠĠĠĠĠĠĠĠĠĠĠĠĠĠĠĠĠĠĠĠĠĠĠĠĠĠĠĠĠĠĠĠĠĠĠĠĠĠĠĠĠĠĠĠĠĠĠĠĠĠĠĠĠĠĠĠĠĠĠĠĠĠĠĠĠĠĠĠĠĠĠĠĠĠĠĠĠĠĠĠĠĠĠĠĠĠĠĠĠĠĠĠĠĠĠĠĠĠĠĠĠĠĠĠĠĠĠĠĠ Ġ
ĠĊĠĠĠĠĠĠĠĠĠĠĠĠĠĠĠĠĠĠĠĠĠĠĠĠĠĠĠĠĠĠĠĠĠĠĠĠĠĠĠĠĠĠĠĠĠĠĠĠĠĠĠĠĠĠĠĠĠĠĠĠĠĠĠĠĠĠĠĠĠĠĠĠĠĠĠĠĠĠĠĠĠĠĠĠĠĠĠĠĠĠĠĠĠĠĠĠĠĠĠĠĠĠĠĠĠĠĠĠĠĠĠĠĠĠĠĠĠĠĠĠĠĠĠĠĠĠĠĠĠĠĠĠĠĠĠĠĠĠĠĠĠĠĠĠĠĠĠĠĠĠĠĠĠĠĠĠĠĠĠĠĠĠĠĠĠĠĠĠĠĠĠĠĠĠĠĠĠĠĠĠĠ Ġ
P res
Ġro ads
t Ã¶
S il
ĠL ine
Ġ19 33
Ġcut s
ond on
ĠR A
ĠĊĠĠĠĠĠĠĠĠĠĠĠĠĠĠĠĠĠĠĠĠĠĠĠĠĠĠĠĠĠĠĠĠĠĠĠĠĠĠĠĠĠĠĠĠĠĠĠĠĠĠĠĠĠĠĠĠĠĠĠĠĠĠĠĠĠĠĠĠĠĠĠĠĠĠĠĠĠĠĠĠĠĠĠĠĠĠĠĠĠĠĠĠĠĠĠĠĠĠĠĠĠĠĠĠĠĠĠĠĠĠĠĠĠĠĠĠĠĠĠĠĠĠĠĠĠĠĠĠĠĠĠĠĠĠĠĠĠĠĠĠĠĠĠĠĠĠĠĠĠĠĠĠĠĠĠĠĠĠĠĠĠĠĠĠĠĠĠĠĠĠĠĠĠĠĠĠĠĠĠĠĠĠ Ġ
Ġhand lers
call ed
ĠCer tification
ĠW ASHINGTON
Ġcon ced
Ġs Ã¥
ĠExp enses
Ġchall enge
ÏĦÎ¹Îº ÏĮ
ĠĊĠĠĠĠĠĠĠĠĠĠĠĠĠĠĠĠĠĠĠĠĠĠĠĠĠĠĠĠĠĠĠĠĠĠĠĠĠĠĠĠĠĠĠĠĠĠĠĠĠĠĠĠĠĠĠĠĠĠĠĠĠĠĠĠĠĠĠĠĠĠĠĠĠĠĠĠĠĠĠĠĠĠĠĠĠĠĠĠĠĠĠĠĠĠĠĠĠĠĠĠĠĠĠĠĠĠĠĠĠĠĠĠĠĠĠĠĠĠĠĠĠĠĠĠĠĠĠĠĠĠĠĠĠĠĠĠĠĠĠĠĠĠĠĠĠĠĠĠĠĠĠĠĠĠĠĠĠĠĠĠĠĠĠĠĠĠĠĠĠĠĠĠĠĠĠĠĠĠĠĠĠĠĠ Ġ
Ġinnov ation
Ġan vend
Ġint end
m l
Ġp Ãµ
Ġand eren
Ġn in
b oth
Ġstake holders
Ġch anging
Ã¡ll ap
Ġ ries
ap or
OR TH
ĠdÃ© velopp
p ing
N ER
ĠS D
f ight
Ġtag Ä§
ĠĊĠĠĠĠĠĠĠĠĠĠĠĠĠĠĠĠĠĠĠĠĠĠĠĠĠĠĠĠĠĠĠĠĠĠĠĠĠĠĠĠĠĠĠĠĠĠĠĠĠĠĠĠĠĠĠĠĠĠĠĠĠĠĠĠĠĠĠĠĠĠĠĠĠĠĠĠĠĠĠĠĠĠĠĠĠĠĠĠĠĠĠĠĠĠĠĠĠĠĠĠĠĠĠĠĠĠĠĠĠĠĠĠĠĠĠĠĠĠĠĠĠĠĠĠĠĠĠĠĠĠĠĠĠĠĠĠĠĠĠĠĠĠĠĠĠĠĠĠĠĠĠĠĠĠĠĠĠĠĠĠĠĠĠĠĠĠĠĠĠĠĠĠĠĠĠĠĠĠĠĠĠĠĠĠ Ġ
Ġinstall ed
Ġcommun aut
Ġcoast al
ĠEr zeug
AB ILITY
ĠĊĠĠĠĠĠĠĠĠĠĠĠĠĠĠĠĠĠĠĠĠĠĠĠĠĠĠĠĠĠĠĠĠĠĠĠĠĠĠĠĠĠĠĠĠĠĠĠĠĠĠĠĠĠĠĠĠĠĠĠĠĠĠĠĠĠĠĠĠĠĠĠĠĠĠĠĠĠĠĠĠĠĠĠĠĠĠĠĠĠĠĠĠĠĠĠĠĠĠĠĠĠĠĠĠĠĠĠĠĠĠĠĠĠĠĠĠĠĠĠĠĠĠĠĠĠĠĠĠĠĠĠĠĠĠĠĠĠĠĠĠĠĠĠĠĠĠĠĠĠĠĠĠĠĠĠĠĠĠĠĠĠĠĠĠĠĠĠĠĠĠĠĠĠĠĠĠĠĠĠĠĠĠĠĠĠ Ġ
Ġp Ãºblic
Ġest a
ĠDan iel
ient os
Ġk ept
ier en
Ġreg lament
ot as
b lik
Ġstatis tical
ĠDetermin ation
ĠE MP
is p
In form
Ġgu aranteed
GRIC ULT
quire ment
86 1
azz jonijiet
Ġtw enty
Ã¼ ber
Ġeng ines
Ġocc urring
Sec ond
ĠB a
ĠD id
Ch ild
ĠA utom
Ġinf lation
sub ject
SIGN AT
Ġ5 13
f ere
int on
5 75
ĠL y
com ing
ĠEQUIP MENT
56 8
. ./
Entre prises
ent ures
F und
pl ain
ĠG E
E nergy
Ġcertain ly
PIP ES
Ġstrength en
Ġdec ades
Ġ30 4
Ġout put
lu Å¡
ef e
N ow
ĠSchw ab
Ġ2 85
Ġ18 4
ĠSoci ety
pl ane
Ġsitu ations
um ption
Ġgr und
v aj
in ci
m ers
ĠFrancis co
Ġsim ultaneously
Ġfin anÄį
ĠG ill
he im
rel se
cre te
7 70
m ilitary
ĠC at
A ust
F P
ÅĤ Äħcz
ĠL EE
ĠS I
ug os
Ġcondic iones
ĠC y
Ġ3 25
pos ta
enci as
Ãĵ N
ats on
Ġc ul
Ġex ports
4 33
uss en
Ġmedlems stater
nut ÃŃ
Ġproced imiento
B oard
ras ka
D W
r ence
Ġ6 05
Ġes p
j ek
ank ing
ort heast
z ar
Ġprotect ing
89 1
0 34
p ursuant
Ġim migration
ĠJ ean
Ġk ul
Ġc s
Ġ19 3
Ġre dem
Ġ........................................................................................................................................................... .
ing ly
VI EW
m el
ĠT ox
K Y
Ġprob ability
pro ject
Ġag ric
Ġ Ã¡
AN TS
06 7
ex per
ĠJ uli
Ġderiv ative
ĠGr and
ĊĊ ĉĉĉ
Ġincenti ves
tra gs
Ġcl ients
ĠGro und
Ġtim ing
ĠdÃ© p
Ġpre fer
Ġfund amental
Ġ40 3
Ġp ateik
Ġlic enses
Ġtra b
Ġstrong ly
ia u
Ġqual ifying
Ġmedi ante
Ġg el
ĠÃ ģ
ĠCons ider
ĠX I
n ied
)............................ .
Ġcomp r
ah ler
. (
n r
ig hed
ia is
88 1
e ign
h ode
rol le
In vest
T a
ĠC ross
ÏĨÎ¿ Ïģ
ĠS icher
Ġad ult
Ġ3 12
pro ced
76 1
Ġpa ÅĦst
ĠspÃ© ci
ĠK or
n ull
Ġrepl aced
i Ã¨re
of t
ĠDep osit
ac tivities
ĠCast ro
78 1
8 90
Ġcompl ain
ien e
ĠU SC
an an
Serv ices
US A
Ġins besondere
ĠEng land
78 3
Ġent ering
um ed
OR ING
U CT
on ents
ON E
ah n
Ġdef ine
n ego
employ ed
iÄħ z
Ġna ud
Ġs tim
Ġs eptember
Ġaud its
T ax
Ġnavig ation
4 86
Ġz n
ag ainst
( $
ad ian
ĠH OL
f ar
sh ips
ĠH istory
Å¡an ai
ĠÎº ÏģÎ¬
ri an
Ġz ones
ĊĊ Ċĉ
Ġval am
Ġpurch ases
Ġj iÄ¡
ÅĻ enÃŃ
Ġwa ar
N R
Ġc os
ti en
55 7
Ġcom position
ep a
Ġ19 68
Ã¡l is
Ġmu ut
Î» Î®
in iti
Ġaffili ates
Ġbu y
Ġfe el
Ġcomp let
ĠTr atado
Ġl if
Ġkom missionen
ĠM ail
Ġav anz
Ġl ibrary
ĠO wn
Ġresol utions
lieÃŁ lich
un ta
ĠGe ological
ĠM otor
* ,
Ġn ations
pro posed
Ġgener ate
ĠCon necticut
Ġterror ist
an ne
ĠKop ien
Ã ²
Ġtit re
Expos ures
ĠGu er
io u
employ ee
ĠR ies
Ġs ectors
Ġcont ro
59 8
T s
Ġf ait
ex isting
Ġstart ed
ĠId aho
ĠH am
ĠD ÃŃ
Ġ2 21
f unds
Ġdecl aration
Ġbeg ins
Ġc ells
Ġ3 40
56 2
Ä«b val
Ġle urs
ĠF uel
Ġatt emp
Ġok tober
ĠSection s
Ġprotection s
mes ri
Ġautor itÃ©s
Expos itions
Ġa th
Ġdec embra
r ub
Ġ17 7
Ġequival ents
ĊĠĠĠĠĠĠĠĠ ĊĊĠĠĠĠĠĠĠĠ
Ġconsist ing
Ġc i
ĠR yan
Ris ikopositionen
R oz
ĠP oss
f ri
ES E
g ency
Ġdet ection
Ġek onom
4 77
C J
ĠMay or
IC T
200 00
ĠSub ject
a ide
Ġcon grat
an st
Ġexce p
man ufact
Ġ3 27
ain en
0 65
ast ers
Ġde ux
ĠÎ± ÏģÏĩ
ĠC r
ro k
Ġpromulg ated
Ġhelp ing
69 3
u z
Ġac quisitions
ĠA RE
, ''
Ġl ÃŃ
ĠSt ati
bass ador
ĠH HS
nik a
Ġ ________
Ġin her
Ġde ve
Ġconf idence
l on
Ġ............................................................................................................................................................ .
Ġrel atives
5 35
ra ge
ĠTh ird
ĠL og
ac er
Ġexp ired
Ġt iet
ĠDav is
7 80
b ild
ĠInd ia
ĠG ener
abl ished
ĠĊĠĠĠĠĠĠĠĠĠĠĠĠĠĠĠĠĠĠĠĠĠĠĠĠĠĠĠĠĠĠĠĠĠĠĠĠĠĠĠĠĠĠĠĠĠĠĠĠĠĠĠĠĠĠĠĠĠĠĠĠĠĠĠĠĠĠĠĠĠĠĠĠĠĠĠĠĠĠĠĠĠĠĠĠĠĠĠĠĠĠĠĠĠĠĠĠĠĠĠĠĠĠĠĠĠĠĠĠĠĠĠĠĠĠĠĠĠĠĠĠĠĠĠĠĠĠĠĠĠĠĠĠĠĠĠĠĠĠĠĠĠĠĠĠĠĠĠĠĠĠĠĠĠĠĠĠĠĠĠĠĠĠĠĠĠĠĠĠĠĠĠĠĠĠĠĠĠĠĠĠĠĠĠĠĠĠ Ġ
t ro
h Ã¶
Ġig ual
ĠAngel es
om is
ĠCont act
ph en
eng ers
r er
56 4
Ġsign al
ĠA K
89 3
ĠB efore
Ġd ost
ow icz
0 74
Ġfol io
> <
ell ed
Ġg old
Ġdoes n
m embers
on el
Ġattend ants
Ġbeh ind
Ġsuccess or
Ġsz Ã¡m
ĠĊĠĠĠĠĠĠĠĠĠĠĠĠĠĠĠĠĠĠĠĠĠĠĠĠĠĠĠĠĠĠĠĠĠĠĠĠĠĠĠĠĠĠĠĠĠĠĠĠĠĠĠĠĠĠĠĠĠĠĠĠĠĠĠĠĠĠĠĠĠĠĠĠĠĠĠĠĠĠĠĠĠĠĠĠĠĠĠĠĠĠĠĠĠĠĠĠĠĠĠĠĠĠĠĠĠĠĠĠĠĠĠĠĠĠĠĠĠĠĠĠĠĠĠĠĠĠĠĠĠĠĠĠĠĠĠĠĠĠĠĠĠĠĠĠĠĠĠĠĠĠĠĠĠĠĠĠĠĠĠĠĠĠĠĠĠĠĠĠĠĠĠĠĠĠĠĠĠĠĠĠĠĠĠĠĠĠĠ Ġ
ĠAs ia
ĠT ask
Ġem b
Ġ18 3
Ġste am
na ud
ald em
ror ism
IL D
ĠĊĠĠĠĠĠĠĠĠĠĠĠĠĠĠĠĠĠĠĠĠĠĠĠĠĠĠĠĠĠĠĠĠĠĠĠĠĠĠĠĠĠĠĠĠĠĠĠĠĠĠĠĠĠĠĠĠĠĠĠĠĠĠĠĠĠĠĠĠĠĠĠĠĠĠĠĠĠĠĠĠĠĠĠĠĠĠĠĠĠĠĠĠĠĠĠĠĠĠĠĠĠĠĠĠĠĠĠĠĠĠĠĠĠĠĠĠĠĠĠĠĠĠĠĠĠĠĠĠĠĠĠĠĠĠĠĠĠĠĠĠĠĠĠĠĠĠĠĠĠĠĠĠĠĠĠĠĠĠĠĠĠĠĠĠĠĠĠĠĠĠĠĠĠĠĠĠĠĠĠĠĠĠĠĠĠĠĠĠ Ġ
Ġc ities
ĠÅĵ uvre
SEC TION
Ġn ella
Ġj Å«
Ġ18 1
eb b
Ġpro of
Ġst anding
ĠOb lig
art a
Ġbet reffende
Ġprod otti
OP ER
Ġt Ã¶r
9 80
ĊĠĠĠĠĠĠ ĊĠĠĠĠĠĠ
ĠA CC
Ġimpact ed
ĠTax es
Ġpol y
Ġplace ment
B UR
Ġre habilitation
ate urs
---- ---
we ise
Ġ1 74
% ;
)............................. .
Î¼ÎŃÎ½ ÏīÎ½
, ,
ĠP ere
ÅĤ ow
Ġnegoti ations
ig keit
ĠE B
Ġp ed
ĠT erm
0 76
Ġ5 25
s ou
n n
p flicht
66 1
Ġj ot
) /
58 1
Ġcon cess
ĠL ie
ĠTreat ment
Ġear liest
6 15
ĠF AS
ĠR ib
Em presas
est one
ĠR iv
ĠrÃ©s z
produc ts
art z
Bl ue
ĠR ay
Ġre tention
Ġst ore
m ir
ĠPri vacy
Ġden omin
E nd
Ġaccount ed
G L
st aw
oc s
Ġclaim ed
Ġav anc
5 24
ĊĊ ĉĉĉĉĉĉĉ
z ing
Î¹Î± ÏĤ
ÅĤ onk
ĠC RO
rig er
C ounty
Ġn ative
Ġenti d
84 2
Ġav iation
ĠW oj
Ġrepresent ation
wh ile
Ġ ______
AN Y
IS I
4 37
Coun cil
is le
Ġk w
Ġfore cast
l ot
4 39
Ã¸r g
el v
ili pp
re j
Ġ19 2
Ġcult ure
W il
Ġres olu
Ġto ll
uch t
ĠKar as
78 2
85 1
Ġar med
Ġpost ed
4 73
Ġde le
ke ep
Ġspr end
Ġterror ism
ĠC orporate
ti que
Ġr ub
O OD
Ġ2 75
Ġust anov
Ġwe ak
bl ock
Î¼ g
ĠCh annel
Ġot ros
ĠCommun aut
ĠB ANK
tic os
f lu
ĠY EAR
Ġill ust
Ġ3 82
ovan Ã©
Ġcertific ates
Ġpres cription
Ġs out
ar o
55 1
Ġcl in
Ġinter vention
unc tions
Ġconstruct ed
Ġpre jud
9 10
ĠÏĢÏģÎ¿ ÏĬÏĮÎ½
ĠP ic
aj Äģ
ĠExt ension
ĠW aste
Ïĩ Ïį
uk ogu
ĠSim on
c ause
Ġproj ek
Ġz am
ĠImprove ment
F lor
ĠC P
6 02
Ġh an
55 3
Ġm oy
V IR
ĠCo al
it em
TIT U
9 30
Ġp iem
) );
ĠPROVIS IONS
osts econdary
ens is
H er
Ġge og
Îº ÏĦ
ĠT ex
Ġ40 8
ÃŃt ott
ĠSpr ing
d ob
ul s
ĠP le
ĠC DC
Ġ19 69
Ġannu ity
ĠÃĦnder ung
S CH
Ġs outhern
ĠJ on
Î´ Î¹
0 45
Ġ............................................................................................................................................................. .
ĠÃ¶ ver
FOR D
IT ATION
18 00
Ġco ol
er ick
W ol
eb raska
Ð¸ Ñ
69 1
ĠEr n
B ON
iv en
ness es
ĠG ahler
ij er
ocr acy
ow sk
Ġatt acks
e ared
Ġprinci ple
clos ed
0 36
69 7
work er
om i
4 27
Ġint ends
C ourt
ang el
le ases
ĠB road
ÏĢÎ¿ Î¯
ĠG au
ĠK eller
ĠH ed
Ġnecess arily
Ġb Ã©nÃ©
Ġfor med
im plement
Ġaud iting
ĠOn ly
How ever
Ġpe uvent
Ġtr ustee
Ġout come
Ġ30 7
Ġauthor izes
ĠÏĥÏħ Î¼
4 21
Ġorgan ism
Ġkont roll
tiv i
Ġspecial ised
ang s
Ġle arn
Ġsusp ended
Ġbelie ved
Ġ ers
comp an
Ġdiscri min
ĠK o
Ġen joy
ON T
Ġn iveau
u ce
ĠR IVER
ĠPar te
ĠSec ondary
Ġfrequ ently
ov en
Ġartik li
99 99
Ġkter Ã©
Ġcer tify
Ġ3 19
Ġext ending
Ġstart ing
5 23
ĠSe lect
ĠPie per
Ġet te
ĠRail road
6 45
D ue
w Ã¤
Ġdies em
Ġo zone
Ġserv icing
ass i
Ġreli able
tim o
y ect
Ġad ults
CO D
A p
d l
Ġg un
ĠAr kansas
ĠS BA
amp shire
4 88
in ÄĹ
v ii
ch o
Ġtaxpay ers
Ġargu ment
7 304
Ġf ellow
Ch apter
05 6
Ġgrant ing
emb ri
ĠE lementary
ĠV eld
ybers ecurity
ub re
Pro posed
Ġprocess ed
class ified
OLID ATED
iv ent
av imo
conf idence
).............................. .
' m
ear nings
4 34
p urposes
Ġk Ã¼l
ĠBack ground
06 3
Ġdep ending
06 8
ann ock
ord o
ĠFern andes
ĠTrans port
spÃ³l not
al ia
Ġp ray
ĠAM O
Ġk raj
pl ied
Îµ Ïį
Ġ4 20
L OM
Ġcomp te
ĠM L
Ġutil ize
ĠBru x
Ġpractition er
Ġrenew al
ĠAd dress
Ä« v
Ġm uss
Am ount
H IC
: .
ĠÏĢÎ±ÏģÎ¬Î³ÏģÎ±ÏĨÎ¿ ÏĤ
Ġto wards
Ġ2 27
s as
ĠSF AS
ow ane
Ġbar riers
Ġn es
ĠK re
m ethyl
ĠPROGRAM S
Ġmemb ri
Ġ5 14
Ġis ol
lig e
Ġ ign
ĠC AP
c iliation
us k
Ġexplan ation
he its
Ġk ui
F D
84 1
L ong
Ġh arbor
Ġrenew able
Ġinnov ative
Ġn am
ĠNot withstanding
6 75
ĠB oy
ex Ã©cution
f ig
ĠId entification
h ome
SP TVN
ĠSil va
aldem ose
Ġp overty
re i
SK I
s w
Ġle tra
ĠSch aldemose
06 6
ĠCas p
ĠC ram
Ġvig or
ĠH aushalts
Ġsl ight
re view
Ġfig ures
erv es
M ET
ST AT
Ġne ither
p artment
Ã¸rg ensen
form ing
ĠServ icer
l Åĳ
Ġann iversary
ret t
Ġz ost
Ġc umulative
ĠMill Ã¡n
IN ESS
Ġbank ruptcy
Ġ3 43
rig ger
Ġ3 47
Ġre de
iz er
ci ech
ĠAM ER
gen ommen
st ant
ĠL ar
r ent
ĠÏĢ Î»Î·
p ared
Ġposs ess
Ġn uro
06 4
ĠJOHN SON
6 12
U LE
l ij
Ġt ail
ĠPRESID ENT
Ġadj acent
ĠIniti ative
Î» Î¬
Ġmand ate
S er
sub s
av at
Ġmechan isms
ĠS ES
reat ment
w ick
Ġwant ed
ĠL I
Ġori ent
ĊĠĠ ĊĠĠ
Ã¼ gy
Reg lamento
59 1
B U
Ġdeleg ated
Ġjul io
11 00
ĠdrÅ¾ av
ĠSpec ifically
Ġcomb us
ĠSE AM
ĠĊĠĠĠĠĠĠĠĠĠĠĠĠĠĠĠĠĠĠĠĠĠĠĠĠĠĠĠĠĠĠĠĠĠĠĠĠĠĠĠĠĠĠĠĠĠĠĠĠĠĠĠĠĠĠĠĠĠĠĠĠĠĠĠĠĠĠĠĠĠĠĠĠĠĠĠĠĠĠĠĠĠĠĠĠĠĠĠĠĠĠĠĠĠĠĠĠĠĠĠĠĠĠĠĠĠĠĠĠĠĠĠĠĠĠĠĠĠĠĠĠĠĠĠĠĠĠĠĠĠĠĠĠĠĠĠĠĠĠĠĠĠĠĠĠĠĠĠĠĠĠĠĠĠĠĠĠĠĠĠĠĠĠĠĠĠĠĠĠĠĠĠĠĠĠĠĠĠĠĠĠĠĠĠĠĠĠĠĠĠ Ġ
r Ã¥
Ġ3 30
ĠdÃ© fin
use um
Ġv Ã¦
Ġbod ies
at te
is Ã£o
list ed
Ġ.............................................................................................................................................................. .
ram ework
4 28
Î ©
Ġprot ective
ro t
Ġf resh
quir y
Ġm io
ĠF AC
Ġe ur
Cont act
Ġ6 11
Ġdeb tor
ambi Ã©n
ĠM ats
ĠÄįl en
Ġfavor able
ĠHealth care
ĠJ ac
act ed
k Ã¶
Ġb an
Ġar g
ĠUND ER
ann els
ĠS ector
Ġdri ving
Ġk ans
Ġz god
Ġ30 8
M embers
Ġsigu iente
ĠEntw ick
Ġfarm ers
ĠNav al
ĠÃ ¦
Ġv iet
Ans atz
4 79
ri ver
um iem
oper ations
Ġ4 78
ik t
ĠDEF ENSE
Ġz em
---------------------------------------------------------------- ----------------------------------------------------------------
Ġbound aries
ĠP ages
ĠCirc uit
ever y
ĠÄį lan
Ġ4 13
ĠGeb hardt
Administ ration
t est
j av
ti ques
ĠT ER
Ġoct obre
ĠDis closure
ĠF loor
Ġb atter
Î¼ÏĨÏīÎ½ Î±
Ġmort ality
ĠC ed
Ġimp lications
ĠL EA
Ġcomp Ã©t
5 65
ILL I
0 32
Ġspecial ists
ĠC Z
Ġd umping
ĠF A
ĠD im
Ġn ue
ru le
ĠRep Ãºblica
ex pl
ĠInd ependent
Ġ2 31
4 38
Ġe insch
App ropriations
ival ent
Ġz ah
ĠC ir
um o
Îº ÏĮ
ĠPRO T
ĠPart ners
ur ies
8 46
Ġen ligt
out s
e ed
gesch ritten
EAR CH
5 45
gra de
C V
est ock
S ince
hu ber
R SE
Î¼Î±ÏĦ Î¿
Ġcontrib uted
Ġnetwork s
r Ã¡n
Ġunder w
Ġear th
Res earch
7 25
Ġli able
Ġp rav
Ġw idth
Ġimport ed
Ġregul ate
m ÄĽ
ch lor
Ġ( Â§
66 3
Ġd og
69 2
Å¡ ana
Ġsp read
c oun
ĠWoj ciech
ĠPow ers
ĠX XX
â ĪĴ
. '
Ġcontract ing
05 1
ĠIn form
5 16
t erst
re ases
Ġ5 50
le agues
Ġachieve ment
Ġa wareness
Ġmiss ions
ĠCH AR
Ġg l
d id
P ON
Ġb arg
ust on
Ġactiv idades
ĠF al
ĠST AND
68 3
Ġst ands
s pecial
M IL
Äł U
ĠSEAM LESS
ĠT aylor
it age
leg a
Î´ Î·Î³
cl am
Ġin ten
dis play
Ġt ied
ĠS anta
raz il
Ġex ha
ĠAUTHOR ITY
ĠN ieb
Ġauth ors
pr ison
Ġcover ing
Ġar r
Ġans w
ĠN AS
Ġsc reen
ĠS N
t ake
Ġmod e
on na
ĠC AA
Ġch a
serv ed
z d
ĠBe ach
Ġch ain
nÃŃ m
man ent
ĠD ur
ich ten
ĠÏĥ ÏĦÎ±
Ġg lob
geschritten er
ĠLA W
to z
Ġsp ot
Ġt anÃ¡cs
Ġinspection s
Ġpap ers
Ġavanc Ã©e
ne a
P eter
Ġwh olly
Ġp am
Ġmar ca
ĠW ash
ĠCasp ary
RO L
Ġavanz ado
Ġaccept ance
iti s
Ġwa ive
b ring
---------------------------------------------------------------- -----------
07 1
ze it
ĠÃ µ
ĠM av
Ġprompt ly
Fort geschrittener
ĠEx per
compan ied
0 31
Def ense
Ġrel ate
Î¼Î¬ ÏĦÏīÎ½
ĠNieb ler
Ġ18 9
C ENT
Ġ............................................................................................................................................................... .
79 1
Î¯ Î¶
ĠM OR
nerg ie
Ġtro ops
av im
Ġ% ,
ĠCar l
EL T
Ġinter es
K OM
ov ing
emb ru
Ġreal ized
ry ing
0 84
ĠPan ay
Å¡ en
F IL
Ġm og
Ġr ac
Ġh ands
Ġread y
ly s
Å«t ÄĹ
UT E
Ġinc ur
Ġsam t
ĠNA V
Ġcomer cial
Ġcu enta
per ties
ch anged
Ġ3 84
Ġdis abled
S a
ÅĤ ad
ĠIN T
" ).
____ _
R en
Ġcon cept
ĠADMINISTR ATION
l us
Ġret urning
Ġequ ally
Ġsupp liers
Ġhousehold s
un ter
tt a
Ã¼ss en
ĠE ND
viÄįi Å«tÄĹ
ĠB order
Ġgood will
)............................... .
REC ORD
5 85
Ġcollec tions
ĠE th
Ġfram e
ĠMit chell
d am
Ġth ick
Ġ( *)
int endent
ord able
reh l
Ġform ul
Al though
ĠPay ments
g ung
F inal
re comm
Ġs askaÅĨÄģ
ering er
Ġ18 6
Ã¡ ndez
Ġr Ã¡m
S i
ond e
5 28
Ġ% .
ĠInte gr
Ġk es
ess k
ĠdÃ© cl
59 3
ĠK rehl
Ġn ays
Ad ditional
Ġt Ã©c
D an
! !
0 78
CRIP TION
Ġgo es
m ise
IN A
indust ry
Ġben ch
ĠFin ally
ĠSp an
58 3
Ġconn ected
ĠApp eals
5 99
9 02
og ue
ĠL iese
ĠH ON
ĠÎ£ÏħÎ¼Î² Î¿ÏħÎ»Î¯Î¿Ïħ
Ġd in
Ġdri ve
ĠB ad
Ġint ellectual
S ystem
Ġacknow led
C URRENT
Ġreli ability
Inter est
Ġl ill
y w
ĠAc uerdo
Ġar m
Î¸ ÎŃ
Ġen viron
bry cht
ĠWojciech owski
Ġthreat ened
Ġconting ent
Ġmeg Ã¡llap
Ġtarget ed
S im
B uilding
Ġ Ä§
ub le
Ġne utral
Ġas ÃŃ
ĠOl brycht
Ġk val
IR S
ail ure
ĠMe ans
AA AA
Ġlic ensing
or al
V O
ur an
Ġcont ents
Ġt ul
ĠDe velop
Ġsa ve
Ġinst ruct
Ġg raph
E AS
ĠC AT
---- -
me an
Ġ25 5
Ġmet ric
E EC
Ġpermit ting
A ccess
05 7
Ã¡ rio
Ġlow est
Dist rict
uk en
Ġposs ibility
fund ing
el ih
ff er
ĠIm migration
ĠÃº l
Ġappro xim
ch Ã©
st anti
Ġto ut
ÏĮ Î¼ÎµÎ½
ĠSupp lemental
ĠK el
al leg
Äįenst vÃŃ
v ist
6 35
Ġsur plus
rate gy
s um
Ġis land
Ġsur round
Ġto ur
n oc
ĠÃ©g alement
arm on
r h
Ġide a
n ap
un es
Ġfl ag
b eck
ĠAN N
Ġg ad
Ġku in
ku uta
ĠB org
sm art
Ġrepay ment
Ġ19 1
i Å¾
Ġl ib
Ġenh anced
Ġos ob
7 86
Ġadequ ately
ĠpÃ©ri ode
ut ors
ĠUn ter
Ġj el
ĠH on
Ġhe eft
4 74
Ġk v
pri vate
Ġdispos iciones
Äģci ju
con cer
ac o
D eb
6 13
ri p
rig hts
5 33
B ureau
ĠP in
Ġ19 49
Ã¡g i
Or der
Ġn Ãºmero
Ġit al
4 87
ĠMAN AGEMENT
ial e
ĠprÃ© v
Ġex hibit
ĊĠĠĠĠĠĠĠĠĠĠĠĠ ĊĠĠĠĠĠĠĠĠĠĠĠĠ
Ġ1 200
Ġ................................................................................................................................................................ .
U EN
Ãī S
ĠCost a
j Ã¤
g ener
ĠFer ber
Ġadv ances
ĠFurther more
UC ATION
Ġm Ã¥
ĠO m
ĠYear s
Ġnor thern
Ġdro its
ĠP E
Ġexpl ain
W al
ĠÏĥÏĦÎ¿ Î¹
b ene
M arg
ĠD ig
vo j
05 3
ĠCORP ORATION
ĠOper ation
AM END
Ġtr illion
L im
0 44
ĠPres i
u ot
0 73
Ġshare holder
ĠJ ur
Ġnom ine
K O
f ire
ĠW ays
M a
iz ioni
g re
Ġinv o
ov Ã½ch
N J
; }.
Ġt Ã½
Ïĥ Ïī
59 2
0 39
Ġwithdraw al
stat en
ĠCOMM ER
ĠPr Ã¼f
ĠF rench
Ġ07 9060
Ġpri e
Ġ4 40
st u
05 8
Ġcompe tit
Ġparam eters
Ġenter prise
Ä« m
Ġ ice
ud i
ERV ATION
da q
ĠCon n
Ġse ems
ĠR ou
AR A
R D
Ã¶ ffent
ques tion
Â Ń
ograph ical
9 70
5 18
ĠÎ» ÏĮÎ³
Ġdo ivent
ĠOk tober
** âĢĶ
CH AR
4 76
ĠAm ended
Ġopp osition
ET S
ĠPRO CED
g al
Ġdepos ited
Ġup stream
6 17
ĠD ISTR
Ġp ul
Ġdep reciation
em en
Ġpri x
Ġf is
06 2
ĠSt ep
Ġ3 76
0 46
all as
Ġ19 66
Ġd oloÄį
ĠMore over
ann o
Ġexpl os
res earch
appro val
ĠA SC
Ġinteg ration
56 1
Ġc ro
ag ar
DS L
ĠF ee
ass ing
Ġcom missions
Ġassum e
ĠR oll
ĊĠĠĠĠĠĠĠĠĠĠ ĊĠĠĠĠĠĠĠĠĠĠĠ
rain age
Ġexam ples
IC I
ĠK am
UR AL
5 22
Ġf Ã¸
Ġsatisf ied
ĠRep air
0 85
u els
Ġro b
Cons titution
ier ungen
R ef
Ġla unch
ĠL as
h or
Ġfu els
Äĵ rt
Ġshe l
ĠChrist ensen
Ġtag Ã¡ll
ĠW in
Ġdi plom
Ġanalyz ed
th ree
Ġdeb en
Ġs Ã©
Ġd ied
Ġrec ruit
Ġs ides
ĠAr ticles
Ġconj unction
Ġal k
ÏĦ ÎµÏĤ
T ur
ĠZ ah
m il
Ġcontrib u
st Ã¤nd
Ġpor ts
ĠDIR ECT
Ġm ob
Ġd ose
âĢĵâĢĵ âĢĵâĢĵ
st up
f ound
Ġcomp ete
AT T
Î¹ Î½
Ġl ists
rig a
Mad am
Îº Î¿
S B
Ġmodific a
Ġrel ates
Z a
ri age
Ġoct ubre
Ġ50 4
Ġfederal ly
ĠCas a
Ġg ebru
app oint
Ġ25 3
ov ers
s i
uks et
Äģ t
Ïģ ÎµÎ¯
ack ing
Î² Î±
Ġsh ore
Ġrequis itos
ĠM UR
th en
ĠP ed
ar ian
Ġfish eries
Ġa os
os c
Ġch lor
Ġrank ing
d ue
Z A
Ġp ared
Ġ4 47
ary usz
Car thy
inn en
c over
Ġ5 20
4 78
ch io
ĠL uxemb
Ġ25 6
09 5
Ġprogram a
table t
T ABLE
ĠÅĽ rod
Ġint angible
T ele
Wol ski
KS ON
isdic tion
Ġaset uksen
Ġeurope o
ĠInformation en
ĠW et
Ġpro ve
ĠB arb
Î¬ Ïģ
Ġb ulletin
ĠIns titutes
Ġtri als
Americ ans
Ġ................................................................................................................................................................. .
S eg
Ġ06 24
Cons ider
Ġ3 35
0 43
O FF
Ġv in
if or
ĠS aryusz
Ġoblig ated
do es
J ud
ĠS zÃ¡
ĠÎ¹ Ïĥ
+ +
Ġing red
Ġp ont
ch arge
N EL
Ġexpos ures
k ar
ĠB ere
Ġexp ects
Ġmes ure
Ïĥ ÏĨ
B and
ĠL ocation
Ġm aster
Ã©rie ur
Occup ational
ik i
forder ungen
Ġ ĊĠĠĠĠĠĠĠĠĠĠĠĠĠĠĠĠĠĠĠĠĠĠĠĠĠĠĠĠĠĠĠĠĠĠĠĠĠĠĠĠĠĠĠĠĠĠĠĠĠĠĠĠĠĠĠĠĠĠĠĠĠĠĠĠĠĠĠĠĠĠĠĠĠĠĠĠĠĠĠĠĠĠĠĠĠĠĠĠĠĠĠĠĠĠĠĠĠĠĠĠĠĠĠĠĠ
ur en
Ġcontr ary
ĠP ERSON
ĠC op
SOUR CE
Ġ2 39
E v
ĠN at
Ġtranspar ency
Ġs ort
5 74
ĠGuid elines
K e
9 01
anc he
LE X
ĠCounter party
Ar my
Ġgu ide
ĠSzÃ¡ jer
Man agers
Ġdec ide
n itt
Ġcor rection
Ã¡r Ã³
our g
Ġhold s
ĠY outh
ĠMan ual
ĠE Ãļ
ī ¥
Ġk if
Ã¤r z
form er
COMM ITTEE
sh are
ĠM ulti
ĠD U
S ome
ĠRep ub
Ġf av
Ġeks port
d ollars
state ment
int a
p ersons
w oman
N ELL
ĠTH OM
ĠC F
)................................ .
Q ual
P OL
ungs ver
* .
nd ighe
T W
ek Å¡
Ġsoll te
Ex act
P OS
ap it
Ġtri p
at Ã³
it Ã¤t
Ġjo ined
Ġest Ã¡
Ġ** $
Ġte levision
7 73
ĠÎ¿ÏĢÎ¿ Î¯Î±
ĠT ext
Ġfor ced
Ġ3 80
Ġt Äģ
7 45
ĠVe hicle
Ġaffili ated
ment ation
ĠId entif
ĠĊĠĠĠĠĠĠĠĠĠĠĠĠĠĠĠĠĠĠĠĠĠĠĠĠĠĠĠĠĠĠĠĠĠĠĠĠĠĠĠĠĠĠĠĠĠĠĠĠĠĠĠĠĠĠĠĠĠĠĠĠĠĠĠĠĠĠĠĠĠĠĠĠĠĠĠĠĠĠĠĠĠĠĠĠĠĠĠĠĠĠĠĠĠĠĠĠĠĠĠĠĠĠĠĠĠĠĠĠĠĠĠĠĠĠĠĠĠĠĠĠĠĠĠĠĠĠĠĠĠĠĠĠĠĠĠĠĠĠĠĠĠĠĠĠĠĠĠĠĠĠĠĠĠĠĠĠĠĠĠĠĠĠĠĠĠĠĠĠĠĠĠĠĠĠĠĠĠĠĠĠĠĠĠĠĠĠĠĠĠĠ Ġ
Ã¦ll essk
H D
Ġk ot
ĠM ai
Ġcoordin ates
Ġmu ud
AR IES
Å¼ e
á »
: -
J os
ĠĊĠĠĠĠĠĠĠĠĠĠĠĠĠĠĠĠĠĠĠĠĠĠĠĠĠĠĠĠĠĠĠĠĠĠĠĠĠĠĠĠĠĠĠĠĠĠĠĠĠĠĠĠĠĠĠĠĠĠĠĠĠĠĠĠĠĠĠĠĠĠĠĠĠĠĠĠĠĠĠĠĠĠĠĠĠĠĠĠĠĠĠĠĠĠĠĠĠĠĠĠĠĠĠĠĠĠĠĠĠĠĠĠĠĠĠĠĠĠĠĠĠĠĠĠĠĠĠĠĠĠĠĠĠĠĠĠĠĠĠĠĠĠĠĠĠĠĠĠĠĠĠĠĠĠĠĠĠĠĠĠĠĠĠĠĠĠĠĠĠĠĠĠĠĠĠĠĠĠĠĠĠĠĠĠĠĠĠĠĠĠĠ Ġ
Ã¥d et
ÅĻ ez
educ ation
ĠFern Ã¡ndez
Ġes et
0 72
Ġultim ately
sec urity
LO S
Q UE
Com mon
vol ving
ĠÎ´ Î¹Îº
Ġ ug
c osts
Ġ3 38
ĠY oung
n t
Ġo lev
Ġcollec tive
Ġcolle ague
Ġtr uly
ĠUS GS
ĠT annock
St at
Ã¤ tig
Ġefect os
ast ing
Ã¼ Ã¼
g age
0 41
ĠP red
5 44
ĠgÄ§and hom
ĠÎ¬ Î»Î»
Ġsk ir
Ġdest roy
ies el
Ġas ign
ut ter
ĠĊĠĠĠĠĠĠĠĠĠĠĠĠĠĠĠĠĠĠĠĠĠĠĠĠĠĠĠĠĠĠĠĠĠĠĠĠĠĠĠĠĠĠĠĠĠĠĠĠĠĠĠĠĠĠĠĠĠĠĠĠĠĠĠĠĠĠĠĠĠĠĠĠĠĠĠĠĠĠĠĠĠĠĠĠĠĠĠĠĠĠĠĠĠĠĠĠĠĠĠĠĠĠĠĠĠĠĠĠĠĠĠĠĠĠĠĠĠĠĠĠĠĠĠĠĠĠĠĠĠĠĠĠĠĠĠĠĠĠĠĠĠĠĠĠĠĠĠĠĠĠĠĠĠĠĠĠĠĠĠĠĠĠĠĠĠĠĠĠĠĠĠĠĠĠĠĠĠĠĠĠĠĠĠĠĠĠĠĠĠĠĠĠ Ġ
ro te
Ġwr ite
ĠReg istered
Ġcy ber
ĠF ees
tern a
ĠĊĠĠĠĠĠĠĠĠĠĠĠĠĠĠĠĠĠĠĠĠĠĠĠĠĠĠĠĠĠĠĠĠĠĠĠĠĠĠĠĠĠĠĠĠĠĠĠĠĠĠĠĠĠĠĠĠĠĠĠĠĠĠĠĠĠĠĠĠĠĠĠĠĠĠĠĠĠĠĠĠĠĠĠĠĠĠĠĠĠĠĠĠĠĠĠĠĠĠĠĠĠĠĠĠĠĠĠĠĠĠĠĠĠĠĠĠĠĠĠĠĠĠĠĠĠĠĠĠĠĠĠĠĠĠĠĠĠĠĠĠĠĠĠĠĠĠĠĠĠĠĠĠĠĠĠĠĠĠĠĠĠĠĠĠĠĠĠĠĠĠĠĠĠĠĠĠĠĠĠĠĠĠĠĠĠĠĠĠĠĠĠĠĠ Ġ
Ġtra fficking
us ega
19 89
ĠdÃ©velopp ement
Ex cl
Ġa im
re ÅĽ
ĠP eters
ĠCo ordin
Ġ3 17
an tive
ĠCas till
08 3
ĠDÃŃ az
Ġt art
ĠÎ¼ Î·
N ING
ust ain
ĠT oma
Ã¤ s
Ġpropri etary
ĠWork s
ud s
ĠM ax
ĠT I
6 23
ĠK oz
ĠD al
Ġte j
ĠL ag
Ġher eto
az a
ĠWork ing
Ġsaf egu
m Ã©ny
Â ¥
ĠOR GAN
Ġt i
Ġ ich
0 49
ĠV aid
Äį nÃ©
orne ys
adz ki
ĠIND USTR
6 18
a Å¼
6 99
n eg
ce ived
ĠB enn
vers ion
Ġiden tical
work s
u oj
Ġ.................................................................................................................................................................. .
ener gy
ĠW ELD
le ich
Ġtarget s
ust Ã¤nd
u w
R ich
ĠSci ences
ĠIssu es
ĠM en
m ai
Ġra w
Ġprov en
Î¼ Î®
Ġpr Ã¡v
ret y
------------------------------------------------------------------------------------------------ ----------------
f ind
fortun ately
IL Y
Ġprospec tive
ĠĊĠĠĠĠĠĠĠĠĠĠĠĠĠĠĠĠĠĠĠĠĠĠĠĠĠĠĠĠĠĠĠĠĠĠĠĠĠĠĠĠĠĠĠĠĠĠĠĠĠĠĠĠĠĠĠĠĠĠĠĠĠĠĠĠĠĠĠĠĠĠĠĠĠĠĠĠĠĠĠĠĠĠĠĠĠĠĠĠĠĠĠĠĠĠĠĠĠĠĠĠĠĠĠĠĠĠĠĠĠĠĠĠĠĠĠĠĠĠĠĠĠĠĠĠĠĠĠĠĠĠĠĠĠĠĠĠĠĠĠĠĠĠĠĠĠĠĠĠĠĠĠĠĠĠĠĠĠĠĠĠĠĠĠĠĠĠĠĠĠĠĠĠĠĠĠĠĠĠĠĠĠĠĠĠĠĠĠĠĠĠĠĠĠĠ Ġ
m Ã©
ĠĊĠĠĠĠĠĠĠĠĠĠĠĠĠĠĠĠĠĠĠĠĠĠĠĠĠĠĠĠĠĠĠĠĠĠĠĠĠĠĠĠĠĠĠĠĠĠĠĠĠĠĠĠĠĠĠĠĠĠĠĠĠĠĠĠĠĠĠĠĠĠĠĠĠĠĠĠĠĠĠĠĠĠĠĠĠĠĠĠĠĠĠĠĠĠĠĠĠĠĠĠĠĠĠĠĠĠĠĠĠĠĠĠĠĠĠĠĠĠĠĠĠĠĠĠĠĠĠĠĠĠĠĠĠĠĠĠĠĠĠĠĠĠĠĠĠĠĠĠĠĠĠĠĠĠĠĠĠĠĠĠĠĠĠĠĠĠĠĠĠĠĠĠĠĠĠĠĠĠĠĠĠĠĠĠĠĠĠĠĠĠĠĠĠĠĠ Ġ
Ġorigin ally
Ġdivers e
Ġn ivel
Ġra pp
ĠB est
tim m
ĠP urpose
R N
Ċ ĊĠĠĠĠĠĠĠĠĠĠĠĠĠĠĠĠ
Ġman aging
ĠPaper work
Äĭ i
i Ã§Ã£o
ĠBL M
aj iet
Ġo cean
ĠM Ã¤rz
Ġto das
Ġ46 34
BER T
5 39
Ġderiv atives
Ġ ĠĊĠĠĠĠĠĠĠĠĠĠĠĠĠĠĠĠĠĠĠĠĠĠĠĠĠĠĠĠĠĠĠĠĠĠĠĠĠĠĠĠĠĠĠĠĠĠĠĠĠĠĠĠĠĠĠĠĠĠĠĠĠĠĠĠĠĠĠĠĠĠĠĠĠĠĠĠĠĠĠĠĠĠĠĠĠĠĠĠĠĠĠĠĠĠĠĠĠĠĠĠĠĠĠĠĠ
ÄĽ l
Ġreview ing
ĠDeb t
Ġkom iss
Ġpr is
Å £
l Ã¡n
at to
u en
Ġmed ida
ĠRes ource
Ġecon Ã³m
fr ont
6 65
ĠR etail
68 1
um Äģ
r ules
Ġkoh ald
Ġc ubic
NO LO
ath an
Ġm ac
ĠLiber adzki
Ġdiscuss ions
Ġpos kyt
kt Ã³
ran z
D ES
at on
ĠVaid ere
ĠAll ow
ĠF ork
w ant
Ġ19 54
al ties
Ġ4 60
ĠTary bos
Ġents pre
ber e
95 8
ÅĤonk owsk
Ġiniti ated
Ð ¼
Leg al
Ġus o
ĠMark eting
TI S
0 48
Ġvers us
ul d
pr int
ĠS vet
ĠO rig
f ele
Ã¡r Ã³l
Ġremov ing
Ġ26 1
im ens
Ġprom oting
ĠD omestic
Ġ4 75
u hr
ĠĊĠĠĠĠĠĠĠĠĠĠĠĠĠĠĠĠĠĠĠĠĠĠĠĠĠĠĠĠĠĠĠĠĠĠĠĠĠĠĠĠĠĠĠĠĠĠĠĠĠĠĠĠĠĠĠĠĠĠĠĠĠĠĠĠĠĠĠĠĠĠĠĠĠĠĠĠĠĠĠĠĠĠĠĠĠĠĠĠĠĠĠĠĠĠĠĠĠĠĠĠĠĠĠĠĠĠĠĠĠĠĠĠĠĠĠĠĠĠĠĠĠĠĠĠĠĠĠĠĠĠĠĠĠĠĠĠĠĠĠĠĠĠĠĠĠĠĠĠĠĠĠĠĠĠĠĠĠĠĠĠĠĠĠĠĠĠĠĠĠĠĠĠĠĠĠĠĠĠĠĠĠĠĠĠĠĠĠĠĠĠĠĠĠĠĠĠ Ġ
Ġredem ption
l ays
ow ej
Ġfil ings
ĠN PRM
ad ditional
Ġj in
ĠB ene
Ġsug ges
dan oka
Ċĉĉĉĉĉĉĉĉĉĉĉĉ ĉĉ
Ġmar co
Ġassess ing
Ġminim al
Ġob dob
Ġav ril
Ġg az
Ġte h
ĠH ug
ien iu
ĠU NI
06 1
Ġre la
oy le
ĠR ange
ij u
Ġslu Å¾
invest ment
ud es
Ġch ance
58 2
ĠÎ ĵ
an ja
Ġi i
ĠĊĠĠĠĠĠĠĠĠĠĠĠĠĠĠĠĠĠĠĠĠĠĠĠĠĠĠĠĠĠĠĠĠĠĠĠĠĠĠĠĠĠĠĠĠĠĠĠĠĠĠĠĠĠĠĠĠĠĠĠĠĠĠĠĠĠĠĠĠĠĠĠĠĠĠĠĠĠĠĠĠĠĠĠĠĠĠĠĠĠĠĠĠĠĠĠĠĠĠĠĠĠĠĠĠĠĠĠĠĠĠĠĠĠĠĠĠĠĠĠĠĠĠĠĠĠĠĠĠĠĠĠĠĠĠĠĠĠĠĠĠĠĠĠĠĠĠĠĠĠĠĠĠĠĠĠĠĠĠĠĠĠĠĠĠĠĠĠĠĠĠĠĠĠĠĠĠĠĠĠĠĠĠĠĠĠĠĠĠĠĠĠĠĠĠĠĠĠ Ġ
government al
Ġcomm u
Ġm ent
Ġjurisdic tions
Ġseg ments
Ġmen tion
EF D
Ġsp oloÄį
Ġencour aged
Ġag riculture
Ġachie ving
ĠBull mann
08 1
Ïĩ Ïħ
ĠH ann
Ġelect rical
M ass
Ä§ ra
enn em
sk Ã©
ĠO ficial
Ġ19 6
e ven
ĠBern ard
8 25
Ġapp ell
par ation
Ġpared z
ĠA uken
h mig
Ġihr er
ÄĹ j
ĠAccount ability
ĠSM ITH
Ġbel ong
Ġw estern
Ġsek Ã¤
per formance
Ġat bil
con struction
rem ium
ÏĦÎ¹Îº Î®ÏĤ
ag reement
Ġs ab
og o
0 37
Ġag enda
Î¸Î· ÎºÎµ
Ġvide o
ĠS B
Ã¤ k
Ġbur dens
Ġpur sue
ĊĠĠĠĠĠĠĠĠĠĠĠĠĠĠ Ċĉ
U F
ĠmÃ¡ xim
H is
ĠB oth
os es
Ġ18 8
ĠĊĠĠĠĠĠĠĠĠĠĠĠĠĠĠĠĠĠĠĠĠĠĠĠĠĠĠĠĠĠĠĠĠĠĠĠĠĠĠĠĠĠĠĠĠĠĠĠĠĠĠĠĠĠĠĠĠĠĠĠĠĠĠĠĠĠĠĠĠĠĠĠĠĠĠĠĠĠĠĠĠĠĠĠĠĠĠĠĠĠĠĠĠĠĠĠĠĠĠĠĠĠĠĠĠĠĠĠĠĠĠĠĠĠĠĠĠĠĠĠĠĠĠĠĠĠĠĠĠĠĠĠĠĠĠĠĠĠĠĠĠĠĠĠĠĠĠĠĠĠĠĠĠĠĠĠĠĠĠĠĠĠĠĠĠĠĠĠĠĠĠĠĠĠĠĠĠĠĠĠĠĠĠĠĠĠĠĠĠĠĠĠĠĠĠĠĠĠĠ Ġ
ĠT OTAL
ĠMarines cu
ĠAC CO
Ġob ten
ec e
6 16
ĠM ig
Ġelekt ron
Ġ ĠĠĠĊ
w ach
ĠAss emb
0 77
Ġre ve
an ow
st elling
Ġver ification
A V
Ġmil k
inc rease
Ġtr actor
Ġprivile ge
ĠĊĠĠĠĠĠĠĠĠĠĠĠĠĠĠĠĠĠĠĠĠĠĠĠĠĠĠĠĠĠĠĠĠĠĠĠĠĠĠĠĠĠĠĠĠĠĠĠĠĠĠĠĠĠĠĠĠĠĠĠĠĠĠĠĠĠĠĠĠĠĠĠĠĠĠĠĠĠĠĠĠĠĠĠĠĠĠĠĠĠĠĠĠĠĠĠĠĠĠĠĠĠĠĠĠĠĠĠĠĠĠĠĠĠĠĠĠĠĠĠĠĠĠĠĠĠĠĠĠĠĠĠĠĠĠĠĠĠĠĠĠĠĠĠĠĠĠĠĠĠĠĠĠĠĠĠĠĠĠĠĠĠĠĠĠĠĠĠĠĠĠĠĠĠĠĠĠĠĠĠĠĠĠĠĠĠĠĠĠĠĠĠĠĠĠĠĠĠĠĠ Ġ
ĠCon tr
ĠO UT
Ġp leased
el k
re ation
G ar
Ã¤ vÃ¤
V ers
Ġt anto
Ġ................................................................................................................................................................... .
ĠÅ ģ
Ġex changes
Ġwait resses
Ġhab it
M or
ut ine
ÏĦÎ¹Îº ÎŃÏĤ
6 85
ÏģÎ¿ ÏĤ
ĠM AT
Ġreserv ed
Ġgenann ten
ĠCons ult
we ight
it ter
ĠElect rical
ij zig
Ġbre ach
Ġparti al
ĠB ARS
ĠAg reements
Ġ5 17
n im
ĠÅ½ danoka
n Ãº
Ġfor fe
ĠSUPP ORT
Ġ- .
7 21
Ġ19 4
s om
AN O
ĠÏĢÏģÎ¿ ÏĤ
ĠMont ana
Ġdies el
Ġsurv iv
ot er
Ġop in
ĠÎ± Î³
09 6
Ã¸ tte
Ġsklad u
ĠL angen
ĠF CC
w orld
ĠD ATA
Ġse ktor
Ġquanti ties
ĠF Ã¶r
Ġsh ipping
ĠS un
pe titive
terst Ã¼t
ri ke
str act
Ġtechn ological
ar z
Ġjoint ly
ers elf
Ġp are
ĠBank ing
ĠCOMM ITTEE
ih in
)................................. .
ĠViet nam
Ġdoub le
Ġlarg ely
re ll
Ġth irty
og ram
fall s
ĠBez ug
CE ED
ĠH ampshire
Ġauthor izing
ĠM ount
5 17
UL ES
r ÃŃa
Ġexc ell
ĠFil ing
ĠP ak
qu ier
h ill
Ġy eas
] ;
M ain
it ations
6 22
5 19
k ind
4 89
ĠJ ones
ve is
Ġseg uridad
Ġ ĊĠĠĠĠĠĠĠĠ
ĠBrux elles
ĠM aximum
5 76
Ġv ision
ĠB ulg
applic able
ĠK ey
Ġconstitu ents
stru ments
ĠD isc
ven ile
ĠK ong
e ti
worth iness
Ġ3 77
b ers
M ur
ĠSta es
Ġbroad cast
Ã¶l j
ult ural
ĠAppro val
ĠW EL
epend ence
ĠR Ã¼b
ap a
ĠD aten
H B
ge v
H AM
E ur
19 87
" "
Ġdeg rees
ĠW ind
et zung
ĠN R
ĠC i
Ġconsider ations
Ġs tip
Ġom f
ĠAb out
H V
Ġcon se
K uns
Ġ4 45
Ã¡ Å¡
Ġmer ger
Ġpres erve
9 11
ÃŃt ett
Ġt v
ĠO s
ĠVer g
Ġku ul
Ġcon clusions
Ġprodu it
as daq
ĠBur den
5 26
Ġdis miss
b ec
Ġ12 34
Ġcollabor ation
c ash
le kt
n ies
ru k
5 66
ĠL EG
Ġnew ly
4 31
Ġoff ent
st av
Ġout reach
Ġencour ages
Ġt ec
ĠComb ined
ĠĊĠĠĠĠĠĠĠĠĠĠĠĠĠĠĠĠĠĠĠĠĠĠĠĠĠĠĠĠĠĠĠĠĠĠĠĠĠĠĠĠĠĠĠĠĠĠĠĠĠĠĠĠĠĠĠĠĠĠĠĠĠĠĠĠĠĠĠĠĠĠĠĠĠĠĠĠĠĠĠĠĠĠĠĠĠĠĠĠĠĠĠĠĠĠĠĠĠĠĠĠĠĠĠĠĠĠĠĠĠĠĠĠĠĠĠĠĠĠĠĠĠĠĠĠĠĠĠĠĠĠĠĠĠĠĠĠĠĠĠĠĠĠĠĠĠĠĠĠĠĠĠĠĠĠĠĠĠĠĠĠĠĠĠĠĠĠĠĠĠĠĠĠĠĠĠĠĠĠĠĠĠĠĠĠĠĠĠĠĠĠĠĠĠĠĠĠĠĠĠĠ Ġ
ĠMc Gu
F ull
ĠAir craft
ate ver
Ġar rest
Ä§ Ä§
Ġ5 75
Ġ6 50
ĠĊĠĠĠĠĠĠĠĠĠĠĠĠĠĠĠĠĠĠĠĠĠĠĠĠĠĠĠĠĠĠĠĠĠĠĠĠĠĠĠĠĠĠĠĠĠĠĠĠĠĠĠĠĠĠĠĠĠĠĠĠĠĠĠĠĠĠĠĠĠĠĠĠĠĠĠĠĠĠĠĠĠĠĠĠĠĠĠĠĠĠĠĠĠĠĠĠĠĠĠĠĠĠĠĠĠĠĠĠĠĠĠĠĠĠĠĠĠĠĠĠĠĠĠĠĠĠĠĠĠĠĠĠĠĠĠĠĠĠĠĠĠĠĠĠĠĠĠĠĠĠĠĠĠĠĠĠĠĠĠĠĠĠĠĠĠĠĠĠĠĠĠĠĠĠĠĠĠĠĠĠĠĠĠĠĠĠĠĠĠĠĠĠĠĠĠĠĠĠĠĠĠ Ġ
ac res
Ġmo tions
ĠB oston
Ġ31 12
Ġocc urrence
ok en
ĠHonor able
ÏĮÏĦÎ·ÏĦÎ± ÏĤ
05 4
ĠRÃ¼b ig
op en
ĠktÃ³ ry
Äį as
Ġ19 64
rec ord
Ã© re
Ġtra itÃ©
ĠÏĥÏĦ Î¿Î½
Ġpr Ã©c
Ġinvolve ment
Ġ2 65
Ïİ ÏĥÎµÎ¹ÏĤ
Ġnot withstanding
ĠB ob
W AY
Ã¶ glich
LOM C
av ar
Ã©g i
requ ency
Ġinv ited
leg islation
ĠC amb
Ġhab en
ĠÂ £
Ġ4 36
Ã¤ inen
Ġ.................................................................................................................................................................... .
ĠFUND S
ĠÃ ®
Ġmodel ing
4 72
n ight
Ġrecord keeping
led e
ĠS her
Ġsolic itud
Ġinf ring
ĠLam bert
Ġsub jects
ĠE ST
Ġd alla
Ġfeas ible
ĠDEF INI
Ġ24 1
ro j
Ã¶ pf
sk Ã¡
Ġinf rast
Îµ ÏĢ
V ILLE
er im
ĠBuchst abe
Ġopp osed
0 88
0 79
el n
irts chafts
pl ans
L R
Ġshow ed
iss ant
ĠHaz ard
Ġ3 36
Kuns ill
L ER
Ġn az
aw ay
ĠM OD
Ġc able
Ġper taining
ĠC C
Ġrelati f
OG NI
Ġear n
Ġtechn ologists
B T
5 48
ish op
ĠcontrÃ´ le
ob oda
ing ent
he b
ic ated
Ġab ril
ĠAPPRO PRI
v Ã¤nd
Ġf if
ĠEurope iska
Ġ3 90
Pro vided
Ġl ose
Ċĉĉ Ċĉĉ
Ġv aj
ebru ar
Ġn ell
Ġm Ãªme
fic it
Ġnov i
Ġ26 8
Ġassoci ations
B ecause
ĠSom mer
t urn
ĠG egenparteiausfallrisiko
Ġexp ire
Ġderech os
c redit
Ġdistin ct
atis tical
Ġm yself
B as
duc ational
ĠF OL
ĠF est
a ver
Ġne uvoston
Ġincons istent
ac tiv
Î¼Î¿ Î³
Ġn ed
Ġiniti ally
AA QS
ĠE sp
Ġutil ization
us al
Ġelec tions
ai wan
Ġih re
Ġp iel
l abor
Ġnust at
ite it
P s
Ġ6 07
ĠCh urch
ĠV iol
O m
ĠGuid ance
Ġen for
Ġhe ly
reas ing
ari ans
0 38
H EN
0 47
ym es
Ġ19 7
Ġb Ã½
ier ten
ous ands
C oll
ub lique
ĠInd enture
Ġdest ruction
Ġv ocational
Ġintro duc
Ġdri ver
ĠTrib es
J ames
Ġd omin
ĠVer fahren
Ġexpl oration
Ġo mitted
Ġch ronic
Ġre author
zo ek
p u
Ġ È
ic ide
Ġb ird
ĠPar agraph
b is
ur so
hal b
Ġ7 01
re land
ĠW atson
Ġdist ricts
Ġ19 51
pay ments
ĠÎ±Î½ Î¬
ĠH arkin
ĠSt ar
elih ood
v Ã©ny
Ã¼r k
ĠH earing
lik ely
Ġabs or
Ġ19 8
ECU TIVE
FR S
ĠSpec ies
Ġcri mes
Ġ19 26
Ġok to
ĠAir port
000 6
Ġd it
m ans
ess or
Ġcosp onsor
un en
Ġ28 3
Ġbel ief
Ġ160 5
Ġoper ates
Ġ19 25
abilit Ã©
Ġon es
h Ã¤lt
n ation
cep ts
ĠH al
ĠAud it
anst alt
Ġlo ve
e iro
oul try
Ġcap t
Ġl ock
Ġener o
Ġs low
Ġno tices
Ġmay o
Ġ19 71
N othing
H on
U r
Ġtra des
Ġ..................................................................................................................................................................... .
smart inez
6 28
ĠGross et
ĠC ITY
l ity
Ġdet ect
ĠZ iel
ĠmÃ³d os
ĠApplic able
Ġd ont
Reg ulation
report ed
ent on
ĠJ anuar
7 19
eder land
Ġrul ing
Ġ Ã¤nd
ĠFlex ibility
Ġinc orporate
iver y
ĠHig gins
Ġk it
Ġcrop s
ĠO CC
ex erc
Ġpro tok
ĠV ER
Äĭ iÅ¼
ovan ie
Ġ25 2
ĠB ig
Ġto ep
ĠEx pl
ĠGrosset Ãªte
ĠRe qu
Ġsp ring
ĠB og
ĠTA X
Ġd ot
Ġdal Ä«bval
AM ES
ĠB ud
Ġche cks
ve k
ĠRen ew
5 46
ĠParticip ant
Sub sec
z em
Ġsepar ation
Ġdedic ation
Ġhu om
ĠAss et
i ant
ĠT w
W eb
Ġm ille
ist el
ic as
ĠG ib
ess o
ak i
ĠC ENT
ĠB estimm
).................................. .
Ġconform e
oy s
Ġ29 7
ĠDirector ate
vil upp
8 45
ĠSec ured
determin ed
ĠWeek ly
AP R
Ġpro iz
ÏģÎ³ Î±Ïĥ
ĠE ven
isk o
Ġab andon
S am
Ġnovi embre
IT ARY
olo Äįenst
u is
Ġz as
Ġsp irit
Rep ublic
Ġli it
ul ties
ech o
Ġ3 21
Ġla h
Ġlicense e
Ġautom ated
Ġflu ctu
ull ing
Ġperson as
Ġthere on
68 2
B Y
itect ure
Ġdeposit ory
5 21
od i
adequ ate
z in
p rav
olg Ã¡l
ÅĤ os
Ġexpress ly
ĠVer a
Ġ50 8
Ġt ambiÃ©n
Ġpro ti
ĠP AT
Ġbr and
Ġs ediment
Ġref ers
ĠĊĠĠĠĠĠĠĠĠĠĠĠĠĠĠĠĠĠĠĠĠĠĠĠĠĠĠĠĠĠĠĠĠĠĠĠĠĠĠĠĠĠĠĠĠĠĠĠĠĠĠĠĠĠĠĠĠĠĠĠĠĠĠĠĠĠĠĠĠĠĠĠĠĠĠĠĠĠĠĠĠĠĠĠĠĠĠĠĠĠĠĠĠĠĠĠĠĠĠĠĠĠĠĠĠĠĠĠĠĠĠĠĠĠĠĠĠĠĠĠĠĠĠĠĠĠĠĠĠĠĠĠĠĠĠĠĠĠĠĠĠĠĠĠĠĠĠĠĠĠĠĠĠĠĠĠĠĠĠĠĠĠĠĠĠĠĠĠĠĠĠĠĠĠĠĠĠĠĠĠĠĠĠĠĠĠĠĠĠĠĠĠĠĠĠĠĠĠĠĠĠĠĠ Ġ
Ġmet h
Ġec osystem
appro ximately
ben efit
ett ava
Ġan tidumping
Ã©p ublique
Ġs elle
Ġst os
ĠS ov
Ġ7 16
Ġhaz ards
Ġ19 61
ual s
b are
z on
ĠRel ief
M anufact
ĠK irk
Oper ating
Ġentire ly
ben efits
Ġqu ite
Ġret ro
Comp ensation
ĠrozporzÄħd zenia
ĠEnts cheidung
5 31
ĠCR S
ĠG emeensch
ĠSupp ly
ch a
uro s
ĠMar c
Ġdeploy ment
Ïĩ Î¿ÏħÎ½
Ġmut ual
AC I
6 47
Ġo zn
R ober
Ġf ur
ĠÃ¦ nd
In f
Ġgem ensk
ĠÏĦ ÏģÎ¿ÏĢÎ¿
st em
recogn ized
ĠH in
ĠN AD
V ES
ec ution
rel iminary
Ġp ant
ĠĊĠĠĠĠĠĠĠĠĠĠĠĠĠĠĠĠĠĠĠĠĠĠĠĠĠĠĠĠĠĠĠĠĠĠĠĠĠĠĠĠĠĠĠĠĠĠĠĠĠĠĠĠĠĠĠĠĠĠĠĠĠĠĠĠĠĠĠĠĠĠĠĠĠĠĠĠĠĠĠĠĠĠĠĠĠĠĠĠĠĠĠĠĠĠĠĠĠĠĠĠĠĠĠĠĠĠĠĠĠĠĠĠĠĠĠĠĠĠĠĠĠĠĠĠĠĠĠĠĠĠĠĠĠĠĠĠĠĠĠĠĠĠĠĠĠĠĠĠĠĠĠĠĠĠĠĠĠĠĠĠĠĠĠĠĠĠĠĠĠĠĠĠĠĠĠĠĠĠĠĠĠĠĠĠĠĠĠĠĠĠĠĠĠĠĠĠĠĠĠĠĠĠĠ Ġ
n Ã¶
Ġg esch
W K
ĠÏĮ ÏĢ
5 36
ĠK il
itar ian
ĠLeg islative
ĠHis panic
Ġs oul
ĠC ur
Ġfin ally
Ġphys icians
Ġsyst Ã¨me
Ġd ic
Ġod s
Ġ...................................................................................................................................................................... .
s ure
5 73
} }
Ġdies es
a al
Ġcalcul ations
ĠÎ² Î¬
Ġm aat
Ġexerc ised
Ġle v
Ġim mig
ĠTo ia
ak or
ĠR ome
Ġidentif ies
m ation
pr ene
in is
a ug
Ġsome times
7 99
ĠMon itoring
Ġz us
ear ly
Ġsz ab
Ġpro xy
ĠEstim ates
ĠAC TIV
Ġa isle
ÅĤ u
it ts
ĠInnov ation
R u
ag on
Ġpri me
Ġresol ve
ĠFOR EIGN
5 34
Ġd ynam
h ar
Ġ19 40
P acific
ĠP YME
oun ce
Ġeuro s
Ġaf ect
ĠLic ense
ĠStrateg ic
Ġad judic
8 02
anc hes
M onday
Ġl b
Ġ2 49
Ġ26 7
Ġremain der
ors ki
Ġcum pl
ĠPh ys
Ġthere under
vent h
Ġ5 53
Ġ4 88
ĠP iot
str ong
ĠASSIST ANCE
L ine
m us
P or
================ ================
, **
Ġdown stream
- [
Ġdiscretion ary
Ġmedic ine
Ġinstitution al
Ġclar ity
0 42
ĠHen ry
ĠF utures
09 1
Ġjot ka
IP S
kt op
Ġg emeins
Ġcu ando
Ġpiem Äĵro
R est
fil ed
Ġ4 85
Ġh erself
Ġcustom s
ass ment
oper ation
5 38
ĠT ool
Ġcopy right
Ġd ol
ĠkÃ¶ l
L oss
Ġcall ing
for ward
ĠĊĠĠĠĠĠĠĠĠĠĠĠĠĠĠĠĠĠĠĠĠĠĠĠĠĠĠĠĠĠĠĠĠĠĠĠĠĠĠĠĠĠĠĠĠĠĠĠĠĠĠĠĠĠĠĠĠĠĠĠĠĠĠĠĠĠĠĠĠĠĠĠĠĠĠĠĠĠĠĠĠĠĠĠĠĠĠĠĠĠĠĠĠĠĠĠĠĠĠĠĠĠĠĠĠĠĠĠĠĠĠĠĠĠĠĠĠĠĠĠĠĠĠĠĠĠĠĠĠĠĠĠĠĠĠĠĠĠĠĠĠĠĠĠĠĠĠĠĠĠĠĠĠĠĠĠĠĠĠĠĠĠĠĠĠĠĠĠĠĠĠĠĠĠĠĠĠĠĠĠĠĠĠĠĠĠĠĠĠĠĠĠĠĠĠĠĠĠĠĠĠĠĠĠĠ Ġ
Ġad mitted
ĠAPP LIC
Ġâ ĺĲ
ĠIniti al
real ized
lim ited
els en
Ġproduct o
Ġ3 54
5 43
in ness
P al
F ac
if ts
UL AR
Ġar ms
Ġges tiÃ³n
p iec
iche ver
ĠF reedom
ĠÎ Ĺ
ĠCustom er
t j
k as
Ġval eur
J P
g Ã¸
c overed
ym a
Îº ÎµÏħ
ĠAn wendung
7 65
M it
Ġprz ed
ar on
Ġproduc tivity
H OUSE
ĠĊĠĠĠĠĠĠĠĠĠĠĠĠĠĠĠĠĠĠĠĠĠĠĠĠĠĠĠĠĠĠĠĠĠĠĠĠĠĠĠĠĠĠĠĠĠĠĠĠĠĠĠĠĠĠĠĠĠĠĠĠĠĠĠĠĠĠĠĠĠĠĠĠĠĠĠĠĠĠĠĠĠĠĠĠĠĠĠĠĠĠĠĠĠĠĠĠĠĠĠĠĠĠĠĠĠĠĠĠĠĠĠĠĠĠĠĠĠĠĠĠĠĠĠĠĠĠĠĠĠĠĠĠĠĠĠĠĠĠĠĠĠĠĠĠĠĠĠĠĠĠĠĠĠĠĠĠĠĠĠĠĠĠĠĠĠĠĠĠĠĠĠĠĠĠĠĠĠĠĠĠĠĠĠĠĠĠĠĠĠĠĠĠĠĠĠĠĠĠĠĠĠĠĠĠĠ Ġ
ĠCastill o
Ġass ault
standard s
ere es
ĠDe v
US E
Ġc atal
ĠjÃ¤ senval
Ġs ad
ĠâĢĺâĢĺ (
Ã¡ci e
S ERV
ĠL IB
Ġ24 7
G T
S UB
ĠPat ric
Ġprohib ition
Ġsub committee
Ã Ĺ
oth ers
ĠÃ¶ss z
ĠCommon wealth
ĠSt rategy
Ġ5 11
in iai
Ġrespond ent
s ales
Ġpart es
Cap ital
Ġexem ptions
Ġfr action
Îº Î±Î½
ap ital
Ġcompe ti
ĠNOT E
Ġsche me
6 48
Ġ19 48
H ourly
Î¼ÎŃÎ½ Î±
Ġ316 5
Ġhapp en
Ġ....................................................................................................................................................................... .
Ġproj ekt
ox y
Ġar Ä«
Ġre min
Ġt iers
Ġv ah
ĠOrgan izations
to od
ĠSur face
I ll
Î» Î¹
Ġl atter
Ġp etroleum
ES TER
Ġer forder
Ġ3 28
Ġinter ess
ĠB UR
6 14
ĊĊĉĉĉĉ ĉĉ
Ġw yk
hav ing
eden berg
ĠP IP
ĠKel am
aat en
( '
Ġconform ity
Ġind ebtedness
ĠMand ers
8 15
J UD
Ġv Ã¡l
B OR
d or
ĠNY SE
rad il
An al
Ġin ner
US INESS
Î¸Îµ ÏĥÎ·
n or
th al
Ġc otton
ĠÎ¼ ÏĢÎ¿
Ġrepe ated
te ga
ĠPere ira
ĠF all
Par lament
Ġ4 37
Ïħ Ïĥ
mission ens
ris on
ĠComm od
Ġ5 18
Ġdel ays
ĠO edenberg
Ġs atellite
Ġp y
ĠCan adian
ĠCAR BON
Ġ2 69
Ind ian
ĊĠĠĠĠĠĠĠĠĠĠĠĠĠĠĠĠĠĠĠĠĠĠĠĠ ĊĠĠĠĠĠĠĠĠĠĠĠĠĠĠĠĠĠĠĠĠĠĠĠĠĊĠĠĠĠĠĠĠĠĠĠĠĠĠĠĠĠĠĠĠĠĠĠĠĠĠĠĠ
Ġsche dules
ro st
Ġdeal er
5 29
d raw
st art
Ġ4 69
Ġtrans mitted
Ċĉĉĉĉ Ċĉĉĉĉ
che m
Äį nÃŃ
Ġprepar ing
Ãº riz
M ore
Ġf og
h ope
Ġgas oline
ĠMer ger
Ġ2 88
Ġ26 2
Th rough
ate ur
ys er
uc ed
ÏĦÎ± ÏĤ
ĠG all
Eff ective
Ġport ant
spec ified
ĠzÃ¡ klad
ĠbÃ½ t
9 25
ĠS ource
Ġmeg fele
ÅĪ ovÃ¡
ĠEurope ia
Ġinvest or
s cale
ĠG eringer
TIN U
pro duk
n ity
ĠPort ugal
Ġst rukt
Ist Ãºriz
lu ence
ÏģÎ¹ Î¿
Ġsome one
Ġ3 55
in ch
f ive
Ġst ory
B IN
ĠT ables
le p
ow anie
Ġ3 45
Ã© qu
ĠMcGu inness
ĠL oc
09 4
Ġtrav ail
Ġdal ies
Ġ4 87
Ġdisp ute
giv en
Ġpat ents
ĠAnton io
f ts
ĠAust ral
ĠSie ki
Ġ2 76
ĠN D
Ġ4 33
Ġnar row
ĠBer g
Ġ4 34
ĠS ter
ers ki
av ir
ĠLaw s
ĠK au
Ë Ĩ
Ġ4 86
Ġprob able
5 88
b ase
Ch air
pe Äį
Ã¡b orskÃ¡
ĠGra b
)................................... .
e fficient
fÃ©r ence
UM AN
Arch ives
ĠL anc
Person al
EU VL
Ġprogram mes
ĠE missions
ĠF low
Ġpay roll
Äĵ c
Ġf ly
M id
Ġg ear
Ä« gi
rig ation
Ġsa ist
ĠM ade
Ġguarant ees
m outh
ĠZah radil
ance ment
ĠSa Ã¯
i able
eg y
m ove
ĠL arge
c at
Ġsu gar
Ġinv ers
Ġmitig ate
A ut
Ġ2 87
ĠV erein
Ġasp ect
any on
Ġm Ã¼ssen
Ġd rawn
ac cept
se en
ĠZ Ã¡borskÃ¡
ĠT a
Ġ........................................................................................................................................................................ .
CO TT
5 86
P o
Ġstruct ural
Ġj kun
ĠStat o
ĠQ ue
7 23
Ġobj e
Ġs ans
Ġinform ac
Ġh ier
aw n
g reat
om ic
est ablishment
Ġcla uses
Ġrend el
Ġk illed
Ġmach ines
hip s
Ġprot est
Ã Ī
Ġtechn ique
ĠHold ing
vent ory
w ind
Ġst Ã¡t
gram s
resp onse
ĠT al
ĠO w
Ġsust ained
ĠSim ilar
ĠWilliam s
UM ER
Î´ Î¹Î¿
la us
Ġtim ber
m obile
im ination
Ãº jt
ĠD ienst
Î´ Îµ
ĠK az
Ġst Ã¶d
9 45
Ġ29 4
reason able
ĠLe ase
Ġman if
Ġautor iz
Ġcomp lying
Ġvolum es
5 79
ci os
Ġ24 2
Ġm ÄĽ
Ġpass ing
jon ali
Ġ Ã¤
OVERN MENT
0 87
Ġmerch ant
ĠT imes
Ġ \]
ional e
ĠMon te
RE EN
M achine
Ġmod al
c ke
l ijn
re v
ĠSH ORT
Ġse al
Ġpro yect
Ġregular ly
zn Ã¡l
ĠgÄ§and u
ĠM ati
Ġover eenkom
emb le
Ġh all
ĠP ET
/ .
s ett
k od
d uty
ĠPer mit
ĠL und
ep tion
ĊĠĠĠĠĠĠĠĠĠĠĠĠĠĠĠĠĠĠĠĠĠĠĠĠĠĠĠĠĠĠĠĠĠĠĠĠĠĠĠĠĠĠĠĠĠĠĠĠĠĠĠĠĠĠĠĠĠĠĠĠĠĠĠĠĠĠĠĠĠĠĠĠĠĠĠĠĠĠĠĠĠĠĠĠĠĠĠĠĠĠĠĠĠĠĠĠĠĠĠĠĠĠĠĠĠĠĠĠĠĠĠĠĠĠĠĠĠĠĠĠĠĠĠĠĠĠĠĠĠĠĠĠĠĠĠ Ġ
Ġkon cent
ain es
yb rid
( )
Ġ ÏīÏĤ
Ġf ores
ĠS aud
ÎµÎ¹ ÏĤ
bre ak
ĠRSE s
V AN
ĠProtoc ol
ene lec
09 3
ĠtanÃ¡cs i
Ġ**$ **
ĠVer walt
un animous
Ġoffic iel
enn es
6 38
Ġneigh bor
Ġc itation
ĊĠĠĠĠĠĠĠĠĠĠĠĠĠĠĠĠĠĠĠĠĠĠĠĠĠĠĠĠĠĠĠĠĠĠĠĠĠĠĠĠĠĠĠĠĠĠĠĠĠĠĠĠĠĠĠĠĠĠĠĠĠĠĠĠĠĠĠĠĠĠĠĠĠĠĠĠĠĠĠĠĠĠĠĠĠĠĠĠĠĠĠĠĠĠĠĠĠĠĠĠĠĠĠĠĠĠĠĠĠĠĠĠĠĠĠĠĠĠĠĠĠĠĠĠĠĠĠĠĠĠĠĠĠĠĠĠ Ġ
ĠD raft
Ġ4 38
ĠC row
Ġ12 866
Ġst ores
ib ration
ĠStud ies
Bro wn
per ature
Ġmeaning ful
Qu ad
z uel
Ġ2 73
ÃŃ dic
Ġaudit ors
Ðµ Ð½
5 84
Ïĥ Î¿Î½
" ;
Î¿ Ïģ
Ġaf in
ĊĠĠĠĠĠĠĠĠĠĠĠĠĠĠĠĠĠĠĠĠĠĠĠĠĠĠĠĠĠĠĠĠĠĠĠĠĠĠĠĠĠĠĠĠĠĠĠĠĠĠĠĠĠĠĠĠĠĠĠĠĠĠĠĠĠĠĠĠĠĠĠĠĠĠĠĠĠĠĠĠĠĠĠĠĠĠĠĠĠĠĠĠĠĠĠĠĠĠĠĠĠĠĠĠĠĠĠĠĠĠĠĠĠĠĠĠĠĠĠĠĠĠĠĠĠĠĠĠĠĠĠĠĠĠĠĠĠ Ġ
ĠSch Ã¶pf
le l
ulf on
Ġ26 3
z h
ĠExt ensions
Ġ6 02
Ġdr illing
09 8
Ġt am
Ġd imin
th or
ĠJ a
Ġal ign
met hod
miss ible
ĠSchÃ¶pf lin
Ġ6 12
ĠH Ã¤
Ġ3 86
F rid
ĠÃ ļ
et ud
0 99
6 29
im ientos
Ġ......................................................................................................................................................................... .
Ġ19 46
Ċĉ ĊĠĠĠĠĠĠĠĠ
ed es
ĊĠĠĠĠĠĠĠĠĠĠĠĠĠĠĠĠĠĠĠĠĠĠĠĠĠĠĠĠĠĠĠĠĠĠĠĠĠĠĠĠĠĠĠĠĠĠĠĠĠĠĠĠĠĠĠĠĠĠĠĠĠĠĠĠĠĠĠĠĠĠĠĠĠĠĠĠĠĠĠĠĠĠĠĠĠĠĠĠĠĠĠĠĠĠĠĠĠĠĠĠĠĠĠĠĠĠĠĠĠĠĠĠĠĠĠĠĠĠĠĠĠĠĠĠĠĠĠĠĠĠĠĠĠĠĠĠĠĠ Ġ
Ġsp onsors
iz i
Ġw all
J a
ĠRef uge
Com mercial
6 26
ĠZw ief
5 69
ĠÎ¿ Î´Î·Î³
Ġ2 72
ĊĠĠĠĠĠĠĠĠĠĠĠĠĠĠĠĠĠĠĠĠĠĠĠĠĠĠĠĠĠĠĠĠĠĠĠĠĠĠĠĠĠĠĠĠĠĠĠĠĠĠĠĠĠĠĠĠĠĠĠĠĠĠĠĠĠĠĠĠĠĠĠĠĠĠĠĠĠĠĠĠĠĠĠĠĠĠĠĠĠĠĠĠĠĠĠĠĠĠĠĠĠĠĠĠĠĠĠĠĠĠĠĠĠĠĠĠĠĠĠĠĠĠĠĠĠĠĠĠĠĠĠĠĠĠĠĠĠĠĠ Ġ
ĠZwief ka
ĠCON TR
0 89
ĠB ew
ski h
Ġutil ized
5 77
Ċ ĊĠĠĠĠĠĠĠĠĠĠĠĠĠĠĠĠĠĠĠĠĠĠĠ
6 88
ÏĦ ÎŃ
ĠS ign
ĠAnd erson
Ġc orn
S pre
Ġstat utes
IL ITIES
ceed s
Ġf ruit
ALL Y
ĊĠĠĠĠĠĠĠĠĠĠĠĠĠĠĠĠĠĠĠĠĠĠĠĠĠĠĠĠĠĠĠĠĠĠĠĠĠĠĠĠĠĠĠĠĠĠĠĠĠĠĠĠĠĠĠĠĠĠĠĠĠĠĠĠĠĠĠĠĠĠĠĠĠĠĠĠĠĠĠĠĠĠĠĠĠĠĠĠĠĠĠĠĠĠĠĠĠĠĠĠĠĠĠĠĠĠĠĠĠĠĠĠĠĠĠĠĠĠĠĠĠĠĠĠĠĠĠĠĠĠĠĠĠĠĠĠĠĠĠĠ Ġ
tim ore
9 75
Ġch osen
ĠR on
Ġcompetit ors
Ġsep ti
Ġk new
Ġequ itable
Äĥ ses
Ġlimit ing
ĠGy Ã¼rk
Ġpub blic
Ġtek st
Ġ19 58
Ġapp eared
ow ohl
Ġf utures
Ġh yp
Äĥses cu
ĠBe ÅĪovÃ¡
N N
par ts
Ġsept embre
Un ternehmen
Ġter cer
Ġrun ning
Ġtre es
Ġcl im
'' (
res olution
abil idad
C olum
Î¹Îº Î¿Î½Î¿Î¼
Ġremain ed
E ast
95 7
che ck
ar an
ĠkÃ¤ ytt
Ġcre w
ro ck
ĠBRO WN
Ġsubmit s
ĠW ort
Med ical
pro visions
Ġinfer ior
Ċĉĉĉĉĉĉĉĉĉ Ċĉĉĉĉĉĉĉĉ
Ġn ome
Ġ ĊĠĠĠĠĠĠĠĠĠĠ
ĠF red
ĠWELD ED
G as
ci ja
P ag
Ġsustain able
Ġacc umulated
tra de
ĠSieki erski
ĠRES OLU
ĠAl bert
5 32
6 76
Ġf ir
CO MP
out e
ĠF ERC
ĠÏĥÏį Î¼ÏĨÏīÎ½Î±
ĠO ahu
Ġpl aintiff
ĠrÃ¨g les
Ġ19 24
Ġra re
5 27
ĠMin eral
ĠV AL
Frid ay
u as
ĠDire k
6 33
Ġ24 3
enci Ã³n
ass oci
ĠLe inen
Ġun paid
Ġsym bol
Ġn it
ĠEx clusion
ĠEar th
Ġ3 29
ĠmÃ¤Ã¤r Ã¤
Ġto us
and et
fer ent
B ack
m oney
ĠF ol
ĠThe ir
ĠD ar
us ts
IS ION
DI TIONAL
Ġm ist
7 26
ĠWy oming
Ġpurch asing
Ġh us
se k
sh aring
5 41
Ġ3 26
hez io
ĠÏĥ Î·Î¼
des cribed
UDG ET
and y
Î¼Î² Î¬Î½
xy gen
ĠPhil adelphia
Ġkoh dan
Ġco op
J E
ĠR am
ĠSt ra
enc ion
Ġstud ied
ĠCER TAIN
st va
ent o
â Ĺı
lu it
.'' .
ĠH one
6 46
ors z
Ġliik mesri
RE AD
ĠMc A
Ġ4 29
le ans
Ġden ne
ram e
ĠAcc ounts
ÏĦÎ± ÏĥÎ·
at tainment
ĠF EMA
ĠE hler
Ġex clude
5 37
com mercial
ĠÐ ¿
ĠE IS
Ġ.......................................................................................................................................................................... .
ĠR oss
ĠE inf
b ris
Ġsatisf actory
Ġd rop
ro o
Ġaut o
Ġ2 74
k an
6 19
Ġfinanz i
r Ã¨s
Ġ4 70
Ġhod not
Ġconst ant
P oz
ĠAbs ch
ĠDe ferred
as a
k Äģ
C enter
Ġrendel kez
u y
Ġstr at
idu ci
-------- --
Ġn ek
Ġgu ard
Ġpublic ations
Ġ4 82
ĠS vens
Ġc ensus
ber ry
Ġe astern
ĠE EA
N IA
c in
ĠW E
31 0000
ut en
apol is
ĠÏĢ Î¿Ïĥ
Ġ19 60
ĠL akes
ant en
Ġf leet
ĠM em
ĠH ad
Ġkonk ur
m g
Ġ19 56
head ing
ĠW elfare
0 86
7 28
7 85
els es
ĠSaÃ¯ fi
Ġid Åĳ
her lands
Ġ25 8
ĠHug hes
).................................... .
Ġliquid ation
H I
ES C
od os
eral d
ĠMiss ion
P AT
ĠSk up
T op
lic ate
Ġdes pite
Ġclos ure
and om
er de
pos es
Ã¨ le
Is su
Ġw in
ĠAnd rew
f lex
ĠF AR
ĠTechn ologies
ĠWho le
eb o
od en
Ġfunc ion
Ġte is
Ġre com
Comm unity
ĠH arb
ĠDR ILLING
Ġlear ned
5 42
Ġv es
Ċĉĉĉĉĉ Ċĉĉĉĉĉ
ci j
G HS
Ġab und
ffic er
op tions
ĠB ald
ĠD unn
ĠH older
Ġfurn ishing
ĠF uture
Flor ida
ĠÄ« pa
ĠD UR
Mon th
Ġpod le
ilit Ã©
Ġuncertain ties
ĠInsp ection
Ġab road
ĠProt ective
Ġdz iaÅĤ
Ġpre ven
G ER
ĠPapad im
ound ed
ess en
Ċ ĊĠĠĠĠĠĠĠĠĠĠĠĠĠĠĠĠĠ
Ġt ier
Ġlat est
Ġpattern s
ĠI P
Ä« le
Ġt ie
ĠOccup ation
ĠOr den
ĠEs timated
Ġhor izont
ĠPri mary
Ġconf ig
ĠVir gin
tr Ã¤
u ve
Ġdispos iti
cond ition
ĠCondition s
Ġfeas ibility
TER S
ĠSim pson
O MM
ass istance
ĠE gy
ĠAd min
ĠG em
Ġpres up
B AN
l ate
Ġmo ins
ĠZim mer
Ġconsider able
09 7
cs ol
ĠTechn icians
ĠÏĢÏģÎ¿ Î²
Ġch annels
is ia
Ġ3 22
Ġkom pet
ĠM i
ĠÎµ Ïħ
pol icy
umin um
9 15
izs g
Ġapp eals
s uccess
Ġproc es
Ġread ily
ĠNew ton
Ġrefer encia
3 000
ĠMan fred
ĠEX T
Ġm aps
Ġtill Ã¤m
ier te
Ġ........................................................................................................................................................................... .
Ġspect rum
pri or
asso ure
ĠL ind
ĠPapadim oulis
S pr
Ġ6 10
Ġgr andes
m ien
Ã Ģ
Ġdevelop ments
Ġcons titutes
6 74
ed gar
p ra
Ġz on
Ġleg acy
95 4
5 47
Äĵt Äģ
tic k
ann ed
ĠSvens son
ett re
Ġpl ate
ĠP ME
c ut
k Å¯
09 2
ĠH ot
ĠMar ques
ĠSti hler
Ġd y
Ġ( -
Ġmatch ing
R Ã¨glement
Ġ3 57
tif ik
A utor
Ġfac ing
ĠT uesday
IC HA
Ġte ht
9 35
AM P
Ġabs ent
Ġroz poÄį
ĠLam assoure
l oy
ai ent
Ġ2 84
Pro ject
are as
Ġst ar
EE E
l arge
7 29
Ġ3 32
t Ã©n
v ad
g ments
96 2
ĠGu ide
w ert
Ġrend ered
W D
L at
acter istics
Ġafford able
rad o
Ġsu a
Ġgradu ate
ĠHone yb
Ġoccup ied
ĠM erc
ĠTar abella
ĠM ath
Ġinput s
ru its
k m
Ġadj ourn
dis abled
Ġt uri
Ġle ver
state ments
ĠQ U
Ġ25 4
un o
ĠGovern ors
ĠBorg hezio
ell ation
ĠCoun ties
Ġprotec ciÃ³n
Ġcent ury
Ä Ģ
Ġeng agement
Ġmiss ing
Ġjak o
ÏĦÎ· ÏĥÎ·
ĠO pportunity
ĠÅ¡t Ã¡t
ÏĢÎ¿Î¹ Î·
ĠSECUR ITIES
it Äģ
ĠT oday
VIR ON
Ġz ug
emb ros
SM ER
Ġregard s
Ġto h
ĠM ET
ep s
Ġ50 3
Ġur Äį
Äģ v
hat Ã¡roz
Ġw oman
ĠZ Ä«le
il ig
Ġen su
ĊĠĊĠ ĊĠĊĠ
ĠH OM
Ġbon us
Ġ3 34
Ġ46 24
Ġ19 67
ĠJ R
ĠS aint
rib ute
ge fÃ¼hr
ou v
M ex
l ang
T erm
ĠÃ¶ ffent
E EG
Ġ26 4
6 87
Ġrest a
k it
M ON
ĠS ignificant
ĠF ramework
96 3
or u
Ġ5 40
k az
ĠHoneyb all
ges ellsch
tific ial
Ġr ic
Ġse ed
um en
Ġdistingu ished
itt ers
Ġvalu able
ĠCram er
Ã Ĩ
ĠSPEC IAL
Ã¤ÃŁ le
Ġextra ordinary
t ons
d aj
all en
ag encies
Ġj our
ÅĪ ka
ĠP es
Ġf ather
Ġpued e
ĠM emorandum
6 79
aceu tical
inc oln
C orporates
ĠB ILL
Ċ ĊĠĠĠĠĠĠĠĠĠĠĠĠĠĠĠĠĠĠĠĠ
ï¿½ï¿½ï¿½ï¿½ï¿½ï¿½ï¿½ï¿½ ï¿½ï¿½ï¿½ï¿½ï¿½ï¿½ï¿½ï¿½
rÃ© e
A I
Ġacc r
ĠBu oy
Ã ķ
ĠÎ Ī
y our
Ġ............................................................................................................................................................................ .
ĠĊĠĠĠĠĠĠĠĠĠĠĠĠĠĠĠĠĠĠĠĠĠĠĠĠĠĠĠĠĠĠĠĠĠĠĠĠĠĠĠĠĠĠĠĠĠĠĠĠĠĠĠĠĠĠĠĠĠĠĠĠĠĠĠĠĠĠĠĠĠĠĠĠĠĠĠĠĠĠĠĠĠĠĠĠĠĠĠĠĠĠĠĠĠĠĠĠĠĠĠĠĠĠĠĠĠĠĠĠĠĠĠĠĠĠĠĠĠĠĠĠĠĠĠĠĠĠĠĠĠĠĠĠĠĠĠĠĠĠĠĠĠĠĠĠĠĠĠĠĠĠĠĠĠĠĠĠĠĠĠĠĠĠĠĠĠĠĠĠĠĠĠĠĠĠĠĠĠĠĠĠĠĠĠĠĠĠĠĠĠĠĠĠĠĠĠĠĠĠĠĠĠĠĠĠĠĠ Ġ
ĠGr Ã¤ÃŁle
ti r
ĠEst ablishment
Ã¡ va
ĠCivil ian
im et
Ġ4 44
at r
n isch
EC TIVE
ĠN amen
Ġbring ing
ĠÎ¸ Îµ
ĠAm bassador
95 2
ĠA P
Ġ2 89
TR A
Ġdocument ed
os is
ĠTe am
qu ently
Å¼ a
Fair Value
F X
8 44
9 55
ĠMa ÅĪka
Ġbec oming
row ski
tg Ã¤r
Europ ean
C enelec
nos Å¥
k Ã³w
ĠÎ±ÏĢÏĮ ÏĨÎ±
bs erv
iss ued
Ġra Å¾
TI L
ĠTh er
teil ung
Ġmaintain s
Ġn atur
iox ide
Ġat tainment
8 16
e hen
Ġw inter
ĠC res
ĠÃ¼ hend
own ers
Ġmen os
99 00
as z
19 88
Ġh ire
ĠW ATER
ud as
Ġqu arters
Ġamend s
Ad ded
Ġconc urrence
om bia
NOT ES
ĠF BI
âĢĿ ,
Ġf ont
ĠM ach
ign ation
et zt
rol og
á Ħ
Ġlegis la
Ġjur ÃŃdic
Ã©s ent
Ġaccount ability
d t
p y
re cht
ost a
ĠĊĠĠĠĠĠĠĠĠĠĠĠĠĠĠĠĠĠĠĠĠĠĠĠĠĠĠĠĠĠĠĠĠĠĠĠĠĠĠĠĠĠĠĠĠĠĠĠĠĠĠĠĠĠĠĠĠĠĠĠĠĠĠĠĠĠĠĠĠĠĠĠĠĠĠĠĠĠĠĠĠĠĠĠĠĠĠĠĠĠĠĠĠĠĠĠĠĠĠĠĠĠĠĠĠĠĠĠĠĠĠĠĠĠĠĠĠĠĠĠĠĠĠĠĠĠĠĠĠĠĠĠĠĠĠĠĠĠĠĠĠĠĠĠĠĠĠĠĠĠĠĠĠĠĠĠĠĠĠĠĠĠĠĠĠĠĠĠĠĠĠĠĠĠĠĠĠĠĠĠĠĠĠĠĠĠĠĠĠĠĠĠĠĠĠĠĠĠĠĠĠĠĠĠĠĠĠĠ Ġ
ĠS AL
Ġamb ient
Ġrest ructuring
ĠDe ÃŁ
Ġref in
ĠB an
Ġbas in
Ġdischarg ed
Sum mary
Ġob lasti
ag ic
ĠÃł s
af r
Ġok reÅĽ
Ġconstitu ent
Ġte acher
Ġqu ote
n te
ĠM G
Ġcl ient
Ġcoordin ated
uj en
rij os
D IS
on au
Ġat bal
ĠtÃ¶r tÃ©n
8 65
ra um
ess el
Ġwhen ever
Äĵr Äģ
ic Äĥ
ty ku
m aster
ne al
Ġden en
6 39
ĠJ er
Ġz Ã¡v
Ġj os
Un iversity
m ile
nÃ½ m
âĢ ĭ
Ġbe v
ĠW IL
rece ived
eg ra
Ġdem ocracy
r ance
in vestig
toc page
ĠV AN
Ġcut ting
5 87
Ã© ro
ĠB es
Ġv est
ĠM ILL
UR T
ĠÎ¸ ÎŃ
6 86
Ġcomplet ely
Ġde fer
K ey
ĠShe et
d rug
Ġ............................................................................................................................................................................. .
B i
ĠST UD
)..................................... .
R R
W Y
Ġren ov
Ġreform s
A k
Ġs ick
Ġad res
ĠCl inton
Ġ39 6
cap ital
ĠGemeins chaft
Ġ3 31
ĠN ord
Ġden ial
author ized
clam ation
Ã©v rier
le ts
Ġactiv itÃ©s
9 65
ĠO re
in Ã¤
Ġt ub
ĠW ag
Ġ28 1
Ġrel aciÃ³n
H o
Ġd iversity
5 78
te g
ug a
Ġcap ture
6 42
ĠÎº Î¿Î¹Î½Î¿
ĠU nd
ĠMin ority
Ġartik la
g ood
iz on
AC KSON
Ġsatisf action
w omen
Ġn utri
Ġterm Ã©k
ga ard
Ġspe ech
Ġ iek
F urther
Ġartik l
Ġany one
Ġ3 58
A E
Ġm h
Ġse at
ill o
Ġâ Ĺı
ĠTh ree
Ġf unk
ĠG ries
ĠtagÃ¡ll am
Ġdist urb
izsg Ã¡l
Î¿Ïħ ÏģÎ³
Ġ19 47
ĠPol icies
get to
7 33
Ġrespect o
Ġtherm al
ĠInvestig ation
V e
ĊĠĠĠĠĠĠĠĠĠĠĠĠĠĠĠĠĠĠĠĠĠĠĠĠĠĠĠĠĠĠĠĠĠĠĠĠĠĠĠĠĠĠĠĠĠĠĠĠĠĠĠĠĠĠĠĠĠĠĠĠĠĠĠĠĠĠĠĠĠĠĠĠĠĠĠĠĠĠĠĠĠĠĠĠĠĠĠĠĠĠĠĠĠĠĠĠĠĠĠĠĠĠĠĠĠĠĠĠĠĠĠĠĠĠĠĠĠĠĠĠĠĠĠĠĠĠĠĠĠĠĠĠĠĠĠĠĠĠĠĠĠ Ġ
UL L
Î´Î¹Îº Î±Ïĥ
burs ed
conn ection
ĊĠĠ ĊĠĠĠĠ
lec tions
v Ã¡ny
Ñ ĥ
Ġm other
Ċ ĊĠĠĠĠĠĠĠĠĠĠĠĠĠĠĠĠĠĠĠ
Ġcommon ly
r ank
Ġ2 46
AR KS
Ġaffili ate
6 89
ĠComun idad
Ġmod o
Ġf Ã©vrier
Ġso it
Ġp ants
Ġmo tiv
eng en
m atic
ĠK ras
Ge org
ĠCh a
r Ã¶
Ġallow able
Ġn ast
Ġ6 48
m uch
tik Ã¤inen
Ġt id
SIGNAT URES
Reg ion
ĠMar ia
Ġkomis jon
oss il
c ustom
Ġdes arrollo
ĠB iel
ĠMet al
il ed
i at
G en
Ġundert aken
Ġpl astic
im prove
Ġconsolid ation
op ter
Ġe ase
ĊĠĠĠĠĠĠĠĠĠĠĠĠĠĠĠĠĠĠĠĠĠĠĠĠĠĠĠĠĠĠĠĠĠĠĠĠĠĠĠĠĠĠĠĠĠĠĠĠĠĠĠĠĠĠĠĠĠĠĠĠĠĠĠĠĠĠĠĠĠĠĠĠĠĠĠĠĠĠĠĠĠĠĠĠĠĠĠĠĠĠĠĠĠĠĠĠĠĠĠĠĠĠĠĠĠĠĠĠĠĠĠĠĠĠĠĠĠĠĠĠĠĠĠĠĠĠĠĠĠĠĠĠĠĠĠĠĠĠĠĠĠĠ Ġ
l ato
Ġpod nik
Ġinser ted
Ġtar if
ĠArbe its
l m
Ġdi ameter
istel roo
â ī¤
Ġorder lies
istelroo ij
Ġan tes
ĠkÃ¤ yt
t own
G overn
ĠN istelrooij
95 3
ure ments
ri ka
Ġ3 24
s aid
Ch ina
ĠCOUN TY
ĠAMO UNT
ar ound
ine a
ĠSett lement
vo id
Ġ5 24
Ġaff ects
w estern
Ġvis ual
ol Ã³g
Ġbudget ary
ĠSchul z
Ġ ĠĠĠĊĠĠĠĠ
Ġro utine
f aces
ĠK la
lo ok
ti Ã©r
i ore
ĠÐ ½
Ã¦ n
W V
ĠWal ter
Ġorg Ã¡n
oper ating
Ġin sufficient
ett es
Ã ħ
Ġ6 15
Î· ÏĥÎ·ÏĤ
IG ATION
Ġ.............................................................................................................................................................................. .
Äĥ n
ĠspÃ©ci f
Ġassist ed
Ġpe er
ĠM oh
Ġpass engers
w ij
ĠE very
Ġexec ute
ĠEMP LOY
I EF
p ack
Ġle asing
Ġem presa
' ve
J V
Ġlug ar
Ġpetition er
19 00
C UST
Ïģ ÏīÎ½
C ivil
Ġleg iti
8 35
Ġr anges
ĠOff ices
ĠD om
AB OR
ĠR oth
N ey
re ferred
ĠCo elho
est ablished
O hio
ĠP PE
Ġcomm enced
ĠA ve
6 44
pro jects
Ġper haps
Ġ4 74
V OC
Ġeas ily
8 99
Cons olidated
Ġinj uries
Def in
Ġj Ã¤rg
itro gen
ĠSEC RET
Î½ ÏĦÎ±Î¹
ÄĹ tÅ³
Ġst aat
Ġg age
Ġst ating
ĠMo tion
sec ured
ĠL ondon
! ==
um enti
pro ble
ĠB U
Ġill ness
6 36
yma ÅĦski
lÃ¡n ok
Ġleg ally
ĠN utrition
am enti
o itation
Ġtw elve
Ġcom posed
Ġsign ature
ÏĦ Î¯
Ġm el
ordin ated
Ġcov ers
Ġterritor ial
ÃŃ ch
ĠDo es
cz eg
ĠM ora
GRICULT URE
Ġaff airs
ĠMik ol
ĠC ountry
Ġbl ue
ĠI ts
ĠGries beck
Ġto utes
ut chev
L ist
Ġchemical s
oll nisch
iv an
Ġi est
ĠdÃ© c
ĠGu am
ace ment
Ġdeter ior
ĠUr utchev
Ã¡ ch
ĠBas is
et aan
Ġp ela
ti em
IC AN
Cont ract
tit uc
Ġem p
ĠWh y
Ġcont rolling
Ġindust ri
Sch ool
Ġk ar
Ġtele communications
Ġexp licit
im u
ĠN ursing
Ġmater i
ĉ ĊĠ
Ġfulf ill
Ġdec isiÃ³n
ĠEn h
Ġ5 26
ovÃ¡ cs
l oh
ĠE NG
9 13
Ġno ise
ĠPie tikÃ¤inen
Ġmuka isesti
h ig
Ã³ wn
Ġb iex
201 00
Ã¤ ss
and owski
7 27
tiv itÃł
B ur
che va
ĠÎ±Ïħ ÏĦ
ĠÎµ Î¼
Sur vey
Ġ5 19
ĠPRO C
9 85
P ERSON
E I
par ties
ra ul
ol ino
ĠD OC
ĠG oods
Ġst able
6 34
For mer
Ġattend ance
Ã¡Å¡ ik
Ġ19 62
ĠComp rehensive
5 72
ĠSur ve
Ġ25 7
ĠGer man
Ġcounsel ing
ĠAc tions
Ġstream s
Ġsol ar
L ic
place ment
Ġ202 5
Ġdiffic ulties
6 27
Ġsepti embre
Ġemph as
Ver ordnung
VIRON MENT
ĠÎµ Î¹Ïĥ
u ur
T em
ĠhatÃ¡roz at
EE K
Ġstr ug
ĠI A
ĠKÃ¶ z
afr anca
ĠEntwick lung
JO HN
ĠMikol Ã¡Å¡ik
Ġ............................................................................................................................................................................... .
l ifer
Ġst amp
ĠOrd ers
I FOR
ut us
l ington
ĠkÃ¼l Ã¶n
Ġdescrib ing
Ċ ĊĠĠĠĠĠĠĠĠĠĠĠĠĠĠĠĠĠĠĠĠĠĠĠĠĠĠĠĠĠĠĠ
comm on
Ġcoun cil
Ġin quiry
up er
Ġce ase
p al
ĠRec ommend
Ġexp anding
Ġim prison
at ts
tiv as
igh ter
Ġd ensity
ĠCh arter
Ġwithd rawn
f ocus
des ktop
ĠEx pos
EN SION
ĠE vent
Ã©ge k
Ġp ic
ĠS ix
par ent
ĠAn s
amise ks
ĠLew andowski
Ġadminister ing
ĠBro k
T PTVN
96 1
l und
ĠPol iti
---------------- ------------
law ful
9 17
Ġprohib its
P od
. ***
ĠÎ´ Îµ
Ġinteg ral
ĠMcA van
6 37
ĠPiot rowski
tiÃ©r rez
ĠA le
aj Äħce
ĠP ostsecondary
Äį et
ta is
L ess
ĠP anz
RO UND
ĠÎ»ÏĮÎ³ Ïī
g eme
Ġ25 9
Ġvalid ity
in cluded
Ġ6 13
Ġ2 78
Ġdesign ates
Mar ie
Ġf asts
Ġprint ing
Ġre jected
reg ular
Ġ50 7
ĠEurÃ³p sk
Ġtr end
Î· ÏģÎµ
Un ione
ig us
ian i
ional es
ĠPROT ECTION
ĠÃ© lect
ĠSES SION
Ġ3 83
Î¼ ÏİÎ½
ĠK raft
Ġdecision e
Ġwe ights
ĠStevens on
Ġinf ra
ON NELL
Ġb urn
ĠÃ® n
Ġprevent ing
Ġ5 30
ĠL ittle
AT S
Ġro ku
ast am
Ġh ospod
ĠN V
Ġte aching
Ġovers eas
Ass istant
9 12
Ġpre gn
en ue
K ing
)...................................... .
ĠF j
ht on
Ġsec teur
Ġcombus tion
ib a
Ġdes k
ĠM Hz
L u
i ov
bur sement
r acts
iere k
CE MENT
Ġdep ends
Ġsam pled
B eg
Ġdis pl
Ġpr ud
**** ****
AD O
ĠSal afranca
ym as
ĠAnd ers
ĠGu tiÃ©rrez
C AP
Ġ4 39
Ney ra
Ġrest ore
ĠU SE
Ċ ĊĠĠĠĠĠĠĠĠĠĠĠĠĠĠĠĠĠĠĠĠĠĠĠĠĠĠĠ
Ã¡l nÃŃ
ĠH A
ĠAff ordable
Ġwh ichever
zn am
Ġevery thing
ĠM T
* âĢĶ
Ġtur b
C AR
ĠL ech
air y
ĠTECH NOLO
Ġm emorandum
Ġl ender
Ġse em
Ġ39 5
ĠS Ã¸
Ġnav al
Ġs Ã¤t
ĠBas ic
Ġ28 2
Ġbarg aining
ĠP itt
is se
Ġle verage
N W
ĠB ridge
Ġ2 66
ari at
Ġke eping
ĠBÃ¶ ge
Ġle aving
ĠJ ong
ĠDu ff
Ġst em
6 73
Ġs n
Ġg ali
ĠCom mitments
Ġ2 86
Ġst or
Ġindic ating
m ap
pro perty
8 11
ĠZ al
MM ARY
Ġ ĊĠĠĠĠĠĠĠĠĠĠĠĠĠĠĠĠĠĠ
Ġexper t
Ġhom eless
s ource
Sub s
M embros
ĠRe quired
UM BER
resp ect
Ġ................................................................................................................................................................................ .
r un
ĠM EM
iss ues
Ġfair ly
m ott
Ġ3 39
el de
Ġdeal ing
Ġdisc overy
Ġfunction al
eng es
R iver
Ġevery one
Ġval d
EF T
Ġcont acts
Ġan nex
ge w
che t
ĠEff ects
in de
ĠM atters
Ġb ases
8 14
Ġdr inking
amp ion
Ġus age
ier no
Ġrecord ing
Ġmar itime
M aximum
iz ione
Ġper ust
Ġg ennem
ĠK rah
k em
ĠO U
Ġbi om
5 89
Ġ4 48
contin ue
Ġ6 08
nÄĽ nÃŃ
Ġand er
lev ant
elj es
ĠN eg
Ġpe ak
Ġth ence
ĠW ay
pass ed
qu arter
Ġ rib
8 13
15 00
ĠApplic ants
ĠG ierek
ĠLi quid
Ġredesign ated
Ġultim ate
Vir ginia
und e
b ound
E IN
Ġcon crete
I MP
Cont rol
Ġintro duction
ĠCont in
to u
Ġunf air
Ġopen ed
all i
8 33
lo Äį
k im
ĠP etroleum
ri r
PP S
Ġ4 49
ĠSTAT EMENT
Ġins ide
R uss
ĠBer Ã¨s
ĠN asdaq
ag u
ENS ES
we is
9 69
ĠBu iten
n one
iz zi
Ġj sou
ĠRe ul
ĠKomisij ai
ss en
ĠM ining
Ġpes o
ĠrÃ©s ult
Ġmo et
ars on
f ollow
ibr arians
Ġ19 30
ĠVal le
ĠF ahr
ĠIn stallation
Ġmechan ical
Ġcred ited
Ġargu ments
C y
Ġen umer
Ġsurround ing
ĠmÃ¤Ã¤r use
ĠÅ¡ Äģ
Ã³g or
Ġw ym
C entral
Ġ27 1
Ġsigu ientes
ĠTerrit ory
Ġshe ets
Ġsp orts
ĠBr uss
r ine
lew oman
Ġprz yp
P ennsylvania
ĠS Ã³gor
Ġautom atically
EG T
reg ard
ĠkÃ¶l ts
b Ã³l
O U
al ign
hed en
uild ings
Ġz ustÃ¤nd
fÃ¼ ll
ar ja
5 71
ĠÄ ĭ
he aring
Ġcons ecutive
Ġsh ips
ĠL EV
arg es
Ġg ender
95 1
ĠC PA
ĠPoss elt
yn ch
Ġcompris ed
ĠSpezialfinanz ierungen
IS CH
ĠRES EARCH
Ġst reet
Ġden y
Ġclaim ant
ĠOut lays
ĠH ay
t leman
Ġp ump
ak u
ak ter
Ã« le
Bel g
un ternehmen
As unto
Ġver ify
c ion
ÎĨ ÏģÎ¸ÏģÎ¿
Ġne i
Ġqu ota
M ary
ĠN ICKEL
k es
und o
Ġas ide
ĠÄį erv
HON ORING
Ġdanger ous
Ġin clus
ĠF M
96 7
Ġattiec Ä«bÄģ
t age
ĠLew is
ĠLIM ITATION
ur der
Ġc ir
ou i
ĠEr wÃ¤
Ġse ura
Ġsubst antive
Ã©g u
ĠWil son
e vent
ĠInc orporation
re la
f og
C ond
Ġ ĊĠĠĠĠĠĠ
Å¾ u
enÃŃ m
Ã³d igo
ĠP ag
Ġz al
Ġorgan isation
ĠVer trags
ĠHar ms
Ã¼ cks
l anta
ĠÎµÏĨÎ±Ïģ Î¼Î¿Î³
ĠDo D
Ġclear ance
Ġnariaden ia
hib ition
Ġpas Äģk
F ree
8 36
ĠComm ander
abet es
ĠH erst
Ġmov ers
Ġrem pl
Ġbe aring
Fr ance
200 000
ĠCap tain
Ġindic ators
equ ipment
p ubl
Ġdes ire
Ġ66 21
p red
ĠÏĢ Î±
d ers
Elect ric
Ġser Ã¡
Ã¤r m
oni um
ĠÏĢ Î¿Î»
p ted
ĠPanz eri
W H
system s
ĠSch ro
IL E
Ġin om
Ġ................................................................................................................................................................................. .
and ed
Ġdri ven
ĠCongress man
erc enti
t n
Ġfeb rero
Ġinvest ing
ĠÎ Ĵ
Ġextrem ely
ens ure
ĠA ST
Ġpos iti
ĠÃ© r
DA Y
Ġsupp lier
Ġconflic ts
ĠPro gress
Y ork
Prot ective
ĠS ender
Ġgew Ã¤hr
ĠMora es
R ICK
Ġres ervation
ĠG al
pro ved
Ã¤r sk
Ġ5 29
Ġidenti fic
tyku ÅĤ
ro u
ĠBu zek
IV ATE
ĠDis aster
s etting
ĠSolic iting
ac to
ĠN os
Ġmet ropolitan
Ġexpect ations
6 32
Ġt ire
ĠSec ret
Ġenter tain
Ġkap csol
Ġlabel ing
Dav id
INT EN
Ġcoup le
Ġrapid ly
in ate
Ġme at
ĠF ind
Ġestable ce
96 4
ĠR i
ĠPr inting
Ġpre ference
Ġup lat
ar r
ĠRest ricted
en ne
ĠD ER
ji h
ĠG ollnisch
u elle
lam ation
Ġst rict
th oud
Ġ3 46
ĠS us
ĠPro v
ade v
Ġher o
ablish ments
ark e
ure l
C ity
Ġsw aps
Ġlik elihood
ol en
ĠKomis ie
AB L
ĠMar fil
Ġb ulk
Ġcons ensus
ig ation
Ġgreat ly
IN ING
)....................................... .
ĠInvest ments
ĊĠĠĠĠĠĠĠĠĠĠĠĠĠĠĠĠĠĠĠĠĠĠĠĠĠĠĠĠĠĠĠĠĠĠĠĠĠĠĠĠĠĠĠĠĠĠĠĠĠĠĠĠĠĠĠĠĠĠĠĠĠĠĠĠĠĠĠĠĠĠĠĠĠĠĠĠĠĠĠĠĠĠĠĠĠĠĠĠĠĠĠĠĠĠĠĠĠĠĠĠĠĠĠĠĠĠĠĠĠĠĠĠĠĠĠĠĠĠĠĠĠĠĠĠĠĠĠĠĠĠĠĠĠĠĠĠĠĠĠĠĠĠĠ Ġ
st yle
ĠB razil
app ly
Ġfl o
ĠE WR
9 14
art y
Ġdef ines
ĠIn cludes
amb io
ĠL is
am ounts
st ellung
ĠG omes
Ġv enture
Ġsubparagraph s
Ġgr ass
6 21
Im p
hic les
s al
E conom
ĠC od
ĠCommunaut Ã©
tit uting
ĠT esting
ast rop
Ġaffirm ative
8 26
Ġeffect u
bor ne
Ġtra ded
ĠÎ¼ g
Ġprod utos
ĠCL AD
ĠH ong
Ġvir us
ĠAy ala
ĠR ans
Ġvulner able
Ġge Ã¤nder
ell ner
-------- -
ĠBe let
r aciÃ³n
Ġcol leges
ant ages
ĠS L
Ġfl at
Ã¶k mark
Ġqual ifications
ĠS ession
G IN
Ġd etta
vÄĽ t
ĠS per
ĠF actors
Ġcirc uit
Ã©sÃ© re
ins p
Ġ4 28
ip e
ĠS hel
Ġf ron
ĠCons titu
Ġbet reffend
Ã¥ ende
inu ing
mÃ¤ ki
Ġaccompl ished
ĠPh ilipp
r ons
ĠPOL IC
ĠR Ã¥dets
ĠS r
Ġs ter
ĠK inder
Î³ Ïĩ
Rel ated
gr ants
Ġconver tible
f urther
ĠH u
Ġth or
ateg ories
Ġserv ic
Ġ2 77
Ġsubs ec
Ġpartic ul
ĠH Ã¶kmark
Ġ6 03
ig are
Ġro t
Ġun known
ĠL U
Ġver wend
zk ed
op ing
Ġ08 9060
ick i
over eign
Ġfest geleg
ĊĠĠĠĠĠĠĠĠĠĠĠĠĠĠĠĠĠĠĠĠĠĠĠĠĠĠĠĠĠĠĠĠĠĠĠĠĠĠĠĠĠĠĠĠĠĠĠĠĠĠĠĠĠĠĠĠĠĠĠĠĠĠĠĠĠĠĠĠĠĠĠĠĠĠĠĠĠĠĠĠĠĠĠĠĠĠĠĠĠĠĠĠĠĠĠĠĠĠĠĠĠĠĠĠĠĠĠĠĠĠĠĠĠĠĠĠĠĠĠĠĠĠĠĠĠĠĠĠĠĠĠĠĠĠĠĠĠĠĠĠĠĠĠĠ Ġ
8 12
Ġmay or
Ġf ear
Ġmeg hatÃ¡roz
9 19
Ġformer ly
uj ÃŃcÃŃ
an om
ti sk
ĠMed ia
ĠbÃ©nÃ© fic
ĠP ilot
cont ain
Sec retaries
Ã¤m Ã¤n
ĠY ORK
z b
RA Y
ĠF onds
Ġ.................................................................................................................................................................................. .
Î» Î¿Ïħ
ĠCO LL
Ġaltern ate
Ġ7 20
9 88
Ġcorrec tive
ĠA V
Ġconver ted
en ants
iÅ¾ vel
en tit
ĠN ebraska
Äĵ jum
ĠKomis ijos
ĠR ight
Ġvari ation
UN E
Ġ29 2
ĠD iscussion
ĠKomis ije
Ġresc ind
ad av
al de
ci as
Î §
Ġo stat
L ouis
M ail
Ġliv estock
ĠHer ranz
19 86
Ġestab ele
Ġupd ates
Ġac companied
ued a
ÏĥÎµ ÏīÏĤ
elect ric
cond itions
ĠBen efit
Ð ·
Ġ($ )
ĠR oche
ĠW irtschafts
Ġath letes
l t
Ġ4 73
Ġr u
reg elen
Ġmont ant
O B
Ġcust ody
are st
ĠW hether
y sk
om er
ĠT F
Ġdem ands
Ġrep urchase
ĠH oll
ĠF ebruar
b uilding
Ġlog ic
del en
ir ls
Åº mi
Ġproj ections
ĠR Ã©publique
it ects
ĠM ato
ĠAd d
j ed
Ġv se
ĠCl inical
Ġcomp ounds
administ ration
ĠApplic ations
ĠN AME
Ġadop ting
Ġunivers ities
M ORT
ÏĦÎµ Ïģ
Ġautom atic
do i
c en
Ġnu o
ĠÎ¼ÎŃ ÏĦ
00 10
ĠEwrop ea
ĠPres idential
ĠAt mospheric
pow ied
ĠT aiwan
ĠCon su
Ġbil ateral
Ġc et
Ċĉĉĉĉĉĉĉ Ċĉĉĉĉĉĉ
r Ã¤n
ĠF Ã¦llessk
8 24
fore ign
Ġ4 26
Ġver tical
Ġair planes
Ġprogram ming
8 34
Ġnegoti ated
y cz
Ġ4 57
Ġmed io
Ġf echa
ĠGovernment al
Î´ Î¯
Ġresearch ers
Ġ4 58
c f
ĠÎºÎ±Î¸ Î¿
gle ich
Ġ ĠĊĠĠĠĠĠĠĠĠĠĠĠĠĠĠĠĠĠĠĠĠĠĠĠĠĠĠĠĠĠĠĠĠĠĠĠĠĠĠĠĠĠĠĠĠĠĠĠĠĠĠĠĠĠĠĠĠĠĠĠĠĠĠĠĠĠĠĠĠĠĠĠĠĠĠĠĠĠĠĠĠĠĠĠĠĠĠĠĠĠĠĠĠĠĠĠĠĠĠĠĠĠĠĠĠĠĠĠĠĠĠĠĠĠĠĠĠĠĠĠĠĠĠĠĠĠĠĠĠĠĠĠĠĠĠĠĠĠĠĠĠĠĠĠĠĠĠĠĠĠĠĠĠĠĠĠĠĠĠĠĠĠĠĠĠĠĠĠĠĠĠĠĠĠĠĠĠĠĠĠĠĠĠĠĠĠĠĠĠĠĠĠĠĠĠĠĠĠĠĠĠĠĠĠĠĠĠĠĠ
ĠN umbers
Ġp og
19 80
ĠTur mes
P ORT
em ale
ĠPar is
na ire
el ung
Ġp ake
d rag
ĠSov iet
Ġ ĠĠĠĠĊĠĠĠĠ
ĠSvet a
ĠI F
Ġz v
6 72
ĠFAS B
ĠTele phone
Ġâ Ī
oj an
Ġmus ÃŃ
Ġlid staten
Ġad mission
Marg allo
ĠE k
z an
FIL ES
Åºmi uk
ĠEQU ITY
Ġo ught
Ġw atch
in ar
Ġp ÃŃs
ef in
ĠKu Åºmiuk
Ġ ĠĠĠĠĠĊĠĠĠĠ
Com merce
Ġa w
hem ical
Ġvast av
lig het
am ma
ĠT reas
N T
9 26
F oundation
Ġ................................................................................................................................................................................... .
ĠParticip ants
ÃŁ en
Ġconst ra
c ohol
ĠTar and
Ġposts econdary
AD A
Ġc Ã©l
nied z
Ġproced Å«
ell Ã¤
ĠtÃ½ k
ĠÎ¬ ÏģÎ¸
ĠAdv anced
tim a
Ã¦ l
ĠH art
Ä« s
ĠFj ellner
9 89
ue ur
Ġd ict
Ind ividual
Ġequ ip
Ïģ Ïħ
ni os
ĠP resent
Ġend angered
red ited
Ġint ens
bal ance
P lease
Ġdire ttiva
Ġlah ko
Ġ3 23
ij i
Ġap resent
Ins urance
ĠM era
Ã¡rÃ³ ka
il ton
S lov
Ġdif er
Sub title
Ġmo Å¾
Ġsupervis ory
P rec
V is
Ġcomplex ity
ili ar
r ut
ĠL amb
Ġcommunaut aire
ĠO K
8 17
Ġdec yz
ĠUn ie
ĠDu ties
ite ment
st adt
Ġra ising
Ġm ÃŃn
Ġmar ried
Ġj oka
G re
1 0000
Ġ ĠĠĠĠĠĠĊĠĠĠĠ
ĠJ Ã¡rÃ³ka
Ġc ry
Ã¤t z
th ink
Ġ ĠĠĠĠĠĠĠĊĠĠĠĠ
ĠConsu egra
orsz Ã¡g
ant ry
Ġre ch
ut ely
Î² Î¬
ĠB ed
ĠPro ceedings
Ġbound ed
Ġad ott
Ġded uct
au j
r Ã³
ĠD at
Ġsh ift
F EDERAL
osp ace
Ġa head
Ġaud itor
anci es
ĠTer mination
ĠR at
St ud
Ġ ĠĠĠĠĠĠĠĠĊĠĠĠĠ
Ġinstru mental
ĠrÃ¡m ci
Ġcual quier
Ġpred ict
Ġ ĠĠĠĠĠĠĠĠĠĊĠĠĠĠ
Î¼ÎŃ Î½Î¿
th reat
CO ME
gra du
Ġtechn olog
Ġc rit
n ym
Ġqu anto
Ġdeath s
nit ude
off ice
sk is
9 22
am ino
min ent
ot Äģ
id ro
Ar ticolo
ĠPUR CH
port ed
l ade
Ġto ute
Ġvalam int
Ġvacc ine
bra uch
ĠH ear
Ħ Ĩ
Ġhealth y
ĠNO AA
Ġincident al
Ġz ve
as p
n ist
ount ed
Äģci ja
pport unities
ĠWork force
Ġke h
ĠB ell
ĠCh risti
Ġme er
Ġt ap
Ġle ased
ĠÎļ Î¿Î¹Î½Î¿
Ġf illed
ob j
R ate
ï ĦĨ
Ġsoll ten
Ġdis adv
Ġrefer enced
be hÃ¶r
f as
Ġconf erees
Ġsec ret
)........................................ .
EC TR
Ġwh atever
Ġstraips nis
vi ol
Ïĥ Î¿
Ġtherap y
Ġt ried
ot opoulos
ĠO ber
Ġdistrib ute
Ġoutl ined
EL S
ĠH UMAN
Ġ6 59
Ġ ĠĠĠĠĠĠĠĠĠĠĊĠĠĠĠ
c tic
Ġapplic ability
ĠE M
ĠnÃµ ukogu
Ġaccording ly
Ġ ĠĠĠĠĠĠĠĠĠĠĠĊĠĠĠĠ
Ġhapp ened
ĠC over
ĠAn ti
9 23
id is
17 25
Ġexha ust
Ġdic embre
Ġmon etary
Ġvolati lity
ĠW ednesday
AM ENT
ĠUs ing
8 19
Ġ ĠĠĠĠĠĠĠĠĠĠĠĠĊĠĠĠĠ
ĠM emorial
b in
Ġ.................................................................................................................................................................................... .
v ik
ĠK auf
Ġalloc ations
ĠRE ID
ĠCONT ROL
v ai
n ance
en tic
T wo
Ã ĥ
o ep
elle m
ĠC PT
ub s
Ġ6 20
ĠFD IC
Ġtyp ical
Ã©t el
Ã¤Ã¤t teen
Ã¤Ã¤tteen mÃ¤ki
ok at
ĠMor in
gr id
Ġ4 27
ĠB A
j ecuciÃ³n
ĠBre yer
ĠR EF
Don ald
H AL
z ik
Ġvis a
ĠTr uck
ĠR oman
ĠS earch
Ġrev olving
Ġbl ank
ĠC e
Ã¼gy i
Ġ3 44
ĠW AR
c iones
ĠEff ect
ĠBEN EF
FI ED
Ġ4 43
uste es
Ġpla zo
Ġ ĠĠĠĠĠĠĠĠĠĠĠĠĠĊĠĠĠĠ
EM IS
ĠL ulling
lo om
ira ble
Ġ ĠĠĠĠĠĠĠĠĠĠĠĠĠĠĊĠĠĠĠ
Ġeconom ically
Ġ ĠĠĠĠĠĠĠĠĠĠĠĠĠĠĠĊĠĠĠĠ
Ġvers ch
u ments
P our
Ġperson nes
Ġ ĠĠĠĠĠĠĠĠĠĠĠĠĠĠĠĠĊĠĠĠĠ
ĠCamp bell
Ġ3 87
Ġcorrect ed
v ig
ĠEar ly
P ages
ĠR amos
def ined
Ġ ĠĠĠĠĠĠĠĠĠĠĠĠĠĠĠĠĠĊĠĠĠĠ
Ġ ĠĠĠĠĠĠĠĠĠĠĠĠĠĠĠĠĠĠĊĠĠĠĠ
9 28
Ġ ĠĠĠĠĠĠĠĠĠĠĠĠĠĠĠĠĠĠĠĊĠĠĠĠ
Ġsus cep
R IS
ĠAt kins
ĠC ad
Ġ3 52
z ioni
on ne
Ġzgod nie
ĠLund gren
im enti
Ġ ĠĠĠĠĠĠĠĠĠĠĠĠĠĠĠĠĠĠĠĠĊĠĠĠĠ
Ã¶ ld
amis esta
Ġ ĠĠĠĠĠĠĠĠĠĠĠĠĠĠĠĠĠĠĠĠĠĊĠĠĠĠ
Ġhun ting
m ag
Ġ ĠĠĠĠĠĠĠĠĠĠĠĠĠĠĠĠĠĠĠĠĠĠĊĠĠĠĠ
ĠTh ursday
ĠÎº Î¿Î¹Î½
Ġ ĠĠĠĠĠĠĠĠĠĠĠĠĠĠĠĠĠĠĠĠĠĠĠĊĠĠĠĠ
Ġexceed ed
ven tions
Ġ ĠĠĠĠĠĠĠĠĠĠĠĠĠĠĠĠĠĠĠĠĠĠĠĠĊĠĠĠĠ
9 87
z ien
tra ining
Ġ ĠĠĠĠĠĠĠĠĠĠĠĠĠĠĠĠĠĠĠĠĠĠĠĠĠĊĠĠĠĠ
Ġre produc
Ġ ĠĠĠĠĠĠĠĠĠĠĠĠĠĠĠĠĠĠĠĠĠĠĠĠĠĠĊĠĠĠĠ
Ġ ĠĠĠĠĠĠĠĠĠĠĠĠĠĠĠĠĠĠĠĠĠĠĠĠĠĠĠĊĠĠĠĠ
ĠEuropÃ¤ ische
Ġ ĠĠĠĠĠĠĠĠĠĠĠĠĠĠĠĠĠĠĠĠĠĠĠĠĠĠĠĠĊĠĠĠĠ
Ġ5 60
Ã¡ ty
Ġsub contract
6 77
Ġ ĠĠĠĠĠĠĠĠĠĠĠĠĠĠĠĠĠĠĠĠĠĠĠĠĠĠĠĠĠĊĠĠĠĠ
Ġhe ating
Ġoff shore
Ġ ĠĠĠĠĠĠĠĠĠĠĠĠĠĠĠĠĠĠĠĠĠĠĠĠĠĠĠĠĠĠĊĠĠĠĠ
oc a
9 49
Ġpr as
6 43
Ġ ĠĠĠĠĠĠĠĠĠĠĠĠĠĠĠĠĠĠĠĠĠĠĠĠĠĠĠĠĠĠĠĊĠĠĠĠ
p ent
l ated
8 28
ĠJ Ã¤Ã¤tteenmÃ¤ki
Ġ ĠĠĠĠĠĠĠĠĠĠĠĠĠĠĠĠĠĠĠĠĠĠĠĠĠĠĠĠĠĠĠĠĊĠĠĠĠ
Ġmeas uring
ĠCAR E
PL ED
W y
t ory
Ġ ĠĠĠĠĠĠĠĠĠĠĠĠĠĠĠĠĠĠĠĠĠĠĠĠĠĠĠĠĠĠĠĠĠĊĠĠĠĠ
Ġval Ã³
Ġhere unto
ĠOS HA
Ġfe ature
Ġ ĠĠĠĠĠĠĠĠĠĠĠĠĠĠĠĠĠĠĠĠĠĠĠĠĠĠĠĠĠĠĠĠĠĠĊĠĠĠĠ
Ġrecogn izing
f ill
par ticular
Ġfin s
19 85
Ġ ĠĠĠĠĠĠĠĠĠĠĠĠĠĠĠĠĠĠĠĠĠĠĠĠĠĠĠĠĠĠĠĠĠĠĠĊĠĠĠĠ
io res
FL S
in ol
Ġel abor
Ġ ĠĠĠĠĠĠĠĠĠĠĠĠĠĠĠĠĠĠĠĠĠĠĠĠĠĠĠĠĠĠĠĠĠĠĠĠĊĠĠĠĠ
in el
ty ch
OC I
ĠV O
Ġ ĠĠĠĠĠĠĠĠĠĠĠĠĠĠĠĠĠĠĠĠĠĠĠĠĠĠĠĠĠĠĠĠĠĠĠĠĠĊĠĠĠĠ
ĠRod rig
IN O
H M
E HS
Ġh oz
Ġ ĠĠĠĠĠĠĠĠĠĠĠĠĠĠĠĠĠĠĠĠĠĠĠĠĠĠĠĠĠĠĠĠĠĠĠĠĠĠĊĠĠĠĠ
Coun ter
Ġsal mon
Ġ ĠĠĠĠĠĠĠĠĠĠĠĠĠĠĠĠĠĠĠĠĠĠĠĠĠĠĠĠĠĠĠĠĠĠĠĠĠĠĠĊĠĠĠĠ
ĠA ge
re ports
endit ures
ol z
Ġo tras
IV ERS
ICHA EL
ator i
Å¡ ev
w irtschaft
ĠWEL FARE
ĠR oh
Ġtas ks
ĠRe vised
izz azione
Ġend s
Ġhundred s
Ġind i
ju Äį
Ġjanu ari
vi Äį
ult y
Ġy es
s lag
ĠHaw ai
l ings
Ġ..................................................................................................................................................................................... .
Ġref iere
ĠSTAND ARDS
ĠJ usti
z ec
ĠH et
DEPARTMENT AL
ĠgÃ©nÃ© ral
Ġobj ec
g us
group s
B EL
Ġpes ticide
ÑĢ Ð°
ust en
Ġrestric tion
Ġ ĠĠĠĠĠĠĠĠĠĠĠĠĠĠĠĠĠĠĠĠĠĠĠĠĠĠĠĠĠĠĠĠĠĠĠĠĠĠĠĠĊĠĠĠĠ
Ġrem ote
ĠSav ings
ĠP RE
Ã¡ri os
INTEN ANCE
PS ON
Ġhere under
ÏĦÎ¹Îº Î¿Ïį
e ys
C ustom
ĠAG RE
Ġdiscont inued
T reasury
6 78
Ġ3 56
Ġve h
Ïį Î½
Ġo v
ĊĊĊĊ Ċ
a Å¾
ith ovÃ¡
ĠINTER EST
Ġremed y
Ġconfidential ity
it ative
Ġl od
op ort
provid ing
urric ane
IN ST
ĠÃ© qu
f ried
Ġview ed
int ett
f ile
ĠÎŃ Î½
Ġreserv oir
ĠF RA
Ġ ĠĠĠĠĠĠĠĠĠĠĠĠĠĠĠĠĠĠĠĠĠĠĠĠĠĠĠĠĠĠĠĠĠĠĠĠĠĠĠĠĠĊĠĠĠĠ
ĠDem et
9 36
ĠMark ets
G ood
ĠSpr ings
ts ch
rid ges
er ne
990 60
ĠÏĮÏĢ ÏīÏĤ
Î»Î¿ ÏĤ
ĠTRA DE
Ġs ido
i ello
8 18
er et
V III
ĠDis ability
d at
St atus
ENS US
iti vity
ĠRo ithovÃ¡
sh own
f are
Ġw are
ĠS AM
ĠF alls
eff ect
Ġslight ly
G old
ĠN ET
Ġocc asion
Ġprz ep
Ġmul til
h uman
21 00
av ia
ÏĨ Îµ
ĠVer he
and ere
Ġdifficult y
Bal ance
Ġtw ice
oul as
Ġ ĠĠĠĠĠĠĠĠĠĠĠĠĠĠĠĠĠĠĠĠĠĠĠĠĠĠĠĠĠĠĠĠĠĠĠĠĠĠĠĠĠĠĊĠĠĠĠ
ag s
Ġconsist ency
Ġatbil st
R echts
opim uksen
def ault
ĠF oster
Ġer ity
Ġpre cip
c as
ĠH ab
19 74
in ves
ĠÄįl ena
Ġshe ll
ĠAdjust ment
ue vo
ra Å¡
Ġhere of
ĠKaz ak
ĠPad omes
Î¸ Î½
ĠInc orporated
la i
t m
ĠDSK B
ĠvÃ© hic
Ġ4 83
rik ienÄĹ
Ġs olo
ĠIn ves
ĠS Äħ
8 49
Engine ers
app ing
Ã¸ d
re te
z gl
Ġco Ã»
Fin ally
Ġveget ation
6 41
Ġt Ãµ
te f
z at
Ġgroup e
Ġrelati vas
Ã¨ mes
Ġac ute
J ackson
ercenti les
do or
Ġw onder
ĠH OUR
ĠPro jects
Ġpot reb
ï Ĥ
Ġ...................................................................................................................................................................................... .
N av
ia ire
Ġz aw
ÄĻ dz
Ġatt ract
ĠD uty
nie j
Ġaut re
consider ed
j ung
s ional
ĠB rem
S N
ĊĠĠĠĠĠĠĠĠĠĠĠĠĠĠĠĠĠĠĠĠĠĠĠĠĠĠĠĠĊĠĠĠĠĠĠĠĠĠĠĠĠĠĠĠĠĠĠĠĠĠĠĠĠĠĠĠĠĠĠĠĠĊĠĠĠĠĠĠĠĠĠĠĠĠĠĠĠĠĠĠĠĠĠĠĠĠĠĠĠĠĊĠĠĠĠĠĠĠĠĠĠĠĠĠĠĠĠĠĠĠĠĠĠĠĠ ĊĠĠĠĠĠĠĠĠĠĠĠĠĠĠĠĠĠĠĠĠĠĠĠĠĊĠĠĠĠĠĠĠĠĠĠĠĠĠĠĠĠĠĠĠĠĠĠĠĠĠĠĠ
ĠPre cision
P i
ĠMet ropolitan
Ġinvest ed
l le
Ġ ĠĠĠĠĠĠĠĠĠĠĠĠĠĠĠĠĠĠĠĠĠĠĠĠĠĠĠĠĠĠĠĠĠĠĠĠĠĠĠĠĠĠĠĊĠĠĠĠ
z ed
Ġwe iter
A us
ie le
n je
\] .
Ġunders tood
ĠHarb our
9 34
Ġtemper atures
V II
ĠHo uston
Ġyhteis Ã¶n
Ġrozhod nutÃŃ
Ġcar act
Ġcon clus
Ġmamm als
Ġ6 04
Ġappropri ately
' d
j p
rel ations
ĠErn st
reed ing
Ġste un
ida e
T rib
ĠSw oboda
LE G
Ġp ier
ac ia
Ã¤Ã¤r Ã¤
Ġtransport e
Ġp Ã©n
kt Ä«
Ġg ame
Ġv ice
e ing
s tig
Ġ ĠĊĠĠĠĠĠĠĠĠ
Ġc ast
akk ula
Ġown s
ĠMc Carthy
8 22
f uel
Ġ4 95
fel der
Ã¡m b
Ġco pper
s ign
int Ã©r
az ard
k ay
Ġel jÃ¡r
ÄĭiÅ¼ joni
Ġborrow ers
c arbon
in imo
Ġk od
Ġj ist
ĠW AL
l arg
ĠPart ner
Ġcz ÅĤonkowsk
ĠE c
7 76
Ġt el
nex t
s erve
Äį io
Ġemploy ing
p us
Ġ3 81
Ġassemb ly
ti st
Ġa x
ĠPR FLS
Dav is
Ġ5 43
iss Ã¤
Ġt eljes
Ġdec ade
ak o
ĠCav ada
zn ac
ĠâĢĵâĢĵâĢĵâĢĵâĢĵ âĢĵ
igh th
Ġexact ly
ĠM M
res ults
Ġap oy
Ġdest ination
Ġaccur ately
se ver
ĠL ONG
C a
Ġdef end
Ġst orm
Ġatt ended
ĠAR MY
cri mination
ĠGA AP
ĠintÃ© zked
Ð ³
Ġar ise
Ã¼h le
Ġam pl
ĠJ ensen
Ġ ĠĠĠĠĠĠĠĠĠĠĠĠĠĠĠĠĠĠĠĠĠĠĠĠĠĠĠĠĠĠĠĠĠĠĠĠĠĠĠĠĠĠĠĠĊĠĠĠĠ
ul ating
lic e
ĠKla ÃŁ
Ġ3 48
ur ga
an os
Ġcontr ast
ĠC V
o ja
ob e
Ã¡ ÅĻ
techn ology
f uture
Ġp Ãª
Ġas king
B efore
ĠN ap
ĠCon duct
K K
pos e
ĠProcess ing
Ġg one
6 31
Ġ....................................................................................................................................................................................... .
in ternational
ĠR us
pr ice
un til
s ions
ĠSA F
Ġ** )**
ĠREL ATIONS
ĠWill mott
niec Ä«bas
Ñģ ÑĤ
Â ©
j ury
Ġwid ely
ĠBiel an
ĠStat utory
9 74
iduci ary
Ġ5 85
iv i
a per
201 01
ĠComun itÃł
R et
Ġissu ers
ĠE V
der ung
â ĸ
Ġcontin uation
8 29
ĠL LP
Ġrev ers
ro le
Ġapplic ables
Georg ia
ĠV eg
Ġsus ij
Ġ4 53
Ġrec ess
n olog
ĠS anc
ex cluding
Ġb Ã¡s
Ġun o
Ġw rote
ÏĦÎ± Î½
at ti
ĠItal y
ĠLe ader
SI DE
ĠTh en
G D
ĠOr leans
Ġa tit
ti ous
ur ances
ĠT akkula
Ġnorm ally
ĠHa ug
ĠVer mont
m or
ĠC anyon
Ġ5 95
st an
ĠBl ock
z za
ĠRe im
Ġst a
ons tige
s an
ÏĥÎ¹ Î¼Î¿
o il
f our
eschÃ¤ ft
b asis
ĠAy uso
Ġ6 55
Ġs Ã£o
Ġiniti ate
Ġ3 49
alle l
Ġin z
qu elle
Ġinstall ations
ĠPRO J
H K
Ġfound ation
est Ã¤
ly n
ĠSee ber
EX PEND
ÃŃk ovÃ¡
Ġprof es
Î¹Ïĥ Î¼Î¿Ïį
Ġm ale
P AR
Ġexam iners
ĠBel der
par ti
Ġcalcul ating
Ġwa ived
Ġsc ore
ok ra
Ġ29 3
se x
Ġ ĠĠĠĠĠĠĠĠĠĠĠĠĠĠĠĠĠĠĠĠĠĠĠĠĠĠĠĠĠĠĠĠĠĠĠĠĠĠĠĠĠĠĠĠĠĊĠĠĠĠ
Ġc uk
ĠBehÃ¶r den
bl att
ian n
ist ed
z iel
ĠLeb ens
AN I
Ġrev ising
ĠUn ions
Ġv Ã¤h
Ġand ra
ĠCres po
Ġcomplain ts
Ġacceler ated
ĠÃ¥ r
Ġimp aired
D OM
Ġpres ervation
ĠUred be
Ġmell Ã©k
ĠÎ´ Î·Î¼Î¿
ĠSt ol
Ġsub po
ĠirÃ¡ny elv
Ġredesign ating
c ual
ĠPat ent
Ġ0 99060
ĠR anking
ock ets
9 44
Ġ8 47
ĠHed h
es i
IC Ag
Ġs Ã¤
sche dule
Ġpiel ik
Ġworld wide
s ay
Ġinvestig aciÃ³n
c ode
Ġinc idents
res ources
ĠSch utz
ĠZ an
Im port
Ïĩ Î®
p ont
Ã¥ ll
ĠFl ood
s titution
to gether
Ġindepend ence
ĠB AR
Ġj av
Ġevalu aciÃ³n
zm arek
Ġapp rais
ieg Ä§
Ġg lass
Ċĉĉĉĉĉĉĉĉ ĉĉĉĉĉĉĉĉ
Ġacknow ledge
Ġ310 9
Ġ........................................................................................................................................................................................ .
Ġspec ifies
ĠKac zmarek
Ġ6 79
AS ED
Ġindic ation
b ru
STR UCTION
ĠOn ce
ĠUl mer
Ġ ĠĠĠĠĠĠĠĠĠĠĠĠĠĠĠĠĠĠĠĠĠĠĠĠĠĠĠĠĠĠĠĠĠĠĠĠĠĠĠĠĠĠĠĠĠĠĊĠĠĠĠ
Ġ ellen
9 16
Ġborrow ings
IS LA
ENS ATION
ĠCo ordination
Ġprof ession
IFOR NIA
consider ation
Ġle id
ĠÎ Ŀ
be acon
N EY
~~ ~~
est ens
ĠÃ©conom ique
id el
Pro ced
Ġlist a
State ment
j m
Ċĉ ĊĠĠĠĠĠĠĠĠĠĠĠ
ĠB iden
Ġtoep assing
U se
ĠJ eg
Ġrec all
ĠAr ts
ĠHistor ic
Ġin ability
Ġro k
R oy
ÄĮ len
ĠS et
ĠE P
ĠHann an
ĠSp ole
O OL
ĠOb i
Ġmer ely
Ġp uh
ĠRe fer
ĠCap oulas
ĠH ydro
Ġ7 05
Z D
ol k
ĠRest ated
it ude
Ġinc orpor
Ã¼cks ichtig
um is
ure ll
Ġpr ÃŃs
ĠPeter le
i atric
ed ed
ĠG ov
ĠÎ± ÏĨÎ¿ÏģÎ¬
Ġman ual
Î»Î» Î·
e in
ĠMau ro
Ġrespond ing
Ġgra in
et un
ug las
urs os
ĠIn struction
Ġext reme
19 78
9 31
9 73
T est
Ġpip e
Medic are
ĠC N
Ġn Ã¡v
iet en
tis che
Ġless er
Ġkom ission
sequ ent
ĠU pper
Ġsom ew
Ġanticip ate
ber ts
sh ares
e valu
Ġm Ã¤Ã¤
ist u
Ġ ult
Ġ ĠĠĠĠĠĠĠĠĠĠĠĠĠĠĠĠĠĠĠĠĠĠĠĠĠĠĠĠĠĠĠĠĠĠĠĠĠĠĠĠĠĠĠĠĠĠĠĊĠĠĠĠ
ite iten
ver kehr
Ġconfirm ation
Ġ4 46
ĠHig her
A bs
ick er
Ġme j
Ġrest rict
Ġgar an
ĠE A
erc icio
med ical
Ġassign or
ĠPres edo
ÃŃ vel
F ig
9 86
Elect rical
Ġval ued
ĠB auer
y ll
ins ured
Î³ Î³
ĠT AR
Î® Îº
Ġsz olgÃ¡l
Ġ rough
ĠPatric iello
9 18
ĠAng aben
te urs
m ic
100 000
anti ll
Ġcz ÄĻ
Ġman ip
ĠM SA
s ob
Ġed u
ĠSk inner
Ġinter ior
1 200
ĠTar iff
z ahl
7 79
ati vas
ĠTRE AT
ard e
Ġpod Ä¾a
ull ivan
ĠRES ERV
Ġcov enants
Ã Ŀ
Ġ ĠĠĠĠĠĠĠĠĠĠĠĠĠĠĠĠĠĠĠĠĠĠĠĠĠĠĠĠĠĠĠĠĠĠĠĠĠĠĠĠĠĠĠĠĠĠĠĠĊĠĠĠĠ
)......................................... .
k us
Ċ ĊĠĠĠĠĠĠĠĠĠ
cer ely
ec ke
ĠSal v
Ġf ranch
Ġl enders
ar Ãł
ĠP B
ur ate
Ġprzyp ad
[...]
