{"<|start|>":0,"<|end|>":1,"<|pad|>":2,"<|unk|>":3,"<|sep|>":4,"<|cls|>":5,"<|mask|>":6,"<|system|>":7,"</|system|>":8,"<|user|>":9,"</|user|>":10,"<|instruction|>":11,"</|instruction|>":12,"!":13,"\"":14,"#":15,"$":16,"%":17,"&":18,"'":19,"(":20,")":21,"*":22,"+":23,",":24,"-":25,".":26,"/":27,"0":28,"1":29,"2":30,"3":31,"4":32,"5":33,"6":34,"7":35,"8":36,"9":37,":":38,";":39,"<":40,"=":41,">":42,"?":43,"@":44,"A":45,"B":46,"C":47,"D":48,"E":49,"F":50,"G":51,"H":52,"I":53,"J":54,"K":55,"L":56,"M":57,"N":58,"O":59,"P":60,"Q":61,"R":62,"S":63,"T":64,"U":65,"V":66,"W":67,"X":68,"Y":69,"Z":70,"[":71,"\\":72,"]":73,"^":74,"_":75,"`":76,"a":77,"b":78,"c":79,"d":80,"e":81,"f":82,"g":83,"h":84,"i":85,"j":86,"k":87,"l":88,"m":89,"n":90,"o":91,"p":92,"q":93,"r":94,"s":95,"t":96,"u":97,"v":98,"w":99,"x":100,"y":101,"z":102,"{":103,"|":104,"}":105,"~":106,"¡":107,"¢":108,"£":109,"¤":110,"¥":111,"¦":112,"§":113,"¨":114,"©":115,"ª":116,"«":117,"¬":118,"®":119,"¯":120,"°":121,"±":122,"²":123,"³":124,"´":125,"µ":126,"¶":127,"·":128,"¸":129,"¹":130,"º":131,"»":132,"¼":133,"½":134,"¾":135,"¿":136,"À":137,"Á":138,"Â":139,"Ã":140,"Ä":141,"Å":142,"Æ":143,"Ç":144,"È":145,"É":146,"Ê":147,"Ë":148,"Ì":149,"Í":150,"Î":151,"Ï":152,"Ð":153,"Ñ":154,"Ò":155,"Ó":156,"Ô":157,"Õ":158,"Ö":159,"×":160,"Ø":161,"Ù":162,"Ú":163,"Û":164,"Ü":165,"Ý":166,"Þ":167,"ß":168,"à":169,"á":170,"â":171,"ã":172,"ä":173,"å":174,"æ":175,"ç":176,"è":177,"é":178,"ê":179,"ë":180,"ì":181,"í":182,"î":183,"ï":184,"ð":185,"ñ":186,"ò":187,"ó":188,"ô":189,"õ":190,"ö":191,"÷":192,"ø":193,"ù":194,"ú":195,"û":196,"ü":197,"ý":198,"þ":199,"ÿ":200,"Ā":201,"ā":202,"Ă":203,"ă":204,"Ą":205,"ą":206,"Ć":207,"ć":208,"Ĉ":209,"ĉ":210,"Ċ":211,"ċ":212,"Č":213,"č":214,"Ď":215,"ď":216,"Đ":217,"đ":218,"Ē":219,"ē":220,"Ĕ":221,"ĕ":222,"Ė":223,"ė":224,"Ę":225,"ę":226,"Ě":227,"ě":228,"Ĝ":229,"ĝ":230,"Ğ":231,"ğ":232,"Ġ":233,"ġ":234,"Ģ":235,"ģ":236,"Ĥ":237,"ĥ":238,"Ħ":239,"ħ":240,"Ĩ":241,"ĩ":242,"Ī":243,"ī":244,"Ĭ":245,"ĭ":246,"Į":247,"į":248,"İ":249,"ı":250,"Ĳ":251,"ĳ":252,"Ĵ":253,"ĵ":254,"Ķ":255,"ķ":256,"ĸ":257,"Ĺ":258,"ĺ":259,"Ļ":260,"ļ":261,"Ľ":262,"ľ":263,"Ŀ":264,"ŀ":265,"Ł":266,"ł":267,"Ń":268,"Ġt":269,"Ġa":270,"er":271,"in":272,"on":273,"en":274,"he":275,"ti":276,"re":277,"__":278,"Ġo":279,"es":280,"Ġthe":281,"an":282,"or":283,"Ġs":284,"Ġp":285,"al":286,"is":287,"at":288,"ed":289,"Ġd":290,"ar":291,"Ġc":292,"tion":293,"it":294,"Ġof":295,"nd":296,"ro":297,"Ġf":298,"____":299,"Ġin":300,"ent":301,"Ġ1":302,"ing":303,"Ġ|":304,"ic":305,"00":306,"Ġb":307,"Ġw":308,"le":309,"Ġand":310,"Ġm":311,"Ġto":312,"Ġč":313,"Ġ2":314,"as":315,"âĢ":316,"ec":317,"ĠS":318,"--":319,"Ġre":320,"om":321,"ĠC":322,"ation":323,"el":324,"ur":325,"il":326,"ĠA":327,"us":328,"Ġe":329,"Ġth":330,"Ġl":331,"Ġn":332,"ment":333,"Ġ(":334,"et":335,"os":336,"________":337,"un":338,"id":339,"ac":340,"ĊĠ":341,"ĉĉ":342,"ol":343,"ĠT":344,"ĠP":345,"Ġ3":346,"ul":347,"ĠM":348,"Ġh":349,"Ġde":350,"ĊĠĠ":351,"ĠI":352,"Ġfor":353,"ut":354,"ĊĠĠĠ":355,"Ġpro":356,"ra":357,"ce":358,"ve":359,"ch":360,"ot":361,"ri":362,"ĠR":363,"ers":364,"ĊĠĠĠĠ":365,"ĠD":366,"01":367,"Ġv":368,"ĠF":369,"ĠE":370,"ate":371,"im":372,"st":373,"Ġcon":374,"ion":375,"ad":376,"Ġor":377,"qu":378,"ab":379,"em":380,"âĢĵ":381,"th":382,"Ã©":383,"Ġ4":384,"Ġg":385,"----":386,"Ġbe":387,"ĠB":388,"ter":389,"ĠN":390,"ĊĠĠĠĠĠ":391,"Ġsu":392,"res":393,"ig":394,"Ġon":395,"ĊĠĠĠĠĠĠ":396,"ag":397,"Ġas":398,"pp":399,"Ġis":400,"ir":401,"Ġan":402,"ts":403,"ay":404,"am":405,"ĠL":406,"Ġthat":407,"and":408,"ow":409,"ĊĠĠĠĠĠĠĠ":410,"ly":411,"und":412,"ï¿":413,"end":414,"ith":415,"Ġ.":416,"Ġ5":417,"ct":418,"ï¿¾":419,"ĠO":420,"ĠH":421,"od":422,"ist":423,"ver":424,"________________":425,"ĊĠĠĠĠĠĠĠĠ":426,"ci":427,"Ġcom":428,"est":429,"um":430,"ess":431,"ud":432,"Ġst":433,"if":434,"ĊĠĠĠĠĠĠĠĠĠ":435,"Ġby":436,"ĠG":437,"ity":438,"Ġ6":439,"Ġwith":440,"ie":441,"Ġex":442,"ort":443,"ill":444,"Ġ0":445,"Ġk":446,"ant":447,"ĊĠĠĠĠĠĠĠĠĠĠ":448,"ĠW":449,"Ġal":450,"ĠÎ":451,"ĠU":452,"ff":453,"ĊĠĠĠĠĠĠĠĠĠĠĠ":454,"Ġwh":455,"ĉĉĉĉ":456,"se":457,"Ġen":458,"Ã¡":459,"ĠSt":460,"all":461,"ber":462,"ĠâĢĵ":463,"Ã¤":464,"Ġ200":465,"âĢĶ":466,"Ġy":467,"ans":468,"Ġ7":469,"Ġr":470,"ĊĠĠĠĠĠĠĠĠĠĠĠĠ":471,"iv":472,"02":473,"te":474,"Ġare":475,"ich":476,"##":477,"for":478,"ations":479,"ire":480,"âĢĻ":481,"ere":482,"ak":483,"op":484,"Ġthis":485,"ary":486,"Î¿":487,"Ġ8":488,"10":489,"oc":490,"ÏĦ":491,"ection":492,"ain":493,"Ġpar":494,"ep":495,"ĊĠĠĠĠĠĠĠĠĠĠĠĠĠ":496,"99":497,"Ġac":498,"ĠCom":499,"Î±":500,"ated":501,"ub":502,"Ġsh":503,"able":504,"ĊĠĠĠĠĠĠĠĠĠĠĠĠĠĠ":505,"200":506,"ĠJ":507,"our":508,"**":509,"iz":510,"Ġat":511,"Ġapp":512,"Ġund":513,"ĠThe":514,"--------":515,"ĊĠĠĠĠĠĠĠĠĠĠĠĠĠĠĠ":516,"Ġnot":517,"ure":518,"lic":519,"rom":520,"ON":521,"cl":522,"Ġ9":523,"12":524,"Ġla":525,"up":526,"ard":527,"uc":528,"Ġj":529,"iti":530,"Î¹":531,"ge":532,"oun":533,"ĊĊ":534,"ance":535,"Ġad":536,"ments":537,"Ġ..":538,"erv":539,"ore":540,"ati":541,"ust":542,"ect":543,"Ġ...":544,"Ġle":545,"pl":546,"11":547,"Ġ-":548,"000":549,"ER":550,"ĠV":551,"ther":552,"ĠIn":553,"per":554,"Ġper":555,"Ġ201":556,"Ġ....":557,"ÃŃ":558,"ĊĠĠĠĠĠĠĠĠĠĠĠĠĠĠĠĠ":559,"ĠK":560,"ia":561,"Ġ.....":562,"Ġ......":563,"eg":564,"Ġit":565,"ear":566,"iss":567,"Ġ.......":568,"Ã³":569,"Ġres":570,"Ġ........":571,"age":572,"ĊĠĠĠĠĠĠĠĠĠĠĠĠĠĠĠĠĠ":573,"ap":574,"ov":575,"Ġ.........":576,"Ġsub":577,"Ġfrom":578,"Ġ10":579,"pos":580,"Ġ..........":581,"form":582,"ies":583,"Î½":584,"Ġ...........":585,"Ġun":586,"ell":587,"ug":588,"min":589,"ĊĠĠĠĠĠĠĠĠĠĠĠĠĠĠĠĠĠĠ":590,"EN":591,"Ġ............":592,"Ġ19":593,"use":594,"ice":595,"Ġ$":596,"Ġ.............":597,"ens":598,"Ġcont":599,"mit":600,"ES":601,"15":602,"ord":603,"Ġ..............":604,"Ġz":605,"tic":606,"Ġ...............":607,"ates":608,"13":609,"ition":610,"ĊĠĠĠĠĠĠĠĠĠĠĠĠĠĠĠĠĠĠĠ":611,"oul":612,"Ġ................":613,"to":614,"14":615,"Ġ.................":616,"ĊĠĠĠĠĠĠĠĠĠĠĠĠĠĠĠĠĠĠĠĠ":617,"Ġ..................":618,"TI":619,"Ġha":620,"Ġunder":621,"ik":622,"Ïģ":623,"vel":624,"Ġim":625,"Ġ...................":626,"og":627,"20":628,"19":629,"Ġ....................":630,"port":631,"art":632,"Ġhe":633,"________________________________":634,"Ġdes":635,"50":636,"eral":637,"Îµ":638,"are":639,"ine":640,"16":641,"ach":642,"),":643,"ork":644,"ould":645,"Ġprov":646,"Ïĥ":647,"rop":648,"Ġam":649,"ĊĠĠĠĠĠĠĠĠĠĠĠĠĠĠĠĠĠĠĠĠĠ":650,"30":651,"Ġqu":652,"ht":653,"act":654,"Ġ.....................":655,"ĊĠĠĠĠĠĠĠĠĠĠĠĠĠĠĠĠĠĠĠĠĠĠ":656,"Ġch":657,"Ġcomp":658,"Ġ......................":659,"the":660,"clud":661,"ue":662,"ne":663,"Ġsp":664,"Ġ.......................":665,"Ġse":666,"25":667,"OR":668,"Ġrequ":669,"17":670,"The":671,"ib":672,"ĊĠĠĠĠĠĠĠĠĠĠĠĠĠĠĠĠĠĠĠĠĠĠĠ":673,"Ġany":674,"Ġ........................":675,"ount":676,"ĠCon":677,"ign":678,").":679,"IN":680,"Ġwe":681,"Ġ.........................":682,"Ã¶":683,"18":684,"201":685,"ass":686,"Ġ..........................":687,"Ġall":688,"av":689,"Ġsuch":690,"ÏĢ":691,"oll":692,"tive":693,"fer":694,"âĢĺ":695,"Î·":696,"ress":697,"Ġ...........................":698,"io":699,"ial":700,"ram":701,"Ġag":702,"ast":703,"Ġhave":704,"miss":705,"ual":706,"Ġ............................":707,"ities":708,"AL":709,"Ġwhich":710,"Ġother":711,"ÏĤ":712,"Ġcons":713,"Ġ.............................":714,"ase":715,"Ġ12":716,"ew":717,"over":718,"mer":719,"Ġreg":720,"Ġ..............................":721,"ĊĠĠĠĠĠĠĠĠĠĠĠĠĠĠĠĠĠĠĠĠĠĠĠĠ":722,"AN":723,"ors":724,"Ġwas":725,"com":726,"ip":727,"ll":728,"ĠUn":729,"ost":730,"40":731,"Ġtr":732,"ence":733,"Ġ...............................":734,"Ġshall":735,"tions":736,"Ġ--":737,"la":738,"Ġpr":739,"ung":740,"ational":741,"Ġ................................":742,"mission":743,"Ġno":744,"ail":745,"ĠÃ":746,"Ġind":747,"Ġdo":748,"red":749,"Ġass":750,"out":751,"Ġ.................................":752,"ĠÂ":753,"fic":754,"ater":755,"ks":756,"Ġwill":757,"75":758,"Ġ..................................":759,"60":760,"Ġme":761,"Ġpl":762,"tit":763,"Ġ...................................":764,"Ġ---":765,"AR":766,"der":767,"Ġyear":768,"Ġdis":769,"33":770,"22":771,"ited":772,"Ġ....................................":773,"Ïħ":774,"ou":775,"enc":776,"Ġmay":777,"gram":778,"ĊĠĠĠĠĠĠĠĠĠĠĠĠĠĠĠĠĠĠĠĠĠĠĠĠĠ":779,"su":780,"duc":781,"Ġsection":782,"Ġ15":783,"tim":784,"Ġ.....................................":785,"80":786,"ex":787,"Ġ13":788,"87":789,"rib":790,"Ġhas":791,"ical":792,")(":793,"ru":794,"ember":795,"Ġprovid":796,"ry":797,"Ġ......................................":798,"Ġpre":799,"ied":800,"Ġinclud":801,"ons":802,"enti":803,"cc":804,"Ġ.......................................":805,"Ġfin":806,"24":807,"du":808,"ph":809,"ĊĠĠĠĠĠĠĠĠĠĠĠĠĠĠĠĠĠĠĠĠĠĠĠĠĠĠ":810,"73":811,"ĠSec":812,"ef":813,"Ġ........................................":814,"Ġab":815,"ĊĠĠĠĠĠĠĠĠĠĠĠĠĠĠĠĠĠĠĠĠĠĠĠĠĠĠĠ":816,"any":817,"'s":818,"oy":819,"Ġ.........................................":820,"23":821,"Ã³n":822,"ision":823,"ree":824,"ĠMr":825,"Ġour":826,"Ġserv":827,"Ġ14":828,"29":829,"----------------":830,"Å¡":831,"Ġ..........................................":832,"ult":833,"EC":834,"of":835,"Ġ11":836,"ret":837,"ĠPro":838,"Äį":839,"Ġob":840,"Ġinter":841,"Ġ18":842,"ning":843,"Ġ...........................................":844,"ong":845,"Ġwork":846,"ublic":847,"Ġacc":848,"pro":849,"70":850,"Ġpur":851,"tiv":852,"45":853,"ĠAct":854,"cial":855,"Äģ":856,"Ã¼":857,"26":858,"Ġ............................................":859,"ric":860,"Ġar":861,"ĠTh":862,"ob":863,"Ġder":864,"Ġrequire":865,"Ġus":866,"ech":867,"formation":868,"90":869,"ĠÏĦ":870,"Ġ.............................................":871,"ond":872,"TION":873,"ont":874,"Ġel":875,"ata":876,"Ġ..............................................":877,"88":878,"34":879,"35":880,"eter":881,"Ġrel":882,"Ġ...............................................":883,"Ġdel":884,"ark":885,"Ġrec":886,"Ġ16":887,"Ġ20":888,"ĊĠĠĠĠĠĠĠĠĠĠĠĠĠĠĠĠĠĠĠĠĠĠĠĠĠĠĠĠ":889,"Ġ................................................":890,"UR":891,"ish":892,"ility":893,"74":894,"ss":895,"ten":896,"ific":897,"Ġ.................................................":898,"ĠâĢĶ":899,"ang":900,"ĠCh":901,"AT":902,"Î¼":903,"28":904,"ĠĊĠĠĠĠ":905,"Ġ..................................................":906,"tain":907,"ating":908,"65":909,"Ċĉĉĉĉ":910,"ek":911,"por":912,"mitte":913,"int":914,".,":915,"ij":916,"ator":917,"Ġem":918,"Ġ30":919,"Ġproc":920,"Ġthan":921,"ĠStates":922,"dition":923,"sk":924,"27":925,"ax":926,"Ġcl":927,"Ġet":928,"uth":929,"ugh":930,"IT":931,"Ġav":932,"anc":933,"one":934,"ents":935,"yst":936,"ise":937,"ange":938,"Ġresp":939,"ven":940,"44":941,"Ġpri":942,"ty":943,"ploy":944,"ok":945,"lect":946,"her":947,"Ġest":948,"its":949,"Ġwould":950,"ĠEx":951,"Ġ...................................................":952,"Îº":953,"05":954,"aj":955,"79":956,"Ġtrans":957,"85":958,"IC":959,"Ġeff":960,"In":961,"Ġ**":962,"ollow":963,"iÃ³n":964,"Ġits":965,"IS":966,"ederal":967,"ee":968,"Ġ....................................................":969,"Î¯":970,"mittee":971,"36":972,"Ġapplic":973,"Ġinc":974,"ency":975,"air":976,"eb":977,"ĠNo":978,"Ġso":979,"Ġprogram":980,"Ġexp":981,"ock":982,"abl":983,"pe":984,"ĊĠĠĠĠĠĠĠĠĠĠĠĠĠĠĠĠĠĠĠĠĠĠĠĠĠĠĠĠĠ":985,"Ġaf":986,"Ġ.....................................................":987,"Ġ17":988,"Ã©s":989,"uthor":990,"ĠState":991,"ose":992,"ative":993,"Ġter":994,"man":995,"Ġoper":996,"39":997,"Ġ......................................................":998,"Ġins":999,"ĊĠĠĠĠĠĠĠĠĠĠĠĠĠĠĠĠĠĠĠĠĠĠĠĠĠĠĠĠĠĠ":1000,"Ġi":1001,"ite":1002,"ĠOF":1003,"Ġinformation":1004,"ution":1005,"06":1006,"ight":1007,"ted":1008,"ices":1009,"ED":1010,"raph":1011,"ple":1012,"Ġ.......................................................":1013,"Ġtim":1014,"rig":1015,"Ġfollow":1016,"de":1017,"Ġcomm":1018,"86":1019,"21":1020,"ely":1021,"cent":1022,"resent":1023,"urop":1024,"emb":1025,"Ġspec":1026,"ased":1027,"31":1028,"ves":1029,"Î»":1030,"so":1031,"ĠUnited":1032,"pr":1033,"ĊĠĠĠĠĠĠĠĠĠĠĠĠĠĠĠĠĠĠĠĠĠĠĠĠĠĠĠĠĠĠĠ":1034,"ous":1035,"ule":1036,"ian":1037,"49":1038,"Ġman":1039,"Ġ........................................................":1040,"Ġ199":1041,"az":1042,"ject":1043,"ĠReg":1044,"Å¾":1045,"minist":1046,"overn":1047,"Ġtheir":1048,"che":1049,"RO":1050,"Ġout":1051,"76":1052,"retary":1053,"Ġpay":1054,"ystem":1055,"ood":1056,"ade":1057,"Ġ.........................................................":1058,"89":1059,"ace":1060,"Ġu":1061,"ide":1062,"ake":1063,"ĠAn":1064,"Ġ29":1065,"Ġwere":1066,"Ġne":1067,"ive":1068,"âĢĺâĢĺ":1069,"Ġmore":1070,"46":1071,"Ġes":1072,"ENT":1073,"Ġ..........................................................":1074,"Ġ25":1075,"ings":1076,"Ġ31":1077,"itle":1078,"val":1079,"ier":1080,"irect":1081,"old":1082,"pport":1083,"eneral":1084,"AS":1085,"ild":1086,"ures":1087,"ile":1088,"ner":1089,"Ġ...........................................................":1090,"ĠâĢ":1091,"erson":1092,"ĠRe":1093,"ame":1094,"af":1095,"ended":1096,"Ġreport":1097,"ack":1098,"ĠAd":1099,"ĠÂ§":1100,"alth":1101,"ii":1102,"ĊĊĊĊ":1103,"Ġtra":1104,"Ïī":1105,"ATION":1106,"Î¿Ïħ":1107,"Ġval":1108,"Ġ............................................................":1109,"ah":1110,"38":1111,"rit":1112,"echn":1113,"ys":1114,"ind":1115,"Ġup":1116,"Ġsec":1117,"pt":1118,"ĠCommission":1119,"ĊĠĠĠĠĠĠĠĠĠĠĠĠĠĠĠĠĠĠĠĠĠĠĠĠĠĠĠĠĠĠĠĠ":1120,"au":1121,"ÏĮ":1122,"ome":1123,"umber":1124,"###":1125,"Ġ202":1126,"we":1127,"uring":1128,"Ġif":1129,"ke":1130,"37":1131,"ND":1132,"ĠSecretary":1133,"gan":1134,"ank":1135,"ai":1136,"55":1137,"rough":1138,"etermin":1139,"Ġbeen":1140,"ms":1141,"Ġocc":1142,"ĠY":1143,"cip":1144,"Ġ.............................................................":1145,"ien":1146,"ĠComp":1147,"Ġpublic":1148,"Ä«":1149,"ĠRep":1150,"cal":1151,"Ġ*":1152,"ction":1153,"get":1154,"EL":1155,"Ġ40":1156,"Ġque":1157,"olog":1158,"Ġdie":1159,"par":1160,"84":1161,"66":1162,"velop":1163,"tern":1164,"0000":1165,"ional":1166,"Ġdu":1167,"II":1168,"Ġdec":1169,"Ġ24":1170,"Ġthere":1171,"kt":1172,"Ġpart":1173,"ĠFor":1174,"ĠZ":1175,"iew":1176,"Ġro":1177,"Ġpropos":1178,"ĠAr":1179,"Ġover":1180,"Ã½":1181,"me":1182,"ties":1183,"Ġwho":1184,"Ġtime":1185,"Ġauthor":1186,"str":1187,"agraph":1188,"______":1189,"ĊĠĠĠĠĠĠĠĠĠĠĠĠĠĠĠĠĠĠĠĠĠĠĠĠĠĠĠĠĠĠĠĠĠ":1190,"ants":1191,"ider":1192,"urr":1193,"Ġcan":1194,"NO":1195,"ouse":1196,"ivid":1197,"oss":1198,"Ġone":1199,"ĠAg":1200,"69":1201,"72":1202,"Ġ%":1203,"iod":1204,"Ġemploy":1205,"ized":1206,"ĠCO":1207,"overnment":1208,"32":1209,"ident":1210,"________________________________________________________________":1211,"CE":1212,"ropri":1213,"iness":1214,"ka":1215,"ĊĠĠĠĠĠĠĠĠĠĠĠĠĠĠĠĠĠĠĠĠĠĠĠĠĠĠĠĠĠĠĠĠĠĠ":1216,"ĠMar":1217,"Ġeach":1218,"ancial":1219,"illion":1220,"Ġop":1221,"Ġregul":1222,"IL":1223,"Ġdetermin":1224,"ays":1225,"gress":1226,"Ġalso":1227,"âĢĿ":1228,"Ġinv":1229,"Ġthese":1230,"Ġrece":1231,"Ġtitle":1232,"ets":1233,"______________________________________________________________________":1234,"Ġsubs":1235,"ĠDec":1236,"Ġ..............................................................":1237,"ĊĠĠĠĠĠĠĠĠĠĠĠĠĠĠĠĠĠĠĠĠĠĠĠĠĠĠĠĠĠĠĠĠĠĠĠ":1238,"Ġra":1239,"ĠÏĢ":1240,"ration":1241,"ĠDep":1242,"Ġ21":1243,"artment":1244,"US":1245,"Ġfund":1246,"Ġ00":1247,"ĠFederal":1248,"hed":1249,"Î¬":1250,"own":1251,"Ġau":1252,"ory":1253,"ING":1254,"Ġappro":1255,"Ġgro":1256,"ĊĠĠĠĠĠĠĠĠĠĠĠĠĠĠĠĠĠĠĠĠĠĠĠĠĠĠĠĠĠĠĠĠĠĠĠĠ":1257,"ett":1258,"Ġthrough":1259,"aid":1260,"ĉĉĉ":1261,"59":1262,"202":1263,"78":1264,"Ġdi":1265,"ible":1266,"Ġdef":1267,"ĠOff":1268,"EM":1269,"ash":1270,"usiness":1271,"rant":1272,"iel":1273,"til":1274,"ĠRes":1275,"Ġproduc":1276,"Ġvan":1277,"Ġfollowing":1278,"duct":1279,".âĢĶ":1280,"Ġthey":1281,"Ġcol":1282,"Äħ":1283,"ĊĠĠĠĠĠĠĠĠĠĠĠĠĠĠĠĠĠĠĠĠĠĠĠĠĠĠĠĠĠĠĠĠĠĠĠĠĠ":1284,"Ġuse":1285,"Ġmed":1286,"ĠÃł":1287,"gy":1288,"Ġdata":1289,"ren":1290,"Ġyou":1291,"48":1292,"ĊĠĠĠĠĠĠĠĠĠĠĠĠĠĠĠĠĠĠĠĠĠĠĠĠĠĠĠĠĠĠĠĠĠĠĠĠĠĠ":1293,"Ġcer":1294,"igh":1295,"Ġ\"":1296,"Ġ26":1297,"Ġmin":1298,"Ġincluding":1299,"Ġte":1300,"aw":1301,"ĊĠĠĠĠĠĠĠĠĠĠĠĠĠĠĠĠĠĠĠĠĠĠĠĠĠĠĠĠĠĠĠĠĠĠĠĠĠĠĠ":1302,"FR":1303,"ense":1304,"rol":1305,"Ġrev":1306,"Ġpo":1307,"Ġco":1308,"aciÃ³n":1309,"Ġyears":1310,"icht":1311,"Ġ22":1312,"Î®":1313,"ient":1314,"Ġ23":1315,"Ġpol":1316,"ĠSen":1317,"Ġ...............................................................":1318,"77":1319,"Ġbut":1320,"land":1321,"ĊĠĠĠĠĠĠĠĠĠĠĠĠĠĠĠĠĠĠĠĠĠĠĠĠĠĠĠĠĠĠĠĠĠĠĠĠĠĠĠĠ":1322,"be":1323,"Ġloc":1324,"ĠWe":1325,"ĠEurop":1326,"Ġ[":1327,"agement":1328,"Ġperson":1329,"Ġperiod":1330,"Ġbet":1331,"ĠCommittee":1332,"cer":1333,"ĠEn":1334,"Ġsystem":1335,"andard":1336,"tal":1337,"ĠIN":1338,"ĠST":1339,"42":1340,"Com":1341,"Ġequ":1342,"suant":1343,"oh":1344,"09":1345,"Ġtax":1346,"sh":1347,"Î³":1348,"ified":1349,"ĊĠĠĠĠĠĠĠĠĠĠĠĠĠĠĠĠĠĠĠĠĠĠĠĠĠĠĠĠĠĠĠĠĠĠĠĠĠĠĠĠĠ":1350,"ower":1351,"Ġleg":1352,"Ġver":1353,"==":1354,"Mr":1355,"Ġafter":1356,"ĠServ":1357,"Ġlaw":1358,"pec":1359,"ÎŃ":1360,"43":1361,"meric":1362,"ĊĠĠĠĠĠĠĠĠĠĠĠĠĠĠĠĠĠĠĠĠĠĠĠĠĠĠĠĠĠĠĠĠĠĠĠĠĠĠĠĠĠĠ":1363,"tice":1364,"Ġadd":1365,"Ã¨":1366,"St":1367,"47":1368,"ĠÎº":1369,"ally":1370,"ĊĠĠĠĠĠĠĠĠĠĠĠĠĠĠĠĠĠĠĠĠĠĠĠĠĠĠĠĠĠĠĠĠĠĠĠĠĠĠĠĠĠĠĠ":1371,"ĠÂ±":1372,"56":1373,"ale":1374,"ix":1375,"arg":1376,"DE":1377,"TH":1378,"Ã¥":1379,"Ġproced":1380,"reat":1381,"tt":1382,"ĠÏĥ":1383,"Ġli":1384,"Ġrep":1385,"Ġmod":1386,"Ġpe":1387,"Ġsur":1388,"ld":1389,"ĠDe":1390,"ĊĠĠĠĠĠĠĠĠĠĠĠĠĠĠĠĠĠĠĠĠĠĠĠĠĠĠĠĠĠĠĠĠĠĠĠĠĠĠĠĠĠĠĠĠ":1391,"ĠÎ±":1392,"Ġoccup":1393,"ins":1394,"Ġestabl":1395,"Ġmet":1396,"ull":1397,"ĠAND":1398,"Ġnon":1399,"ailable":1400,"Ġstate":1401,"Ġ28":1402,"Ġint":1403,"fore":1404,"ital":1405,"ton":1406,"Ġden":1407,"Ġlo":1408,"ĠCompany":1409,"lement":1410,"ĊĠĠĠĠĠĠĠĠĠĠĠĠĠĠĠĠĠĠĠĠĠĠĠĠĠĠĠĠĠĠĠĠĠĠĠĠĠĠĠĠĠĠĠĠĠ":1411,"ĠâĢľ":1412,"Ġ39":1413,"41":1414,"####":1415,"ability":1416,"Ġmade":1417,"Ġbill":1418,"ĊĠĠĠĠĠĠĠĠĠĠĠĠĠĠĠĠĠĠĠĠĠĠĠĠĠĠĠĠĠĠĠĠĠĠĠĠĠĠĠĠĠĠĠĠĠĠ":1419,"urity":1420,"Ġmark":1421,"Ġent":1422,"ĠTr":1423,"Ġrule":1424,"ause":1425,"Ġdevelop":1426,"ado":1427,"ividual":1428,"ces":1429,"LE":1430,"Ġinto":1431,"Ġnew":1432,"CH":1433,"Ġben":1434,"Ar":1435,"Th":1436,"Ċĉĉĉĉĉĉĉĉ":1437,"uss":1438,"Ã¡n":1439,"tig":1440,"ues":1441,"ote":1442,"IR":1443,"Ġconsider":1444,"ĊĠĠĠĠĠĠĠĠĠĠĠĠĠĠĠĠĠĠĠĠĠĠĠĠĠĠĠĠĠĠĠĠĠĠĠĠĠĠĠĠĠĠĠĠĠĠĠ":1445,"Ġimp":1446,"Ġworkers":1447,"ute":1448,"aterial":1449,"Ġext":1450,"ww":1451,"100":1452,"une":1453,"resident":1454,"Ġcap":1455,"Ġplan":1456,"Ġused":1457,"Ġrem":1458,"orpor":1459,"ĊĠĠĠĠĠĠĠĠĠĠĠĠĠĠĠĠĠĠĠĠĠĠĠĠĠĠĠĠĠĠĠĠĠĠĠĠĠĠĠĠĠĠĠĠĠĠĠĠ":1460,"Ġ50":1461,"Ġhis":1462,"Ġactiv":1463,"onom":1464,"ĠTH":1465,"tik":1466,"ho":1467,"âĢĻâĢĻ":1468,"Ġservice":1469,"Ġappropri":1470,"ĠÎµ":1471,"ĊĠĠĠĠĠĠĠĠĠĠĠĠĠĠĠĠĠĠĠĠĠĠĠĠĠĠĠĠĠĠĠĠĠĠĠĠĠĠĠĠĠĠĠĠĠĠĠĠĠ":1472,"ved":1473,"Äĵ":1474,"Ġâ":1475,"lig":1476,"ĊĠĠĠĠĠĠĠĠĠĠĠĠĠĠĠĠĠĠĠĠĠĠĠĠĠĠĠĠĠĠĠĠĠĠĠĠĠĠĠĠĠĠĠĠĠĠĠĠĠĠ":1477,"urrent":1478,"li":1479,"crib":1480,"ĠInd":1481,"Ġsupport":1482,"Ġincre":1483,"Ġfl":1484,"ĠDepartment":1485,"Ġtechn":1486,"cul":1487,"Ġprovide":1488,"Ġ................................................................":1489,"ĊĠĠĠĠĠĠĠĠĠĠĠĠĠĠĠĠĠĠĠĠĠĠĠĠĠĠĠĠĠĠĠĠĠĠĠĠĠĠĠĠĠĠĠĠĠĠĠĠĠĠĠ":1490,"ales":1491,"Ãº":1492,"ees":1493,"Ġcar":1494,"ÄĹ":1495,"wn":1496,"Ġaddition":1497,"AP":1498,"ĊĠĠĠĠĠĠĠĠĠĠĠĠĠĠĠĠĠĠĠĠĠĠĠĠĠĠĠĠĠĠĠĠĠĠĠĠĠĠĠĠĠĠĠĠĠĠĠĠĠĠĠĠ":1499,");":1500,"95":1501,"Ġpercent":1502,"ĠĊĠĠĠĠĠĠĠ":1503,"Ġpurpos":1504,"68":1505,"irst":1506,"Ġles":1507,"identi":1508,"Ġ27":1509,"Ġfac":1510,"Ä§":1511,"No":1512,"EP":1513,"Ġann":1514,"oci":1515,"Ġ.................................................................":1516,"AM":1517,"Ã£":1518,"Ġprovision":1519,"ĊĠĠĠĠĠĠĠĠĠĠĠĠĠĠĠĠĠĠĠĠĠĠĠĠĠĠĠĠĠĠĠĠĠĠĠĠĠĠĠĠĠĠĠĠĠĠĠĠĠĠĠĠĠ":1520,"CO":1521,"Ġapplicable":1522,"Ġparagraph":1523,"ft":1524,"ĠCongress":1525,"ĊĠĠĠĠĠĠĠĠĠĠĠĠĠĠĠĠĠĠĠĠĠĠĠĠĠĠĠĠĠĠĠĠĠĠĠĠĠĠĠĠĠĠĠĠĠĠĠĠĠĠĠĠĠĠ":1526,"ption":1527,"Ã¶r":1528,"Ġservices":1529,"ET":1530,"Ġbel":1531,"Ã§":1532,"Î¹Îº":1533,"ward":1534,"Ġer":1535,"isk":1536,"ĊĠĠĠĠĠĠĠĠĠĠĠĠĠĠĠĠĠĠĠĠĠĠĠĠĠĠĠĠĠĠĠĠĠĠĠĠĠĠĠĠĠĠĠĠĠĠĠĠĠĠĠĠĠĠĠ":1537,"na":1538,"ĠHe":1539,"time":1540,"ural":1541,"Ġ2008":1542,"Ġavailable":1543,"Ã£o":1544,"ean":1545,"Ġorder":1546,"mt":1547,"Ġdate":1548,"ĊĠĠĠĠĠĠĠĠĠĠĠĠĠĠĠĠĠĠĠĠĠĠĠĠĠĠĠĠĠĠĠĠĠĠĠĠĠĠĠĠĠĠĠĠĠĠĠĠĠĠĠĠĠĠĠĠ":1549,"08":1550,"Ġamend":1551,"Ġlos":1552,"Ċĉ":1553,"Ġmon":1554,"ĠThis":1555,"Ġcontr":1556,"Ġmillion":1557,"Ġ..................................................................":1558,"Ġprovided":1559,"Ġnumber":1560,"Ġna":1561,"come":1562,"ĠNational":1563,"Î±Î¹":1564,"Ġproposed":1565,"ound":1566,"ari":1567,"ĠSch":1568,"Ġthose":1569,"ept":1570,"ĊĠĠĠĠĠĠĠĠĠĠĠĠĠĠĠĠĠĠĠĠĠĠĠĠĠĠĠĠĠĠĠĠĠĠĠĠĠĠĠĠĠĠĠĠĠĠĠĠĠĠĠĠĠĠĠĠĠ":1571,"Ġexce":1572,"Ġbec":1573,"ĊĠĠĠĠĠĠĠĠĠĠĠĠĠĠĠĠĠĠĠĠĠĠĠĠĠĠĠĠĠĠĠĠĠĠĠĠĠĠĠĠĠĠĠĠĠĠĠĠĠĠĠĠĠĠĠĠĠĠ":1574,"Ġdist":1575,"Ġ36":1576,"Ġlim":1577,"ĊĠĠĠĠĠĠĠĠĠĠĠĠĠĠĠĠĠĠĠĠĠĠĠĠĠĠĠĠĠĠĠĠĠĠĠĠĠĠĠĠĠĠĠĠĠĠĠĠĠĠĠĠĠĠĠĠĠĠĠ":1578,"Ġatt":1579,"ĠÏĦÎ·":1580,"reement":1581,"ool":1582,"ode":1583,"--------------------------------":1584,"urn":1585,"Ġpursuant":1586,"ĠAmeric":1587,"ada":1588,"ĠPar":1589,"Ġabout":1590,"Ãµ":1591,"ĊĠĠĠĠĠĠĠĠĠĠĠĠĠĠĠĠĠĠĠĠĠĠĠĠĠĠĠĠĠĠĠĠĠĠĠĠĠĠĠĠĠĠĠĠĠĠĠĠĠĠĠĠĠĠĠĠĠĠĠĠ":1592,"ĠLe":1593,"Ġbusiness":1594,"ting":1595,"reg":1596,"Ġ2006":1597,"54":1598,"AC":1599,"Ġshould":1600,"âĢĵâĢĵ":1601,"Å¼":1602,"ĊĠĠĠĠĠĠĠĠĠĠĠĠĠĠĠĠĠĠĠĠĠĠĠĠĠĠĠĠĠĠĠĠĠĠĠĠĠĠĠĠĠĠĠĠĠĠĠĠĠĠĠĠĠĠĠĠĠĠĠĠĠ":1603,"Ġcommun":1604,"ization":1605,"03":1606,".)":1607,"ĊĠĠĠĠĠĠĠĠĠĠĠĠĠĠĠĠĠĠĠĠĠĠĠĠĠĠĠĠĠĠĠĠĠĠĠĠĠĠĠĠĠĠĠĠĠĠĠĠĠĠĠĠĠĠĠĠĠĠĠĠĠĠ":1608,"Ġ...................................................................":1609,"Å³":1610,"Ġ2010":1611,"SI":1612,"vers":1613,"ĊĠĠĠĠĠĠĠĠĠĠĠĠĠĠĠĠĠĠĠĠĠĠĠĠĠĠĠĠĠĠĠĠĠĠĠĠĠĠĠĠĠĠĠĠĠĠĠĠĠĠĠĠĠĠĠĠĠĠĠĠĠĠĠ":1614,"ÅĤ":1615,"Ġwithin":1616,"ĊĠĠĠĠĠĠĠĠĠĠĠĠĠĠĠĠĠĠĠĠĠĠĠĠĠĠĠĠĠĠĠĠĠĠĠĠĠĠĠĠĠĠĠĠĠĠĠĠĠĠĠĠĠĠĠĠĠĠĠĠĠĠĠĠ":1617,"Ġoffic":1618,"ja":1619,"ĠIt":1620,"enci":1621,"ilities":1622,"Ġorgan":1623,"Ġissu":1624,"Ġpor":1625,"Ġ2009":1626,"els":1627,"iscal":1628,"58":1629,"mento":1630,"ious":1631,"ze":1632,"ĊĠĠĠĠĠĠĠĠĠĠĠĠĠĠĠĠĠĠĠĠĠĠĠĠĠĠĠĠĠĠĠĠĠĠĠĠĠĠĠĠĠĠĠĠĠĠĠĠĠĠĠĠĠĠĠĠĠĠĠĠĠĠĠĠĠ":1633,"men":1634,"ĊĠĠĠĠĠĠĠĠĠĠĠĠĠĠĠĠĠĠĠĠĠĠĠĠĠĠĠĠĠĠĠĠĠĠĠĠĠĠĠĠĠĠĠĠĠĠĠĠĠĠĠĠĠĠĠĠĠĠĠĠĠĠĠĠĠĠ":1635,"als":1636,"ĠVer":1637,"Ġmust":1638,"Ġrequirements":1639,"Ġamount":1640,"51":1641,"anu":1642,"wo":1643,"ina":1644,"ĊĠĠĠĠĠĠĠĠĠĠĠĠĠĠĠĠĠĠĠĠĠĠĠĠĠĠĠĠĠĠĠĠĠĠĠĠĠĠĠĠĠĠĠĠĠĠĠĠĠĠĠĠĠĠĠĠĠĠĠĠĠĠĠĠĠĠĠ":1645,"04":1646,"Ġdem":1647,"Ġindividual":1648,"199":1649,"ished":1650,"ĊĠĠĠĠĠĠĠĠĠĠĠĠĠĠĠĠĠĠĠĠĠĠĠĠĠĠĠĠĠĠĠĠĠĠĠĠĠĠĠĠĠĠĠĠĠĠĠĠĠĠĠĠĠĠĠĠĠĠĠĠĠĠĠĠĠĠĠĠ":1651,"Ġneed":1652,"âĢ¢":1653,"96":1654,"Ġlevel":1655,"hip":1656,"ective":1657,"ĊĠĠĠĠĠĠĠĠĠĠĠĠĠĠĠĠĠĠĠĠĠĠĠĠĠĠĠĠĠĠĠĠĠĠĠĠĠĠĠĠĠĠĠĠĠĠĠĠĠĠĠĠĠĠĠĠĠĠĠĠĠĠĠĠĠĠĠĠĠ":1658,"Ġrequired":1659,"ĠAl":1660,"Ġparti":1661,"ann":1662,"Ġfil":1663,"Ġ2007":1664,"=\"":1665,"ÏģÎ¿":1666,"Ġduring":1667,"Ġear":1668,"53":1669,"ticle":1670,"Ïĩ":1671,"redit":1672,"ta":1673,"Ġ100":1674,"Ġpos":1675,"ĊĠĠĠĠĠĠĠĠĠĠĠĠĠĠĠĠĠĠĠĠĠĠĠĠĠĠĠĠĠĠĠĠĠĠĠĠĠĠĠĠĠĠĠĠĠĠĠĠĠĠĠĠĠĠĠĠĠĠĠĠĠĠĠĠĠĠĠĠĠĠ":1676,"led":1677,"07":1678,"Ġwhen":1679,"ĠFr":1680,"Ġonly":1681,"Ġsign":1682,"ĊĠĠĠĠĠĠĠĠĠĠĠĠĠĠĠĠĠĠĠĠĠĠĠĠĠĠĠĠĠĠĠĠĠĠĠĠĠĠĠĠĠĠĠĠĠĠĠĠĠĠĠĠĠĠĠĠĠĠĠĠĠĠĠĠĠĠĠĠĠĠĠ":1683,"Ġ2005":1684,"ines":1685,"ĠSection":1686,"tific":1687,"83":1688,"leg":1689,"ined":1690,"app":1691,"ove":1692,"Ġrefer":1693,"Ġobj":1694,"atory":1695,"que":1696,"MM":1697,"Ġgeneral":1698,"den":1699,"ecu":1700,"Ã¡s":1701,"Ġoff":1702,"ilit":1703,"ĠCo":1704,"TER":1705,"Ġfinancial":1706,"Ġdirect":1707,"ĠDecember":1708,"52":1709,"Ã¤r":1710,"Ġ:":1711,"Ġaff":1712,"comm":1713,"ĠPresident":1714,"Ġmaterial":1715,"change":1716,"Ïį":1717,"ily":1718,"les":1719,"va":1720,"med":1721,"ÅĻ":1722,"ĊĠĠĠĠĠĠĠĠĠĠĠĠĠĠĠĠĠĠĠĠĠĠĠĠĠĠĠĠĠĠĠĠĠĠĠĠĠĠĠĠĠĠĠĠĠĠĠĠĠĠĠĠĠĠĠĠĠĠĠĠĠĠĠĠĠĠĠĠĠĠĠĠ":1723,"ize":1724,"ink":1725,"Ġsubsection":1726,"Ġinclude":1727,"\\_":1728,"abor":1729,"Ġreceiv":1730,"82":1731,"Ġdesign":1732,"Ġend":1733,"Ġsubmit":1734,"Ġ....................................................................":1735,"71":1736,"uction":1737,"ĠHouse":1738,"Ġcontin":1739,"ects":1740,"Un":1741,"osts":1742,"ĠAdminist":1743,"ID":1744,"je":1745,"oth":1746,"ron":1747,"64":1748,"ĊĠĠĠĠĠĠĠĠĠĠĠĠĠĠĠĠĠĠĠĠĠĠĠĠĠĠĠĠĠĠĠĠĠĠĠĠĠĠĠĠĠĠĠĠĠĠĠĠĠĠĠĠĠĠĠĠĠĠĠĠĠĠĠĠĠĠĠĠĠĠĠĠĠ":1749,"RES":1750,"Î¸":1751,"ĠStat":1752,"Date":1753,"Ġhealth":1754,"OL":1755,"vir":1756,"Ġja":1757,"ĠâĢĺâĢĺ":1758,"ST":1759,"iver":1760,"Ġprot":1761,"uly":1762,"ately":1763,"Ġ.....................................................................":1764,"Ġprocess":1765,"ĊĠĠĠĠĠĠĠĠĠĠĠĠĠĠĠĠĠĠĠĠĠĠĠĠĠĠĠĠĠĠĠĠĠĠĠĠĠĠĠĠĠĠĠĠĠĠĠĠĠĠĠĠĠĠĠĠĠĠĠĠĠĠĠĠĠĠĠĠĠĠĠĠĠĠ":1766,"ĠOffice":1767,"Ġestim":1768,"ween":1769,"ĠAss":1770,"day":1771,"ÏĨ":1772,"vent":1773,"ÏīÎ½":1774,"Ġstandard":1775,"ases":1776,"ĊĠĠĠĠĠĠĠĠĠĠĠĠĠĠĠĠĠĠĠĠĠĠĠĠĠĠĠĠĠĠĠĠĠĠĠĠĠĠĠĠĠĠĠĠĠĠĠĠĠĠĠĠĠĠĠĠĠĠĠĠĠĠĠĠĠĠĠĠĠĠĠĠĠĠĠ":1777,"ĊĠĠĠĠĠĠĠĠĠĠĠĠĠĠĠĠĠĠĠĠĠĠĠĠĠĠĠĠĠĠĠĠĠĠĠĠĠĠĠĠĠĠĠĠĠĠĠĠĠĠĠĠĠĠĠĠĠĠĠĠĠĠĠĠĠĠĠĠĠĠĠĠĠĠĠĠ":1778,"ety":1779,"EG":1780,"ĠÃ©":1781,"Ġlas":1782,"Ġform":1783,"ĊĠĠĠĠĠĠĠĠĠĠĠĠĠĠĠĠĠĠĠĠĠĠĠĠĠĠĠĠĠĠĠĠĠĠĠĠĠĠĠĠĠĠĠĠĠĠĠĠĠĠĠĠĠĠĠĠĠĠĠĠĠĠĠĠĠĠĠĠĠĠĠĠĠĠĠĠĠ":1784,"ages":1785,"ĊĠĠĠĠĠĠĠĠĠĠĠĠĠĠĠĠĠĠĠĠĠĠĠĠĠĠĠĠĠĠĠĠĠĠĠĠĠĠĠĠĠĠĠĠĠĠĠĠĠĠĠĠĠĠĠĠĠĠĠĠĠĠĠĠĠĠĠĠĠĠĠĠĠĠĠĠĠĠ":1786,"Ġap":1787,"ocu":1788,"urs":1789,"Ġmain":1790,"tr":1791,"Ġinterest":1792,"ecess":1793,"Ġ......................................................................":1794,"Ġrig":1795,"2006":1796,"enn":1797,"57":1798,"orn":1799,"Not":1800,"sp":1801,"Ġcla":1802,"rad":1803,"Ġcost":1804,"ators":1805,"ĊĠĠĠĠĠĠĠĠĠĠĠĠĠĠĠĠĠĠĠĠĠĠĠĠĠĠĠĠĠĠĠĠĠĠĠĠĠĠĠĠĠĠĠĠĠĠĠĠĠĠĠĠĠĠĠĠĠĠĠĠĠĠĠĠĠĠĠĠĠĠĠĠĠĠĠĠĠĠĠ":1806,"oint":1807,"Ġed":1808,"ĠRegul":1809,"Ġhad":1810,"Ġcount":1811,"Ex":1812,"Ġdisc":1813,"63":1814,"ĊĠĠĠĠĠĠĠĠĠĠĠĠĠĠĠĠĠĠĠĠĠĠĠĠĠĠĠĠĠĠĠĠĠĠĠĠĠĠĠĠĠĠĠĠĠĠĠĠĠĠĠĠĠĠĠĠĠĠĠĠĠĠĠĠĠĠĠĠĠĠĠĠĠĠĠĠĠĠĠĠ":1815,"Ġ37":1816,"ÏĥÎ·":1817,"oard":1818,"uch":1819,"81":1820,"Ġmy":1821,"``":1822,"67":1823,"ruct":1824,"ÄĽ":1825,"ources":1826,"Åĳ":1827,"lo":1828,"Ġdif":1829,"ĊĠĠĠĠĠĠĠĠĠĠĠĠĠĠĠĠĠĠĠĠĠĠĠĠĠĠĠĠĠĠĠĠĠĠĠĠĠĠĠĠĠĠĠĠĠĠĠĠĠĠĠĠĠĠĠĠĠĠĠĠĠĠĠĠĠĠĠĠĠĠĠĠĠĠĠĠĠĠĠĠĠ":1830,"ĠNew":1831,"Ġbas":1832,"ior":1833,"Ġta":1834,"Ġstud":1835,"Pro":1836,"ĠdÃ©":1837,"Ã¸":1838,"ĠX":1839,"iet":1840,"PA":1841,"Ġoccupations":1842,"ĊĠĠĠĠĠĠĠĠĠĠĠĠĠĠĠĠĠĠĠĠĠĠĠĠĠĠĠĠĠĠĠĠĠĠĠĠĠĠĠĠĠĠĠĠĠĠĠĠĠĠĠĠĠĠĠĠĠĠĠĠĠĠĠĠĠĠĠĠĠĠĠĠĠĠĠĠĠĠĠĠĠĠ":1843,"Ġec":1844,"Ġir":1845,"An":1846,"Ġrelated":1847,"Ġresult":1848,"62":1849,"Ġinst":1850,"eng":1851,"ĠPl":1852,"arch":1853,"Î´":1854,"Ġstr":1855,"94":1856,"oz":1857,":**":1858,"ected":1859,"ules":1860,"61":1861,"Ĥ¬":1862,"ĊĠĠĠĠĠĠĠĠĠĠĠĠĠĠĠĠĠĠĠĠĠĠĠĠĠĠĠĠĠĠĠĠĠĠĠĠĠĠĠĠĠĠĠĠĠĠĠĠĠĠĠĠĠĠĠĠĠĠĠĠĠĠĠĠĠĠĠĠĠĠĠĠĠĠĠĠĠĠĠĠĠĠĠ":1863,"ever":1864,"ister":1865,"Ã¼r":1866,"Ġindust":1867,"Ġ38":1868,"by":1869,"now":1870,"cribed":1871,"tif":1872,"Ġbenef":1873,"ris":1874,"ĊĠĠĠĠĠĠĠĠĠĠĠĠĠĠĠĠĠĠĠĠĠĠĠĠĠĠĠĠĠĠĠĠĠĠĠĠĠĠĠĠĠĠĠĠĠĠĠĠĠĠĠĠĠĠĠĠĠĠĠĠĠĠĠĠĠĠĠĠĠĠĠĠĠĠĠĠĠĠĠĠĠĠĠĠ":1875,"yl":1876,"arm":1877,"ane":1878,"Ġtotal":1879,"Ġmeet":1880,"ĠMan":1881,"ats":1882,"att":1883,"Ġrequest":1884,"Ġhour":1885,"hod":1886,"viron":1887,"SE":1888,"ĠĊ":1889,"Ġfiscal":1890,"ĊĠĠĠĠĠĠĠĠĠĠĠĠĠĠĠĠĠĠĠĠĠĠĠĠĠĠĠĠĠĠĠĠĠĠĠĠĠĠĠĠĠĠĠĠĠĠĠĠĠĠĠĠĠĠĠĠĠĠĠĠĠĠĠĠĠĠĠĠĠĠĠĠĠĠĠĠĠĠĠĠĠĠĠĠĠ":1891,"ield":1892,"ĠWh":1893,"Ġrespect":1894,"orm":1895,"not":1896,"ĠKom":1897,"ĊĠĠĠĠĠĠĠĠĠĠĠĠĠĠĠĠĠĠĠĠĠĠĠĠĠĠĠĠĠĠĠĠĠĠĠĠĠĠĠĠĠĠĠĠĠĠĠĠĠĠĠĠĠĠĠĠĠĠĠĠĠĠĠĠĠĠĠĠĠĠĠĠĠĠĠĠĠĠĠĠĠĠĠĠĠĠ":1898,"Ġ2004":1899,"''":1900,"urities":1901,"Ġmake":1902,"let":1903,"ĊĠĠĠĠĠĠĠĠĠĠĠĠĠĠĠĠĠĠĠĠĠĠĠĠĠĠĠĠĠĠĠĠĠĠĠĠĠĠĠĠĠĠĠĠĠĠĠĠĠĠĠĠĠĠĠĠĠĠĠĠĠĠĠĠĠĠĠĠĠĠĠĠĠĠĠĠĠĠĠĠĠĠĠĠĠĠĠ":1904,"ĠâĤ¬":1905,"Ġrecord":1906,"MENT":1907,"ĊĠĠĠĠĠĠĠĠĠĠĠĠĠĠĠĠĠĠĠĠĠĠĠĠĠĠĠĠĠĠĠĠĠĠĠĠĠĠĠĠĠĠĠĠĠĠĠĠĠĠĠĠĠĠĠĠĠĠĠĠĠĠĠĠĠĠĠĠĠĠĠĠĠĠĠĠĠĠĠĠĠĠĠĠĠĠĠĠ":1908,"Ġcould":1909,"ĠFin":1910,"udget":1911,"ĊĠĠĠĠĠĠĠĠĠĠĠĠĠĠĠĠĠĠĠĠĠĠĠĠĠĠĠĠĠĠĠĠĠĠĠĠĠĠĠĠĠĠĠĠĠĠĠĠĠĠĠĠĠĠĠĠĠĠĠĠĠĠĠĠĠĠĠĠĠĠĠĠĠĠĠĠĠĠĠĠĠĠĠĠĠĠĠĠĠ":1912,"Ġsame":1913,"ateg":1914,"Î¹Î±":1915,"Ġcondition":1916,"Ġsubject":1917,"ĠCON":1918,"Ġve":1919,"Ġimport":1920,"Ġgo":1921,"Ġbetween":1922,"Ïİ":1923,"ĊĠĠĠĠĠĠĠĠĠĠĠĠĠĠĠĠĠĠĠĠĠĠĠĠĠĠĠĠĠĠĠĠĠĠĠĠĠĠĠĠĠĠĠĠĠĠĠĠĠĠĠĠĠĠĠĠĠĠĠĠĠĠĠĠĠĠĠĠĠĠĠĠĠĠĠĠĠĠĠĠĠĠĠĠĠĠĠĠĠĠ":1924,"Ġact":1925,"Ġpresent":1926,"ĠII":1927,"Ġproper":1928,"Ġqual":1929,"Ġcurrent":1930,"Ġestablish":1931,"ĠOr":1932,"arge":1933,"Ġconcer":1934,"ĊĠĠĠĠĠĠĠĠĠĠĠĠĠĠĠĠĠĠĠĠĠĠĠĠĠĠĠĠĠĠĠĠĠĠĠĠĠĠĠĠĠĠĠĠĠĠĠĠĠĠĠĠĠĠĠĠĠĠĠĠĠĠĠĠĠĠĠĠĠĠĠĠĠĠĠĠĠĠĠĠĠĠĠĠĠĠĠĠĠĠĠ":1935,"93":1936,"ĠApp":1937,"Ġlegis":1938,"ĠTHE":1939,"Ġ``":1940,"âĢĺâĢĺ(":1941,"Ġadminist":1942,"Ver":1943,"ason":1944,"aking":1945,"Ġlocal":1946,"otal":1947,"vid":1948,"ople":1949,"Ġaccord":1950,"lection":1951,"ĠÎ¼":1952,"Ġbased":1953,"Ġ2011":1954,"98":1955,"ĠRec":1956,"ured":1957,"ha":1958,"no":1959,"Ġcosts":1960,"Ġreview":1961,"Ġdet":1962,"ORT":1963,"UN":1964,"Ġsk":1965,"ions":1966,"Ġmarket":1967,"lation":1968,"Ġcertain":1969,"ene":1970,"ology":1971,"nings":1972,"Ġmeas":1973,"Ġterm":1974,"ĊĠĠĠĠĠĠĠĠĠĠĠĠĠĠĠĠĠĠĠĠĠĠĠĠĠĠĠĠĠĠĠĠĠĠĠĠĠĠĠĠĠĠĠĠĠĠĠĠĠĠĠĠĠĠĠĠĠĠĠĠĠĠĠĠĠĠĠĠĠĠĠĠĠĠĠĠĠĠĠĠĠĠĠĠĠĠĠĠĠĠĠĠ":1975,"AD":1976,"Ã¤n":1977,"Ġassist":1978,"Ġbefore":1979,"embers":1980,"Ġcare":1981,"ici":1982,"ick":1983,"ances":1984,"ĠSenate":1985,"ource":1986,"with":1987,"other":1988,"ĊĠĠĠĠĠĠĠĠĠĠĠĠĠĠĠĠĠĠĠĠĠĠĠĠĠĠĠĠĠĠĠĠĠĠĠĠĠĠĠĠĠĠĠĠĠĠĠĠĠĠĠĠĠĠĠĠĠĠĠĠĠĠĠĠĠĠĠĠĠĠĠĠĠĠĠĠĠĠĠĠĠĠĠĠĠĠĠĠĠĠĠĠĠ":1989,"OT":1990,"uf":1991,"Ã¦":1992,"Ġfore":1993,"vate":1994,"ym":1995,"Ġclass":1996,"Ġpurposes":1997,"Ġ)":1998,"Ġtal":1999,"vis":2000,"wh":2001,"that":2002,"ving":2003,"Ġ35":2004,"Ġidenti":2005,"2008":2006,"ler":2007,"ecutive":2008,"plement":2009,"ĊĠĠĠĠĠĠĠĠĠĠĠĠĠĠĠĠĠĠĠĠĠĠĠĠĠĠĠĠĠĠĠĠĠĠĠĠĠĠĠĠĠĠĠĠĠĠĠĠĠĠĠĠĠĠĠĠĠĠĠĠĠĠĠĠĠĠĠĠĠĠĠĠĠĠĠĠĠĠĠĠĠĠĠĠĠĠĠĠĠĠĠĠĠĠ":2010,"\\_\\_":2011,"roll":2012,"mall":2013,"92":2014,"ivers":2015,"Ġser":2016,"mental":2017,"97":2018,"Ġperform":2019,"ĊĠĠĠĠĠĠĠĠĠĠĠĠĠĠĠĠĠĠĠĠĠĠĠĠĠĠĠĠĠĠĠĠĠĠĠĠĠĠĠĠĠĠĠĠĠĠĠĠĠĠĠĠĠĠĠĠĠĠĠĠĠĠĠĠĠĠĠĠĠĠĠĠĠĠĠĠĠĠĠĠĠĠĠĠĠĠĠĠĠĠĠĠĠĠĠ":2020,"Ġnecess":2021,"oni":2022,"Ġdoes":2023,"Ġcontrol":2024,"Ġwhere":2025,"Ġsome":2026,"ĠCons":2027,"Ã©g":2028,"Ġfirst":2029,"ÄĻ":2030,"Ġvon":2031,"ps":2032,"OC":2033,"Ġgr":2034,"ĠService":2035,"orth":2036,"ued":2037,"AB":2038,"vo":2039,"ione":2040,"ĊĠĠĠĠĠĠĠĠĠĠĠĠĠĠĠĠĠĠĠĠĠĠĠĠĠĠĠĠĠĠĠĠĠĠĠĠĠĠĠĠĠĠĠĠĠĠĠĠĠĠĠĠĠĠĠĠĠĠĠĠĠĠĠĠĠĠĠĠĠĠĠĠĠĠĠĠĠĠĠĠĠĠĠĠĠĠĠĠĠĠĠĠĠĠĠĠ":2041,"Ġrate":2042,"ries":2043,"Ġaccount":2044,"Ġvalue":2045,"ni":2046,"ining":2047,"ĠPub":2048,"ĠAm":2049,"91":2050,"do":2051,"ĊĠĠĠĠĠĠĠĠĠĠĠĠĠĠĠĠĠĠĠĠĠĠĠĠĠĠĠĠĠĠĠĠĠĠĠĠĠĠĠĠĠĠĠĠĠĠĠĠĠĠĠĠĠĠĠĠĠĠĠĠĠĠĠĠĠĠĠĠĠĠĠĠĠĠĠĠĠĠĠĠĠĠĠĠĠĠĠĠĠĠĠĠĠĠĠĠĠ":2052,"ful":2053,"Ġactivities":2054,"gov":2055,"ĊĠĠĠĠĠĠĠĠĠĠĠĠĠĠĠĠĠĠĠĠĠĠĠĠĠĠĠĠĠĠĠĠĠĠĠĠĠĠĠĠĠĠĠĠĠĠĠĠĠĠĠĠĠĠĠĠĠĠĠĠĠĠĠĠĠĠĠĠĠĠĠĠĠĠĠĠĠĠĠĠĠĠĠĠĠĠĠĠĠĠĠĠĠĠĠĠĠĠ":2056,"tical":2057,"valu":2058,"Ġref":2059,"hr":2060,"ĊĠĠĠĠĠĠĠĠĠĠĠĠĠĠĠĠĠĠĠĠĠĠĠĠĠĠĠĠĠĠĠĠĠĠĠĠĠĠĠĠĠĠĠĠĠĠĠĠĠĠĠĠĠĠĠĠĠĠĠĠĠĠĠĠĠĠĠĠĠĠĠĠĠĠĠĠĠĠĠĠĠĠĠĠĠĠĠĠĠĠĠĠĠĠĠĠĠĠĠ":2061,"Ġland":2062,"ĊĠĠĠĠĠĠĠĠĠĠĠĠĠĠĠĠĠĠĠĠĠĠĠĠĠĠĠĠĠĠĠĠĠĠĠĠĠĠĠĠĠĠĠĠĠĠĠĠĠĠĠĠĠĠĠĠĠĠĠĠĠĠĠĠĠĠĠĠĠĠĠĠĠĠĠĠĠĠĠĠĠĠĠĠĠĠĠĠĠĠĠĠĠĠĠĠĠĠĠĠ":2063,"cri":2064,"nÃ©":2065,"anti":2066,"ÃŁ":2067,"ounts":2068,"TR":2069,"2005":2070,"ende":2071,"Ġda":2072,"Ġpres":2073,"ĊĠĠĠĠĠĠĠĠĠĠĠĠĠĠĠĠĠĠĠĠĠĠĠĠĠĠĠĠĠĠĠĠĠĠĠĠĠĠĠĠĠĠĠĠĠĠĠĠĠĠĠĠĠĠĠĠĠĠĠĠĠĠĠĠĠĠĠĠĠĠĠĠĠĠĠĠĠĠĠĠĠĠĠĠĠĠĠĠĠĠĠĠĠĠĠĠĠĠĠĠĠ":2074,"Ġ]":2075,"Ġtwo":2076,"//":2077,"ĊĠĠĠĠĠĠĠĠĠĠĠĠĠĠĠĠĠĠĠĠĠĠĠĠĠĠĠĠĠĠĠĠĠĠĠĠĠĠĠĠĠĠĠĠĠĠĠĠĠĠĠĠĠĠĠĠĠĠĠĠĠĠĠĠĠĠĠĠĠĠĠĠĠĠĠĠĠĠĠĠĠĠĠĠĠĠĠĠĠĠĠĠĠĠĠĠĠĠĠĠĠĠ":2078,"atives":2079,"2007":2080,"ĊĠĠĠĠĠĠĠĠĠĠĠĠĠĠĠĠĠĠĠĠĠĠĠĠĠĠĠĠĠĠĠĠĠĠĠĠĠĠĠĠĠĠĠĠĠĠĠĠĠĠĠĠĠĠĠĠĠĠĠĠĠĠĠĠĠĠĠĠĠĠĠĠĠĠĠĠĠĠĠĠĠĠĠĠĠĠĠĠĠĠĠĠĠĠĠĠĠĠĠĠĠĠĠ":2081,"lev":2082,"ott":2083,"aker":2084,"Ġwell":2085,"Ġinvest":2086,"erc":2087,"Ġcover":2088,"hold":2089,"ĠQ":2090,"lear":2091,"ALL":2092,"eptember":2093,"Ġstock":2094,"ĠMay":2095,"ĠOct":2096,"ĊĠĠĠĠĠĠĠĠĠĠĠĠĠĠĠĠĠĠĠĠĠĠĠĠĠĠĠĠĠĠĠĠĠĠĠĠĠĠĠĠĠĠĠĠĠĠĠĠĠĠĠĠĠĠĠĠĠĠĠĠĠĠĠĠĠĠĠĠĠĠĠĠĠĠĠĠĠĠĠĠĠĠĠĠĠĠĠĠĠĠĠĠĠĠĠĠĠĠĠĠĠĠĠĠ":2097,"Ġsch":2098,"ki":2099,"ium":2100,"ular":2101,"ĊĠĠĠĠĠĠĠĠĠĠĠĠĠĠĠĠĠĠĠĠĠĠĠĠĠĠĠĠĠĠĠĠĠĠĠĠĠĠĠĠĠĠĠĠĠĠĠĠĠĠĠĠĠĠĠĠĠĠĠĠĠĠĠĠĠĠĠĠĠĠĠĠĠĠĠĠĠĠĠĠĠĠĠĠĠĠĠĠĠĠĠĠĠĠĠĠĠĠĠĠĠĠĠĠĠ":2102,"isch":2103,"ble":2104,"Ġhere":2105,"anges":2106,"Ġelect":2107,"Ġallow":2108,"2004":2109,"Ġaut":2110,"Ġ&":2111,"2009":2112,"Ġil":2113,"ski":2114,"Ġ33":2115,"work":2116,"Ġcor":2117,"ÎµÎ¹":2118,"ober":2119,"lu":2120,"Ġprior":2121,"Ġanal":2122,"SA":2123,"less":2124,"Ġsupp":2125,"ife":2126,"portation":2127,"Ġsim":2128,"struction":2129,"ness":2130,"Ġcase":2131,"ĠSub":2132,"Î±ÏĦ":2133,"hal":2134,"aff":2135,"titution":2136,"urance":2137,"Ġgovernment":2138,"ĠCFR":2139,"uro":2140,"ĠCont":2141,"Ġeconom":2142,"apter":2143,"olid":2144,"Ġfact":2145,"Ġdep":2146,"Ġlong":2147,"just":2148,"hib":2149,"ourt":2150,"anding":2151,"arb":2152,"iones":2153,"vey":2154,"ral":2155,"500":2156,"outh":2157,"ĠProgram":2158,"PP":2159,"ĠInc":2160,"ener":2161,"elf":2162,"Ġ2014":2163,"Ġfunds":2164,"ĠComm":2165,"ced":2166,"ington":2167,":*":2168,"Ġfe":2169,"hether":2170,"vi":2171,"Ġagency":2172,"Ġty":2173,"ination":2174,"Ġpara":2175,"ados":2176,"ĠMed":2177,"atis":2178,"Ġph":2179,"row":2180,"urther":2181,"ÏĢÎ¿":2182,"Ġless":2183,"cess":2184,"Ġappropriate":2185,"ĠGeneral":2186,"Sec":2187,"ĠJune":2188,"line":2189,"ran":2190,"Ġbecause":2191,"Ġincome":2192,"Ġrest":2193,"ief":2194,"ck":2195,"itt":2196,"icy":2197,"utions":2198,"Ġcomple":2199,"ared":2200,"Le":2201,"ults":2202,"Ġcal":2203,"Ġaddress":2204,"hes":2205,"Ġregard":2206,"ï¿½":2207,"UL":2208,"Ġparticip":2209,"ird":2210,"ĠÄį":2211,"ificant":2212,"Ġcontain":2213,"ĠPO":2214,"ma":2215,"imum":2216,"itions":2217,"Ġinf":2218,"Ġdays":2219,"Ġnational":2220,"zen":2221,"ĠAs":2222,"Ġexam":2223,"ĊĠĠĠĠĠĠĠĠĠĠĠĠĠĠĠĠĠĠĠĠĠĠĠĠĠĠĠĠĠĠĠĠĠĠĠĠĠĠĠĠĠĠĠĠĠĠĠĠĠĠĠĠĠĠĠĠĠĠĠĠĠĠĠĠĠĠĠĠĠĠĠĠĠĠĠĠĠĠĠĠĠĠĠĠĠĠĠĠĠĠĠĠĠĠĠĠĠĠĠĠĠĠĠĠĠĠ":2224,"Ch":2225,"Ġamended":2226,"Ġgu":2227,"ĊĠĠĠĠĠĠĠĠĠĠĠĠĠĠĠĠĠĠĠĠĠĠĠĠĠĠĠĠĠĠĠĠĠĠĠĠĠĠĠĠĠĠĠĠĠĠĠĠĠĠĠĠĠĠĠĠĠĠĠĠĠĠĠĠĠĠĠĠĠĠĠĠĠĠĠĠĠĠĠĠĠĠĠĠĠĠĠĠĠĠĠĠĠĠĠĠĠĠĠĠĠĠĠĠĠĠĠ":2228,"ĊĠĠĠĠĠĠĠĠĠĠĠĠĠĠĠĠĠĠĠĠĠĠĠĠĠĠĠĠĠĠĠĠĠĠĠĠĠĠĠĠĠĠĠĠĠĠĠĠĠĠĠĠĠĠĠĠĠĠĠĠĠĠĠĠĠĠĠĠĠĠĠĠĠĠĠĠĠĠĠĠĠĠĠĠĠĠĠĠĠĠĠĠĠĠĠĠĠĠĠĠĠĠĠĠĠĠĠĠ":2229,"ogn":2230,"ĠSpe":2231,"vem":2232,"ungen":2233,"Ġair":2234,"Ġlist":2235,"ĊĠĠĠĠĠĠĠĠĠĠĠĠĠĠĠĠĠĠĠĠĠĠĠĠĠĠĠĠĠĠĠĠĠĠĠĠĠĠĠĠĠĠĠĠĠĠĠĠĠĠĠĠĠĠĠĠĠĠĠĠĠĠĠĠĠĠĠĠĠĠĠĠĠĠĠĠĠĠĠĠĠĠĠĠĠĠĠĠĠĠĠĠĠĠĠĠĠĠĠĠĠĠĠĠĠĠĠĠĠ":2236,"ending":2237,"ĠTO":2238,"IG":2239,"Ġprovisions":2240,"ĊĠĠĠĠĠĠĠĠĠĠĠĠĠĠĠĠĠĠĠĠĠĠĠĠĠĠĠĠĠĠĠĠĠĠĠĠĠĠĠĠĠĠĠĠĠĠĠĠĠĠĠĠĠĠĠĠĠĠĠĠĠĠĠĠĠĠĠĠĠĠĠĠĠĠĠĠĠĠĠĠĠĠĠĠĠĠĠĠĠĠĠĠĠĠĠĠĠĠĠĠĠĠĠĠĠĠĠĠĠĠ":2241,"Ġgroup":2242,"aries":2243,"ato":2244,"Ġche":2245,"ĊĠĠĠĠĠĠĠĠĠĠĠĠĠĠĠĠĠĠĠĠĠĠĠĠĠĠĠĠĠĠĠĠĠĠĠĠĠĠĠĠĠĠĠĠĠĠĠĠĠĠĠĠĠĠĠĠĠĠĠĠĠĠĠĠĠĠĠĠĠĠĠĠĠĠĠĠĠĠĠĠĠĠĠĠĠĠĠĠĠĠĠĠĠĠĠĠĠĠĠĠĠĠĠĠĠĠĠĠĠĠĠ":2246,"Ġ32":2247,"ext":2248,"Ġprograms":2249,"ĠGu":2250,"ĠDirect":2251,"rative":2252,"Ġhow":2253,"ĠGovernment":2254,"SP":2255,".*":2256,"nÃŃ":2257,"Ġmonth":2258,"Ċĉĉĉĉĉĉĉ":2259,"ĠÎ´":2260,"ĊĠĠĠĠĠĠĠĠĠĠĠĠĠĠĠĠĠĠĠĠĠĠĠĠĠĠĠĠĠĠĠĠĠĠĠĠĠĠĠĠĠĠĠĠĠĠĠĠĠĠĠĠĠĠĠĠĠĠĠĠĠĠĠĠĠĠĠĠĠĠĠĠĠĠĠĠĠĠĠĠĠĠĠĠĠĠĠĠĠĠĠĠĠĠĠĠĠĠĠĠĠĠĠĠĠĠĠĠĠĠĠĠ":2261,"Ġsam":2262,"oper":2263,"con":2264,"encies":2265,"ĠCl":2266,"Ġeng":2267,"RE":2268,"ath":2269,"nder":2270,"Ġdocu":2271,"ĠfÃ¼r":2272,"Ġarea":2273,"idad":2274,"ĊĠĠĠĠĠĠĠĠĠĠĠĠĠĠĠĠĠĠĠĠĠĠĠĠĠĠĠĠĠĠĠĠĠĠĠĠĠĠĠĠĠĠĠĠĠĠĠĠĠĠĠĠĠĠĠĠĠĠĠĠĠĠĠĠĠĠĠĠĠĠĠĠĠĠĠĠĠĠĠĠĠĠĠĠĠĠĠĠĠĠĠĠĠĠĠĠĠĠĠĠĠĠĠĠĠĠĠĠĠĠĠĠĠ":2275,"yn":2276,"ĊĠĠĠĠĠĠĠĠĠĠĠĠĠĠĠĠĠĠĠĠĠĠĠĠĠĠĠĠĠĠĠĠĠĠĠĠĠĠĠĠĠĠĠĠĠĠĠĠĠĠĠĠĠĠĠĠĠĠĠĠĠĠĠĠĠĠĠĠĠĠĠĠĠĠĠĠĠĠĠĠĠĠĠĠĠĠĠĠĠĠĠĠĠĠĠĠĠĠĠĠĠĠĠĠĠĠĠĠĠĠĠĠĠĠ":2277,"ĠIs":2278,"Ġinform":2279,"Ġset":2280,"Ġwhat":2281,"Ġdeb":2282,"Ġannual":2283,"Ġthem":2284,"Ġpeople":2285,"Ġher":2286,"ĉĉĉĉĉĉĉĉ":2287,"Ġnecessary":2288,"Ġlik":2289,"Ġnet":2290,"ĠTrans":2291,"olum":2292,"ceed":2293,"Ġmeans":2294,"uild":2295,"cont":2296,"://":2297,"Ġdescribed":2298,"Ġ.......................................................................":2299,"For":2300,"Ġindic":2301,"Ġwater":2302,"Ġcontract":2303,"Ġaction":2304,"Ġreceived":2305,"Ġown":2306,"Ġadditional":2307,"Ġconf":2308,"Ġhigh":2309,"Ġprac":2310,"rict":2311,"ï¿½ï¿½":2312,"Ġfinal":2313,"ĠFOR":2314,"ĠIf":2315,"go":2316,"Ġpower":2317,"uk":2318,"gin":2319,"tis":2320,"Ġgrant":2321,"ests":2322,"ĠĊĠĠĠ":2323,"Ġpot":2324,"\\]":2325,"Ġidentif":2326,"ĊĠĠĠĠĠĠĠĠĠĠĠĠĠĠĠĠĠĠĠĠĠĠĠĠĠĠĠĠĠĠĠĠĠĠĠĠĠĠĠĠĠĠĠĠĠĠĠĠĠĠĠĠĠĠĠĠĠĠĠĠĠĠĠĠĠĠĠĠĠĠĠĠĠĠĠĠĠĠĠĠĠĠĠĠĠĠĠĠĠĠĠĠĠĠĠĠĠĠĠĠĠĠĠĠĠĠĠĠĠĠĠĠĠĠĠ":2327,"anuary":2328,"Ġtest":2329,"enses":2330,"ey":2331,"\\[":2332,"Ã¡l":2333,"Ġupon":2334,"ĠEUR":2335,"verage":2336,"Ġ>":2337,"Å«":2338,"EU":2339,"Ġ34":2340,"ger":2341,"AA":2342,"ili":2343,"oor":2344,"afety":2345,"Ġret":2346,"Ġeduc":2347,"ella":2348,"ajor":2349,"reff":2350,"ĊĠĠĠĠĠĠĠĠĠĠĠĠĠĠĠĠĠĠĠĠĠĠĠĠĠĠĠĠĠĠĠĠĠĠĠĠĠĠĠĠĠĠĠĠĠĠĠĠĠĠĠĠĠĠĠĠĠĠĠĠĠĠĠĠĠĠĠĠĠĠĠĠĠĠĠĠĠĠĠĠĠĠĠĠĠĠĠĠĠĠĠĠĠĠĠĠĠĠĠĠĠĠĠĠĠĠĠĠĠĠĠĠĠĠĠĠ":2351,"ipment":2352,"ĊĠĠĠĠĠĠĠĠĠĠĠĠĠĠĠĠĠĠĠĠĠĠĠĠĠĠĠĠĠĠĠĠĠĠĠĠĠĠĠĠĠĠĠĠĠĠĠĠĠĠĠĠĠĠĠĠĠĠĠĠĠĠĠĠĠĠĠĠĠĠĠĠĠĠĠĠĠĠĠĠĠĠĠĠĠĠĠĠĠĠĠĠĠĠĠĠĠĠĠĠĠĠĠĠĠĠĠĠĠĠĠĠĠĠĠĠĠ":2353,"pril":2354,"Ġrisk":2355,"Ġfull":2356,"clus":2357,"RA":2358,"Ġ66":2359,"co":2360,"Ġagain":2361,"xx":2362,"ĠExchange":2363,"Ġentit":2364,"Ã§Ã£o":2365,"Ġspecial":2366,"force":2367,"ĠCoun":2368,"Ad":2369,"tikel":2370,"amp":2371,"Ġbeing":2372,"ership":2373,"this":2374,"ars":2375,"Ġvi":2376,"ĠCH":2377,"ĊĠĠĠĠĠĠĠĠĠĠĠĠĠĠĠĠĠĠĠĠĠĠĠĠĠĠĠĠĠĠĠĠĠĠĠĠĠĠĠĠĠĠĠĠĠĠĠĠĠĠĠĠĠĠĠĠĠĠĠĠĠĠĠĠĠĠĠĠĠĠĠĠĠĠĠĠĠĠĠĠĠĠĠĠĠĠĠĠĠĠĠĠĠĠĠĠĠĠĠĠĠĠĠĠĠĠĠĠĠĠĠĠĠĠĠĠĠĠ":2378,"Ġprin":2379,"olution":2380,"Ġrepresent":2381,"lected":2382,"ification":2383,"erst":2384,"Ġchange":2385,"En":2386,"Ġimpro":2387,"Ġpod":2388,"Ġtem":2389,"Ġimplement":2390,"unity":2391,"itation":2392,"anz":2393,"ĊĠĠĠĠĠĠĠĠĠĠĠĠĠĠĠĠĠĠĠĠĠĠĠĠĠĠĠĠĠĠĠĠĠĠĠĠĠĠĠĠĠĠĠĠĠĠĠĠĠĠĠĠĠĠĠĠĠĠĠĠĠĠĠĠĠĠĠĠĠĠĠĠĠĠĠĠĠĠĠĠĠĠĠĠĠĠĠĠĠĠĠĠĠĠĠĠĠĠĠĠĠĠĠĠĠĠĠĠĠĠĠĠĠĠĠĠĠĠĠ":2394,"Ġod":2395,"bs":2396,"Ġ........................................................................":2397,"ĠGro":2398,"ror":2399,"Ġwhether":2400,"ebru":2401,"ĠBe":2402,"Ġexist":2403,"Ġ2003":2404,"ĠCent":2405,"Ġproduct":2406,"Nicht":2407,"ubl":2408,"Ġintern":2409,"Ġ45":2410,"rug":2411,"ically":2412,"Ġregulations":2413,"ĠAug":2414,"FOR":2415,"Ġmo":2416,"Ġmost":2417,"ists":2418,"oj":2419,"Ġpass":2420,"gl":2421,"ĠDef":2422,"Ġ2012":2423,"Ġenact":2424,"rem":2425,"acts":2426,"Ġ+":2427,"Ġdevelopment":2428,"ential":2429,"Ġmanagement":2430,"Ġdire":2431,"orts":2432,"ĠReport":2433,"Ġom":2434,"ĉĠ":2435,"IP":2436,"Ġchild":2437,"ffic":2438,"ences":2439,"ĠĊĠĠĠĠĠĠĠĠĠ":2440,"UE":2441,"ida":2442,"quire":2443,"UB":2444,"Ġ01":2445,"rel":2446,"ĠÏĦÎ·ÏĤ":2447,"ĠJuly":2448,"ports":2449,"duction":2450,"Ġauthority":2451,"Ġ2002":2452,"Ġrespons":2453,"ashington":2454,"Ġyour":2455,"ges":2456,"Ġdiffer":2457,"ibility":2458,"Ġproject":2459,"ury":2460,"Î¿Î½":2461,"Ġcredit":2462,"iance":2463,"ku":2464,"Ġfam":2465,"Ġ60":2466,"ering":2467,"FF":2468,"ĠHealth":2469,"ĊĠĠĠĠĠĠĠĠĠĠĠĠĠĠĠĠĠĠĠĠĠĠĠĠĠĠĠĠĠĠĠĠĠĠĠĠĠĠĠĠĠĠĠĠĠĠĠĠĠĠĠĠĠĠĠĠĠĠĠĠĠĠĠĠĠĠĠĠĠĠĠĠĠĠĠĠĠĠĠĠĠĠĠĠĠĠĠĠĠĠĠĠĠĠĠĠĠĠĠĠĠĠĠĠĠĠĠĠĠĠĠĠĠĠĠĠĠĠĠĠ":2470,".--":2471,"orporation":2472,"gr":2473,"ĊĊĊĊĊĊĊĊ":2474,"\\*":2475,"ba":2476,"vely":2477,"Î²":2478,"Ġ.........................................................................":2479,"Ġconduct":2480,"Wh":2481,"ĠSeptember":2482,"ĠSh":2483,"Ġwithout":2484,"Ġsc":2485,"ĠPart":2486,"ĠPRO":2487,"osp":2488,"Ġschool":2489,"uture":2490,"Ġ2013":2491,"Ġoperations":2492,"Ġpaid":2493,"ĠSpeaker":2494,"ĠAnd":2495,"2010":2496,"Ġknow":2497,"ensation":2498,"Ġ2020":2499,"search":2500,"Ġstat":2501,"Ġboth":2502,"ares":2503,"ism":2504,"ounty":2505,"ini":2506,"ĠAmerican":2507,"Ġapplication":2508,"Ġoblig":2509,"Ġproducts":2510,"Ġaccordance":2511,"www":2512,"Ġens":2513,"ustom":2514,"ĠInter":2515,"Ġsignificant":2516,"Ġlead":2517,"DA":2518,"Ġbl":2519,"ature":2520,"CT":2521,"ÏĦÎ·":2522,"Î¯Î±":2523,"ele":2524,"Ãł":2525,"):":2526,"Ġ42":2527,"Ġcent":2528,"OM":2529,"Ġaccess":2530,"urch":2531,"ĠÄ":2532,"ĠRule":2533,"ĊĠĠĠĠĠĠĠĠĠĠĠĠĠĠĠĠĠĠĠĠĠĠĠĠĠĠĠĠĠĠĠĠĠĠĠĠĠĠĠĠĠĠĠĠĠĠĠĠĠĠĠĠĠĠĠĠĠĠĠĠĠĠĠĠĠĠĠĠĠĠĠĠĠĠĠĠĠĠĠĠĠĠĠĠĠĠĠĠĠĠĠĠĠĠĠĠĠĠĠĠĠĠĠĠĠĠĠĠĠĠĠĠĠĠĠĠĠĠĠĠĠ":2534,"ny":2535,"ĊĠĠĠĠĠĠĠĠĠĠĠĠĠĠĠĠĠĠĠĠĠĠĠĠĠĠĠĠĠĠĠĠĠĠĠĠĠĠĠĠĠĠĠĠĠĠĠĠĠĠĠĠĠĠĠĠĠĠĠĠĠĠĠĠĠĠĠĠĠĠĠĠĠĠĠĠĠĠĠĠĠĠĠĠĠĠĠĠĠĠĠĠĠĠĠĠĠĠĠĠĠĠĠĠĠĠĠĠĠĠĠĠĠĠĠĠĠĠĠĠĠĠ":2536,"ox":2537,"lor":2538,"ĊĠĠĠĠĠĠĠĠĠĠĠĠĠĠĠĠĠĠĠĠĠĠĠĠĠĠĠĠĠĠĠĠĠĠĠĠĠĠĠĠĠĠĠĠĠĠĠĠĠĠĠĠĠĠĠĠĠĠĠĠĠĠĠĠĠĠĠĠĠĠĠĠĠĠĠĠĠĠĠĠĠĠĠĠĠĠĠĠĠĠĠĠĠĠĠĠĠĠĠĠĠĠĠĠĠĠĠĠĠĠĠĠĠĠĠĠĠĠĠĠĠĠĠ":2539,"ongress":2540,"ĊĠĠĠĠĠĠĠĠĠĠĠĠĠĠĠĠĠĠĠĠĠĠĠĠĠĠĠĠĠĠĠĠĠĠĠĠĠĠĠĠĠĠĠĠĠĠĠĠĠĠĠĠĠĠĠĠĠĠĠĠĠĠĠĠĠĠĠĠĠĠĠĠĠĠĠĠĠĠĠĠĠĠĠĠĠĠĠĠĠĠĠĠĠĠĠĠĠĠĠĠĠĠĠĠĠĠĠĠĠĠĠĠĠĠĠĠĠĠĠĠĠĠĠĠ":2541,"Ġ06":2542,"gen":2543,"ĠĊĠĠĠĠĠĠĠĠĠĠĠĠĠĠĠ":2544,"lp":2545,"ĊĠĠĠĠĠĠĠĠĠĠĠĠĠĠĠĠĠĠĠĠĠĠĠĠĠĠĠĠĠĠĠĠĠĠĠĠĠĠĠĠĠĠĠĠĠĠĠĠĠĠĠĠĠĠĠĠĠĠĠĠĠĠĠĠĠĠĠĠĠĠĠĠĠĠĠĠĠĠĠĠĠĠĠĠĠĠĠĠĠĠĠĠĠĠĠĠĠĠĠĠĠĠĠĠĠĠĠĠĠĠĠĠĠĠĠĠĠĠĠĠĠĠĠĠĠ":2546,"reffend":2547,"Ġincrease":2548,"ÏģÎ¹":2549,"ros":2550,"uman":2551,"cluding":2552,"rÃ©":2553,"Ġ49":2554,"Ġenti":2555,"This":2556,"omen":2557,"arter":2558,"aus":2559,"Ġsmall":2560,"ĠEurope":2561,"Ġ99":2562,"Ġassess":2563,"ky":2564,"ĠMarch":2565,"ĠÃ¼":2566,"Ġ90":2567,"ĠSp":2568,"Ġog":2569,"ĠÅ":2570,"Ġ/":2571,"Ġdid":2572,"Ġdue":2573,"ĠCal":2574,"son":2575,"ĠAcc":2576,"Ġsz":2577,"We":2578,"Ġsom":2579,"Ġprof":2580,"Ġobjet":2581,"Ġclaim":2582,"ino":2583,"Ġbasis":2584,"ga":2585,"cept":2586,"IV":2587,"Ġexcept":2588,"ieve":2589,"Ġ..........................................................................":2590,"ĠMet":2591,"Ġpartic":2592,"Ġsee":2593,"ĠAll":2594,"ĠBoard":2595,"Ġamendment":2596,"Ġcompl":2597,"ĠJanuary":2598,"jo":2599,"aring":2600,"CR":2601,"ĠIntern":2602,"ĠĠĊĠĠĠĠĠĠĠĠĠ":2603,"Ġprev":2604,"Ġreason":2605,"acy":2606,"Ġindustry":2607,"Ġ43":2608,"ATE":2609,"Ġ44":2610,"ART":2611,"Ġcri":2612,"Ġposs":2613,"Ġconditions":2614,"ince":2615,"SK":2616,"Ġsubst":2617,"ĠAt":2618,"NG":2619,"Ġgiv":2620,"Congress":2621,"EE":2622,"ends":2623,"ysis":2624,"Ġ48":2625,"Ġrecogn":2626,"====":2627,"utes":2628,"vestig":2629,"Ġeffect":2630,"Ġou":2631,"Ġmar":2632,"ben":2633,"Ġ...........................................................................":2634,"Ġener":2635,"Ġassoci":2636,"ĠCode":2637,"vember":2638,"pecial":2639,"Ġvis":2640,"Ġprocede":2641,"ĠfÃ¶r":2642,"ĠMs":2643,"Ġprom":2644,"Ġadv":2645,"ĠFR":2646,"king":2647,"Ġcre":2648,"Ġmat":2649,"Re":2650,"Ġ2019":2651,"elle":2652,"Sans":2653,"2011":2654,"Ġfurther":2655,"unction":2656,"ross":2657,"Ġconcern":2658,"Ġcomment":2659,"yd":2660,"ĠPol":2661,"Ġearnings":2662,"itor":2663,"utreffend":2664,"ert":2665,"ĠIm":2666,"ĠAc":2667,"Ġnotice":2668,"ques":2669,"action":2670,"Ġeffective":2671,"raft":2672,"serv":2673,"Ġmany":2674,"Ġsa":2675,"Ġzutreffend":2676,"joni":2677,"SION":2678,"ĠManagement":2679,"ĠÎºÎ±Î¹":2680,"Ġpour":2681,"ands":2682,"Ġtak":2683,"Ġapply":2684,"year":2685,"Ġevalu":2686,"ĠNot":2687,"Ġein":2688,"ivil":2689,"Ġvar":2690,"Ġadop":2691,"uted":2692,"Â¬":2693,"ERS":2694,"Ġauthorized":2695,"Ġagreement":2696,"earch":2697,"ump":2698,"venue":2699,"Ġsecurity":2700,"ĠSecurity":2701,"round":2702,"ĠÏĦÎ¿Ïħ":2703,"ĠEst":2704,"ferred":2705,"vironmental":2706,"ĠSe":2707,"dic":2708,"ĠOn":2709,"ribution":2710,"Ġcomments":2711,"mary":2712,"Ġexper":2713,"ĠCounty":2714,"ungs":2715,"Ġ47":2716,"aut":2717,"Ġ46":2718,"ante":2719,"LO":2720,"ough":2721,"Ġhours":2722,"Ġproperty":2723,"very":2724,"onse":2725,"clos":2726,"ify":2727,"lich":2728,"ĠĊĠĠĠĠĠĠĠĠĠĠĠ":2729,"ĠTR":2730,"Ġloss":2731,"All":2732,"way":2733,"ern":2734,"Ġresearch":2735,"ania":2736,"umer":2737,":\\":2738,"Table":2739,"Ġrecomm":2740,"part":2741,"ji":2742,"Ġmethod":2743,"tics":2744,"cil":2745,"xim":2746,"EF":2747,"Ġ00000":2748,"za":2749,"ĠSf":2750,"300":2751,"Ġtake":2752,"Ġiz":2753,"riter":2754,"mar":2755,"Ġabove":2756,"ĠPublic":2757,"Ġpermit":2758,"ilitary":2759,"Ġ............................................................................":2760,"Ġusing":2761,"ĠFrm":2762,"ĠFmt":2763,"ĠJkt":2764,"ĠSfmt":2765,"ĠTo":2766,"VerDate":2767,"Ġza":2768,"Î±Ïģ":2769,"ĠAD":2770,"hic":2771,"Ġassets":2772,"Ġutil":2773,"Ġmembers":2774,"ring":2775,"Ã½ch":2776,"ufact":2777,"Ġday":2778,"Ġfuture":2779,"ĠCar":2780,"Ġcountry":2781,"posed":2782,"Ġshare":2783,"ilar":2784,"anci":2785,"ĠForm":2786,"ĠAir":2787,"Ġeurop":2788,"](":2789,"Ġsit":2790,"Ġbro":2791,"olo":2792,"Ġbenefits":2793,"CC":2794,"lamento":2795,"ires":2796,"ĠÅ¡":2797,"Reg":2798,"Ġdans":2799,"Ã©r":2800,"ĠIR":2801,"tition":2802,"Ġge":2803,"Ġpers":2804,"Ġdetermined":2805,"MP":2806,"))":2807,"ised":2808,"Ġareas":2809,"Al":2810,"Ġremain":2811,"Ġemployees":2812,"Ġ.............................................................................":2813,"Ġiniti":2814,"Ġ2000":2815,"Ġsales":2816,"mercial":2817,"ĠIII":2818,"Ġelig":2819,"Ġprivate":2820,"Ġ<":2821,"Ġsche":2822,"ered":2823,"Ġques":2824,"EA":2825,"ju":2826,"ĠDirector":2827,"ĠĊĠĠĠĠĠĠĠĠĠĠĠĠĠĠĠĠĠĠĠĠĠĠĠĠĠĠĠĠĠĠĠĠĠĠĠĠĠĠĠĠĠĠĠĠĠĠĠĠĠĠĠĠĠĠĠĠĠĠĠĠĠĠĠĠĠĠĠĠĠĠĠĠĠĠĠĠĠĠĠĠĠĠĠĠĠĠĠĠĠĠĠĠĠĠĠĠĠĠĠĠĠĠĠĠĠĠĠĠĠĠĠĠĠĠĠĠĠĠĠĠĠĠĠĠĠ":2828,"Ġcommon":2829,"comp":2830,"Ã¤t":2831,"ciÃ³n":2832,"ĠAgreement":2833,"vest":2834,"Ġissued":2835,"Ġgood":2836,"Ġhelp":2837,"itÃ©":2838,"TIV":2839,"Ġkom":2840,"tra":2841,"Ġadjust":2842,"Ġ314":2843,"view":2844,"Ä«b":2845,"Ġresults":2846,"Ġcall":2847,"Ġpayment":2848,"ĠSo":2849,"ana":2850,"Ġje":2851,"Ġchanges":2852,"omes":2853,"ÏĦÎ±":2854,"Ġpost":2855,"Ġbudget":2856,"Ġequipment":2857,"IA":2858,"ÏİÎ½":2859,"Ġhet":2860,"Ġfollows":2861,"Ġ2017":2862,"Ġ2021":2863,"Ġdecision":2864,"Ġprodu":2865,"Ã©t":2866,"ÃŃt":2867,"Ġspecific":2868,"org":2869,"inn":2870,"Ġincluded":2871,"ĠTra":2872,"ali":2873,"ĠApril":2874,"Ġimpact":2875,"ĠEm":2876,"erve":2877,"ulation":2878,"Ġproj":2879,"OP":2880,"Ġ2015":2881,"Ġregist":2882,"uel":2883,"Ġreal":2884,"As":2885,"Ġ41":2886,"Ġ2018":2887,"ĠPer":2888,"Ã¡r":2889,"Ġ..............................................................................":2890,"ises":2891,"Ġmajor":2892,"Ġthree":2893,"vention":2894,"ritten":2895,"Ġassistance":2896,"Ġpa":2897,"ĠĠĊĠĠĠ":2898,"Ġagencies":2899,"ently":2900,"ĠPr":2901,"ope":2902,"Ġrules":2903,"Ġprovides":2904,"NA":2905,"ĠAdministration":2906,"Ġagainst":2907,"nergy":2908,"Ġread":2909,"Ġauf":2910,"ĠIns":2911,"ĠGe":2912,"SEC":2913,"pre":2914,"ĠCor":2915,"Ġtar":2916,"Cont":2917,"ÃŃa":2918,"By":2919,"mente":2920,"my":2921,"atural":2922,"Ġpurch":2923,"ĠFund":2924,"ides":2925,"400":2926,"wise":2927,"ĠPre":2928,"Ġaz":2929,"isiÃ³n":2930,"ĠGr":2931,"ĠOctober":2932,"XX":2933,"ĠÎ¿":2934,"htt":2935,"EMENT":2936,"abilities":2937,"ector":2938,"Ġmean":2939,"Ġwar":2940,"Îķ":2941,"Ġmanufact":2942,"Ġoch":2943,"OUS":2944,"Ġsecond":2945,"TA":2946,"Ġcarry":2947,"Ġ...............................................................................":2948,"reas":2949,"ension":2950,"tification":2951,"ley":2952,"ebruary":2953,"2013":2954,"Ġ2016":2955,"ither":2956,"Ġsus":2957,"paragraph":2958,"ico":2959,"Ġ=":2960,"isc":2961,"Ġparticular":2962,"Ã©e":2963,"lean":2964,"Î¿Ïį":2965,"quis":2966,"Ġright":2967,"eas":2968,"Ġsubmitted":2969,"Ġcapital":2970,"2003":2971,"lec":2972,"Ġstandards":2973,"hts":2974,"Ġjob":2975,"Ġconsidered":2976,"ola":2977,"Ġterms":2978,"Ġforeign":2979,"nel":2980,"ille":2981,"Ġproduction":2982,"ĠServices":2983,"ĠEPA":2984,"Ġtable":2985,"ohn":2986,"unic":2987,"kl":2988,"lease":2989,"mi":2990,"Ġsal":2991,"ais":2992,"Ġpoint":2993,"Ġcompany":2994,"ĠCol":2995,"Ġproceed":2996,"Ġshe":2997,"cz":2998,"Ġconsist":2999,"ĠThere":3000,"des":3001,"Ġvery":3002,"cription":3003,"ĠThat":3004,"Ġlic":3005,"Ġ................................................................................":3006,"Ġcomb":3007,"Ġorig":3008,"Äĭ":3009,"Ġthen":3010,"Ġdefined":3011,"ricult":3012,"Ġbelow":3013,"Section":3014,"ĠWashington":3015,"Ġlast":3016,"Ġsol":3017,"AND":3018,"Ġreported":3019,"Ä¡":3020,"Ġinvol":3021,"inal":3022,"ama":3023,"ORD":3024,"ego":3025,"Ġperformance":3026,"Ġemployee":3027,"lin":3028,"ĠPlan":3029,"Ġtil":3030,"TS":3031,"amb":3032,"Ġensure":3033,"Ġri":3034,"Ġestablished":3035,"eller":3036,"sch":3037,"ference":3038,"GE":3039,"Ġplace":3040,"Ġoffer":3041,"ÅĽ":3042,"Ġuna":3043,"Ġimprove":3044,"Ġ75":3045,"ronic":3046,"ĠDist":3047,"Ġsystems":3048,"ĠConse":3049,"po":3050,"Ġcash":3051,"Ġdefin":3052,"Ġlimit":3053,"PRO":3054,"standing":3055,"Ġviol":3056,"ih":3057,"ĠĊĠ":3058,"ente":3059,"ste":3060,"ivision":3061,"Ġnow":3062,"tor":3063,"acc":3064,"Ġobtain":3065,"Î±Î½":3066,"Level":3067,"ather":3068,"ĠChair":3069,"ables":3070,"merg":3071,"ructure":3072,"sec":3073,"ady":3074,"tenance":3075,"tively":3076,"irm":3077,"ĠUnion":3078,"ĠREP":3079,"ault":3080,"SS":3081,"ĠNumber":3082,"Ġorganiz":3083,"Ġmaintain":3084,"Ġsum":3085,"Ġ.................................................................................":3086,"101":3087,"ĠOffic":3088,"Ġcler":3089,"Ġzu":3090,"ĠEnergy":3091,"ILL":3092,"Ġdocument":3093,"ez":3094,"mon":3095,"APTER":3096,"Ġ2001":3097,"Ġmen":3098,"ĠPri":3099,"ĠĠĊĠĠĠĠĠĠĠĠĠĠĠ":3100,"Î¹Ïĥ":3101,"iden":3102,"Ġword":3103,"UD":3104,"ĠBank":3105,"ban":3106,"ĠÎ³":3107,"Ġlater":3108,"ĠThese":3109,"ME":3110,"0001":3111,"ĠDefense":3112,"ĠExecutive":3113,"Ãª":3114,"ĠSystem":3115,"ding":3116,"ĠĊĠĠĠĠĠĠĠĠĠĠĠĠĠĠĠĠĠĠĠĠĠĠĠĠĠĠĠĠĠĠĠĠĠĠĠĠĠĠĠĠĠĠĠĠĠĠĠĠĠĠĠĠĠĠĠĠĠĠĠĠĠĠĠĠĠĠĠĠĠĠĠĠĠĠĠĠĠĠĠĠĠĠĠĠĠĠĠĠĠĠĠĠĠĠĠĠĠĠĠĠĠĠĠĠĠĠĠĠĠĠĠĠĠĠĠĠĠĠĠĠĠĠĠĠĠĠ":3117,"ko":3118,"PT":3119,"ĠĊĠĠĠĠĠĠĠĠĠĠĠĠĠĠĠĠĠĠĠĠĠĠĠĠĠĠĠĠĠĠĠĠĠĠĠĠĠĠĠĠĠĠĠĠĠĠĠĠĠĠĠĠĠĠĠĠĠĠĠĠĠĠĠĠĠĠĠĠĠĠĠĠĠĠĠĠĠĠĠĠĠĠĠĠĠĠĠĠĠĠĠĠĠĠĠĠĠĠĠĠĠĠĠĠĠĠĠĠĠĠĠĠĠĠĠĠĠĠĠĠĠĠĠĠĠĠĠ":3120,"ĠĊĠĠĠĠĠĠĠĠĠĠĠĠĠĠĠĠĠĠĠĠĠĠĠĠĠĠĠĠĠĠĠĠĠĠĠĠĠĠĠĠĠĠĠĠĠĠĠĠĠĠĠĠĠĠĠĠĠĠĠĠĠĠĠĠĠĠĠĠĠĠĠĠĠĠĠĠĠĠĠĠĠĠĠĠĠĠĠĠĠĠĠĠĠĠĠĠĠĠĠĠĠĠĠĠĠĠĠĠĠĠĠĠĠĠĠĠĠĠĠĠĠĠĠĠĠĠĠĠ":3121,"ĠÎ¼Îµ":3122,"Ġgiven":3123,"Ġhim":3124,"Ġuntil":3125,"essional":3126,"ĠgÄ§":3127,"ĠMc":3128,"ĠOper":3129,"Ġbest":3130,"airs":3131,"elt":3132,"wer":3133,"Ġexpenses":3134,"sue":3135,"Ġvol":3136,"ĠSu":3137,"inc":3138,"Ġsep":3139,"ĠÃ©s":3140,"Ġotherwise":3141,"Ġprincip":3142,"ÏĦÎ¿":3143,"di":3144,"Ġcommunic":3145,"ura":3146,"ĠHow":3147,"ĠNovember":3148,"uty":3149,"ĠLaw":3150,"ITY":3151,"Ġfound":3152,"Ind":3153,"Sub":3154,"uilding":3155,"Ġsaid":3156,"Ġaverage":3157,"ischen":3158,"Ġlet":3159,"Ġback":3160,"ĠPh":3161,"Ġprocedures":3162,"ev":3163,"missions":3164,"Ġtreat":3165,"App":3166,"ĠInformation":3167,"ĠRo":3168,"Ġcommunity":3169,"Ġshares":3170,"Ġexisting":3171,"ĠLevel":3172,"orld":3173,"Ġeconomic":3174,"Ġsafety":3175,"ÎµÎ¯":3176,"off":3177,"ald":3178,"Â§":3179,"Ġprice":3180,"Ġnr":3181,"Ġoperating":3182,"ening":3183,"Ġadministrative":3184,"Ġpolicy":3185,"Ġevery":3186,"Ġmil":3187,"ras":3188,"rial":3189,"endment":3190,"Ġseg":3191,"ait":3192,"iforn":3193,"Ġrates":3194,"ĠFinancial":3195,"eth":3196,"ande":3197,"Ġeducation":3198,"Ġjud":3199,"FORM":3200,"Ġcustom":3201,"Ġur":3202,"ught":3203,"order":3204,"till":3205,"Ġtraining":3206,"ĠSur":3207,"Ġsup":3208,"2002":3209,"iii":3210,"ĠĊĠĠĠĠĠĠĠĠĠĠĠĠĠĠĠĠĠĠĠĠĠĠĠĠĠĠĠĠĠĠĠĠĠĠĠĠĠĠĠĠĠĠĠĠĠĠĠĠĠĠĠĠĠĠĠĠĠĠĠĠĠĠĠĠĠĠĠĠĠĠĠĠĠĠĠĠĠĠĠĠĠĠĠĠĠĠĠĠĠĠĠĠĠĠĠĠĠĠĠĠĠĠĠĠĠĠĠĠĠĠĠĠĠĠĠĠĠĠĠĠĠĠĠĠĠĠĠĠĠ":3211,"ĠĠĠĊĠĠĠĠĠĠĠĠĠĠĠ":3212,"SC":3213,"Ġhold":3214,"Ġrights":3215,"Ġmit":3216,"Ġpop":3217,"Î¾":3218,"Ġ..................................................................................":3219,"Ġaud":3220,"Ġsci":3221,"Ġos":3222,"Ġaus":3223,"Ġgra":3224,"Ġoffice":3225,"ave":3226,"FIC":3227,"ifornia":3228,"Ġjur":3229,"Res":3230,"ectiv":3231,"iem":3232,"Ġ``(":3233,"ica":3234,"Ġsever":3235,"las":3236,"reed":3237,"Ġlabor":3238,"ĠProt":3239,"Ġhand":3240,"ÃŃcul":3241,"ĠTechn":3242,"Ġspecified":3243,"Ġweek":3244,"HR":3245,"ĠRecord":3246,"based":3247,"ĠCouncil":3248,"ĠEX":3249,"Ġfunding":3250,"Member":3251,"nos":3252,"titu":3253,"It":3254,"pay":3255,"ĠNr":3256,"ija":3257,"ÏĦÎ¹Îº":3258,"Ġdiscuss":3259,"Ġfiled":3260,"ca":3261,"yb":3262,"Ġcoun":3263,"hibit":3264,"PR":3265,"rid":3266,"Ã¶n":3267,"Ġmember":3268,"ĠAff":3269,"Ġfacilities":3270,"Ġchapter":3271,"ĠREC":3272,"rator":3273,"dule":3274,"Ġlevels":3275,"Ġamounts":3276,"from":3277,"Ġdispos":3278,"Ġ...................................................................................":3279,"ĠRepresent":3280,"Total":3281,"600":3282,"Î®ÏĤ":3283,"Ġjust":3284,"ito":3285,"resp":3286,"ĠKomis":3287,"Ġincludes":3288,"Ġhig":3289,"ĠSecurities":3290,"under":3291,"Ġdeliver":3292,"ĠĊĠĠĠĠĠĠĠĠĠĠĠĠĠĠĠĠĠĠĠĠĠĠĠĠĠĠĠĠĠĠĠĠĠĠĠĠĠĠĠĠĠĠĠĠĠĠĠĠĠĠĠĠĠĠĠĠĠĠĠĠĠĠĠĠĠĠĠĠĠĠĠĠĠĠĠĠĠĠĠĠĠĠĠĠĠĠĠĠĠĠĠĠĠĠĠĠĠĠĠĠĠĠĠĠĠĠĠĠĠĠĠĠĠĠĠĠĠĠĠĠĠĠĠĠĠĠĠĠĠĠ":3293,"da":3294,"2000":3295,"Ġagree":3296,"ody":3297,"Ġinvestig":3298,"ĠFebruary":3299,"atz":3300,"alt":3301,"ena":3302,"pri":3303,"Ġris":3304,"Ġke":3305,"rec":3306,"erm":3307,"aged":3308,"Ġstatements":3309,"Ġtoday":3310,"ender":3311,"Ġenergy":3312,"Ġcontinue":3313,"Ġ000":3314,"See":3315,"Tr":3316,"ĠRiver":3317,"Ã©es":3318,"Ġcalcul":3319,"ordin":3320,"ĠRegulation":3321,"Ġcontrib":3322,"irc":3323,"Ġfail":3324,"ĠAugust":3325,"Ġfederal":3326,"epend":3327,"Ġpurpose":3328,"ocket":3329,"Ġregarding":3330,"ĠCap":3331,"ĊĊĊ":3332,"Ġresources":3333,"achers":3334,"='":3335,"ximately":3336,"Ġ....................................................................................":3337,"OS":3338,"Ġreduc":3339,"Ġreporting":3340,"ureau":3341,"Ġcriter":3342,"ousing":3343,"Ġum":3344,"Ġopport":3345,"ĠYork":3346,"IM":3347,"LL":3348,"Ġstri":3349,"Ġeligible":3350,"endix":3351,"ĠIndian":3352,"Ġbank":3353,"Ġleast":3354,"ÏĦÎ±Î¹":3355,"Ã¡g":3356,"Ġcommittee":3357,"Ġdon":3358,"inued":3359,"Ġbal":3360,"ux":3361,"Ġgas":3362,"ĠEr":3363,"Å¯":3364,"ccess":3365,"Ġconstruction":3366,"Ġinsurance":3367,"Ġissue":3368,"LA":3369,"ÏĢÏĮ":3370,"ĠĊĠĠĠĠĠĠĠĠĠĠĠĠĠĠĠĠĠĠĠĠĠĠĠĠĠĠĠĠĠĠĠĠĠĠĠĠĠĠĠĠĠĠĠĠĠĠĠĠĠĠĠĠĠĠĠĠĠĠĠĠĠĠĠĠĠĠĠĠĠĠĠĠĠĠĠĠĠĠĠĠĠĠĠĠĠĠĠĠĠĠĠĠĠĠĠĠĠĠĠĠĠĠĠĠĠĠĠĠĠĠĠĠĠĠĠĠĠĠĠĠĠĠĠĠĠĠĠĠĠĠĠ":3371,"2012":3372,"ĠÏĦÎ·Î½":3373,"lik":3374,"EY":3375,"tu":3376,"ĠĊĠĠĠĠĠĠĠĠĠĠĠĠĠĠĠĠĠĠĠĠĠĠĠĠĠĠĠĠĠĠĠĠĠĠĠĠĠĠĠĠĠĠĠĠĠĠĠĠĠĠĠĠĠĠĠĠĠĠĠĠĠĠĠĠĠĠĠĠĠĠĠĠĠĠĠĠĠĠĠĠĠĠĠĠĠĠĠĠĠĠĠĠĠĠĠĠĠĠĠĠĠĠĠĠĠĠĠĠĠĠĠĠĠĠĠĠĠĠĠĠĠĠĠĠĠĠĠĠĠĠĠĠ":3377,"Ġpayments":3378,"ĠAgency":3379,"ĠÎķ":3380,"Ġheld":3381,"bre":3382,"Ġimportant":3383,"ipp":3384,"Ġpun":3385,"ĠEuropean":3386,"Ġfour":3387,"forcement":3388,"ishing":3389,"OD":3390,"Ġpas":3391,"ĠÃº":3392,"merce":3393,"Ġcop":3394,"Federal":3395,"ems":3396,"ĠĊĠĠĠĠĠĠĠĠĠĠĠĠĠĠĠĠĠĠĠĠĠĠĠĠĠĠĠĠĠĠĠĠĠĠĠĠĠĠĠĠĠĠĠĠĠĠĠĠĠĠĠĠĠĠĠĠĠĠĠĠĠĠĠĠĠĠĠĠĠĠĠĠĠĠĠĠĠĠĠĠĠĠĠĠĠĠĠĠĠĠĠĠĠĠĠĠĠĠĠĠĠĠĠĠĠĠĠĠĠĠĠĠĠĠĠĠĠĠĠĠĠĠĠĠĠĠĠĠĠĠĠĠĠ":3397,"Ãī":3398,"bur":3399,"EX":3400,"Ġprevious":3401,"Ġexceed":3402,"Ġinte":3403,"Ġapproved":3404,"sub":3405,"ĠSee":3406,"Ġexpl":3407,"Con":3408,"Äĥ":3409,"ĠSEC":3410,"ĠâĢĵâĢĵâĢĵ":3411,"GR":3412,"Ġdev":3413,"Ġask":3414,"lan":3415,"ulti":3416,"ĠRel":3417,"ĠFore":3418,"Ġ55":3419,"Ġ.....................................................................................":3420,"Ã¨g":3421,"Ġnote":3422,"Ġinsp":3423,"Ġsepar":3424,"acter":3425,"sequ":3426,"Ġline":3427,"ĠĊĠĠĠĠĠĠĠĠĠĠĠĠĠĠĠĠĠĠĠĠĠĠĠĠĠĠĠĠĠĠĠĠĠĠĠĠĠĠĠĠĠĠĠĠĠĠĠĠĠĠĠĠĠĠĠĠĠĠĠĠĠĠĠĠĠĠĠĠĠĠĠĠĠĠĠĠĠĠĠĠĠĠĠĠĠĠĠĠĠĠĠĠĠĠĠĠĠĠĠĠĠĠĠĠĠĠĠĠĠĠĠĠĠĠĠĠĠĠĠĠĠĠĠĠĠĠĠĠĠĠĠĠĠĠ":3428,"ÎµÏĤ":3429,"ERAL":3430,"Ġ53":3431,"OUSE":3432,"Ġcour":3433,"On":3434,"tre":3435,"Ġpoliti":3436,"Ġfr":3437,"fin":3438,"Ġpubl":3439,"esch":3440,"Ġindividuals":3441,"Ġlife":3442,"AIR":3443,"raw":3444,"ĠOther":3445,"ney":3446,"ĠAf":3447,"Ġaux":3448,"ĠAC":3449,"iversity":3450,"Ġgre":3451,"azione":3452,"Ġconn":3453,"Article":3454,"Ġamong":3455,"Ġexperi":3456,"aat":3457,"ĠThey":3458,"Ġeither":3459,"ervation":3460,"ĠGar":3461,"section":3462,"Ġvote":3463,"Ġ52":3464,"Ġextent":3465,"ics":3466,"Ġ......................................................................................":3467,"Ġaward":3468,"UM":3469,"iam":3470,"ĠLo":3471,"Ġsimilar":3472,"ĠSTL":3473,"ĠBer":3474,"Ġreceive":3475,"Ġprotection":3476,"Ġ65":3477,"Ġfair":3478,"ĠBl":3479,"Ġvom":3480,"Ag":3481,"ĠÏĢÏģÎ¿":3482,"UT":3483,"Ġlimited":3484,"\\_\\_\\_\\_":3485,"titute":3486,"Ġofficial":3487,"velopment":3488,"uer":3489,"ui":3490,"ĠDC":3491,"Ġpotential":3492,"ĠĠĠĊĠĠĠĠĠĠĠĠĠ":3493,"ega":3494,"ually":3495,"ĠPa":3496,"800":3497,"Ġassociated":3498,"Am":3499,"Ġreference":3500,"ling":3501,"Ġmilitary":3502,"Ġ02":3503,"Ġpersons":3504,"ĠNorth":3505,"var":3506,"oney":3507,"put":3508,"Ġgrow":3509,"anies":3510,"Ġbenefit":3511,"medi":3512,"Ġbegin":3513,"Ġart":3514,"Ġlike":3515,"Ġgener":3516,"Ġcompliance":3517,"ably":3518,"Ġcollection":3519,"Ġ80":3520,"yt":3521,"Ġbase":3522,"mes":3523,"Ġsubparagraph":3524,"Ġ.......................................................................................":3525,"Ġmonths":3526,"ried":3527,"ological":3528,"ESS":3529,"ison":3530,"Ġanalysis":3531,"aciones":3532,"ych":3533,"ducation":3534,"Ġsett":3535,"Ġnom":3536,"Ġdas":3537,"ĠĊĠĠĠĠĠĠĠĠĠĠĠĠĠĠĠĠĠĠĠĠĠĠĠ":3538,"ĠTotal":3539,"ker":3540,"Ġchildren":3541,"Ġsecurities":3542,"Ġbi":3543,"PL":3544,"Ġfacility":3545,"ĠĊĠĠĠĠĠĠĠĠĠĠĠĠĠĠĠĠĠĠĠĠĠĠĠĠĠĠĠĠĠĠĠĠĠĠĠĠĠĠĠĠĠĠĠĠĠĠĠĠĠĠĠĠĠĠĠĠĠĠĠĠĠĠĠĠĠĠĠĠĠĠĠĠĠĠĠĠĠĠĠĠĠĠĠĠĠĠĠĠĠĠĠĠĠĠĠĠĠĠĠĠĠĠĠĠĠĠĠĠĠĠĠĠĠĠĠĠĠĠĠĠĠĠĠĠĠĠĠĠĠĠĠĠĠĠĠ":3546,"ĠUS":3547,"Ġoder":3548,"Ġplans":3549,"sel":3550,"Ġlegislation":3551,"ovÃ¡":3552,"Ġwer":3553,"Ġpat":3554,"Ġ70":3555,"Ġconform":3556,"cons":3557,"Ġloan":3558,"lag":3559,"ĠSenator":3560,"ĠDE":3561,"Ġ1999":3562,"Ġposition":3563,"idi":3564,"fe":3565,"Ġ51":3566,"tices":3567,"eld":3568,"equ":3569,"Ã©n":3570,"Ġvehic":3571,"uv":3572,"ensive":3573,"ograph":3574,"Ġ........................................................................................":3575,"080":3576,"uses":3577,"ido":3578,"ĠAmerica":3579,"Ġcivil":3580,"ĠMon":3581,"ĠKommission":3582,"nes":3583,"Ġname":3584,"olume":3585,"imin":3586,"Ġhist":3587,"Ġdown":3588,"THER":3589,"Source":3590,"Ġvot":3591,"http":3592,"inter":3593,"Ġkon":3594,"nung":3595,"Ġwhile":3596,"Ġcommercial":3597,"estim":3598,"ĠNon":3599,"ÅĨ":3600,"mann":3601,"ĠMember":3602,"obre":3603,"Ġnorm":3604,"Ġclear":3605,"ime":3606,"Ġfind":3607,"](#":3608,"Ġresolution":3609,"NI":3610,"Â°":3611,"isdic":3612,"Ġestimate":3613,"Ġdrug":3614,"De":3615,"ARY":3616,"Ġ03":3617,"ĠDire":3618,"adas":3619,"Ġsi":3620,"Ġtechnical":3621,"Ġmer":3622,"ÄĹs":3623,"Ġquality":3624,"eterans":3625,"ÅĻÃŃ":3626,"To":3627,"Ġzur":3628,"Ġ.........................................................................................":3629,"QU":3630,"State":3631,"Ġvoor":3632,"ĠCalifornia":3633,"Ġfood":3634,"Ġmeasures":3635,"Ġstaff":3636,"ories":3637,"Ġreturn":3638,"unc":3639,"LC":3640,"2014":3641,"2019":3642,"ollar":3643,"agers":3644,"ĠVal":3645,"ano":3646,"Ġtermin":3647,"IB":3648,"ĠDis":3649,"ones":3650,"Ġhab":3651,"Ġstatement":3652,"lies":3653,"Ġwant":3654,"Ġ04":3655,"Ġable":3656,"ole":3657,"Ġsuccess":3658,"âĢľ":3659,"low":3660,"Ġhead":3661,"Ġcourt":3662,"rag":3663,"Ġdat":3664,"Ġrelati":3665,"Ġ59":3666,"2020":3667,"105":3668,"ĠWork":3669,"ios":3670,"del":3671,"Ġlaws":3672,"ĠGroup":3673,"Ġpred":3674,"rie":3675,"ery":3676,"ĠEng":3677,"Ġexem":3678,"olidated":3679,"azz":3680,"Ġinvestment":3681,"Ġrelev":3682,"Ġdies":3683,"Ġwritten":3684,"Ġtaken":3685,"ÃŃculo":3686,"Ġanother":3687,"mitted":3688,"ĠÏĦÏīÎ½":3689,"END":3690,"Ġstudy":3691,"Ġ..........................................................................................":3692,"ique":3693,"ita":3694,"Ġentity":3695,"Ġtransfer":3696,"Ġreports":3697,"Ã³w":3698,"ĠEU":3699,"Ġdetermine":3700,"ĠIV":3701,"lob":3702,"ĠArticle":3703,"102":3704,"----------------------------------------------------------------":3705,"ples":3706,"ĠAuthor":3707,"Ġget":3708,"United":3709,"Ġcompe":3710,"Ġmeasure":3711,"igned":3712,"quisition":3713,"ĠHOUSE":3714,"ĠâĢ¢":3715,"Ġway":3716,"ĠAssist":3717,"half":3718,"ticip":3719,"Ã±":3720,"JO":3721,"ĠTRAN":3722,"ota":3723,"Å¥":3724,"ÏģÎ±":3725,"ĠDistrict":3726,"ĠRE":3727,"Ġ101":3728,"Ġcriteria":3729,"term":3730,"Ġestablishment":3731,"zi":3732,"ĠNov":3733,"Ġcateg":3734,"Dec":3735,"Ġcolle":3736,"Ġev":3737,"Ġmu":3738,"ĠCONG":3739,"Ġstra":3740,"ips":3741,"ERV":3742,"Ġlow":3743,"III":3744,"700":3745,"bo":3746,"Ġeven":3747,"ĠpÃ¥":3748,"rast":3749,"ĠCenter":3750,"ĠSP":3751,"Ġclassified":3752,"ĠeuropÃ©":3753,"Ã¡t":3754,"Ġliv":3755,"ĠWith":3756,"aks":3757,"rav":3758,"ĠMe":3759,"Ã¤l":3760,"employ":3761,"ival":3762,"Ġincreased":3763,"ĠStock":3764,"ĠCourt":3765,"uks":3766,"Ġ...........................................................................................":3767,"Ġshow":3768,"ĠTe":3769,"ĊĊĠ":3770,"mark":3771,"Ġsite":3772,"ĠLabor":3773,"ĠÎ½":3774,"ream":3775,"nown":3776,"Ġthink":3777,"including":3778,"Ġinser":3779,"aster":3780,"atic":3781,"Ġenc":3782,"Ġchar":3783,"zt":3784,"Ġshown":3785,"ĠResearch":3786,"istered":3787,"999":3788,"Ġ54":3789,"Ġmaintenance":3790,"Ġquestion":3791,"ĠMean":3792,"onstr":3793,"ingle":3794,"Ã³l":3795,"ying":3796,"ĠSTA":3797,"Ġtyp":3798,"ĠâĢĭ":3799,"Ġsince":3800,"ustice":3801,"cluded":3802,"Ġsurvey":3803,"ĠMark":3804,"Ġphys":3805,"Ġworking":3806,"Ġproviding":3807,"Ġaltern":3808,"Ġrelating":3809,"Ġgoing":3810,"echan":3811,"ospital":3812,"duce":3813,"anced":3814,"uste":3815,"lex":3816,"ÏģÎ¯":3817,"rÃ©d":3818,"Ġcovered":3819,"ero":3820,"Ġevent":3821,"ĠrÃ¨g":3822,"Ġrecommend":3823,"ĠAdministrator":3824,"actions":3825,"Other":3826,"Ġreferred":3827,"ĠMart":3828,"ĠÃ¼ber":3829,"Ġ............................................................................................":3830,"Ġ56":3831,"Ġapproval":3832,"Ġtre":3833,"fficient":3834,"Ġ2022":3835,"ĠAnn":3836,"ints":3837,"MS":3838,"AY":3839,"ude":3840,"120":3841,"2021":3842,"ĠTitle":3843,"Ġprz":3844,"Ġdepos":3845,"oot":3846,"Ġactions":3847,"Ġ316":3848,"Ġaffect":3849,"ĠNotes":3850,"Ġclos":3851,"Ã¡m":3852,"umb":3853,"Ġapproximately":3854,"col":3855,"ĠBureau":3856,"Ġprojects":3857,"ortg":3858,"aÃ§Ã£o":3859,"ira":3860,"110":3861,"ĠAb":3862,"ÅĦ":3863,"TE":3864,"Ġparties":3865,"Ġminimum":3866,"uj":3867,"Ġforth":3868,"Ġvess":3869,"Ġtrib":3870,"icies":3871,"Ġproble":3872,"Ġcompensation":3873,"ames":3874,"Ċĉĉ":3875,"ĠÏĥÏħ":3876,"ĠDes":3877,"Ġmax":3878,"Ġvers":3879,"LD":3880,"Ġko":3881,"Ġdetail":3882,"Ġparty":3883,"Ġrequirement":3884,"zo":3885,"which":3886,"ÏĢÎ¹":3887,"Ġefforts":3888,"Ġlegal":3889,"ista":3890,"enÃŃ":3891,"ÏĥÎ·ÏĤ":3892,"Ġguid":3893,"Ġclause":3894,"Ġregulatory":3895,"Ġconsum":3896,"ĠÎ³Î¹Î±":3897,"Ġvari":3898,"hem":3899,"Ġtechnology":3900,"ĠRepublic":3901,"2001":3902,"Ġhuman":3903,"ĠDate":3904,"Äĩ":3905,"ulf":3906,"Ġissues":3907,"rup":3908,"PS":3909,"Ġconsult":3910,"2018":3911,"ĠUnder":3912,"Ġ.............................................................................................":3913,"vision":3914,"tw":3915,"Ġmedical":3916,"ĠĊĠĠĠĠĠ":3917,"OV":3918,"used":3919,"ska":3920,"Ġmeeting":3921,"Ġcapac":3922,"Ġdebt":3923,"ĠSep":3924,"uation":3925,"Par":3926,"Ġkg":3927,"PROD":3928,"Ġma":3929,"bl":3930,"vidence":3931,"Ġbelieve":3932,"ĠMa":3933,"ĠOrder":3934,"ĠCOMM":3935,"eff":3936,"ï¿½ï¿½ï¿½ï¿½":3937,"Ġfamily":3938,"htm":3939,"Ġnear":3940,"Ġroz":3941,"Ġgreat":3942,"TING":3943,"Ġele":3944,"Ġtill":3945,"ĠvÃ½":3946,"Ġengine":3947,"met":3948,"EW":3949,"ĠLa":3950,"ĠÅ¾":3951,"ĠOfficer":3952,"Ġtrade":3953,"gg":3954,"ĠStandard":3955,"Ġmaking":3956,"lament":3957,"CS":3958,"001":3959,"imo":3960,"ona":3961,"Ã¤m":3962,"holders":3963,"ned":3964,"Ġach":3965,"ĠMedic":3966,"ental":3967,"ordnung":3968,"He":3969,"ĠSci":3970,"orrow":3971,"ĠAL":3972,"CA":3973,"ATIONS":3974,"Ġmov":3975,"Ġinstru":3976,"Ġsubstanti":3977,"zn":3978,",\"":3979,"ĠeuropÃ©en":3980,"Ġce":3981,"have":3982,"Ġ05":3983,"Ġdisclos":3984,"unt":3985,"Ġended":3986,"exas":3987,"ĠÄ¯":3988,"aire":3989,"ĠCONGRES":3990,"Ġ58":3991,"ĠChief":3992,"ĠCorporation":3993,"Ġorganization":3994,"Ġmuch":3995,"Ġgen":3996,"Ġflow":3997,"Ġentre":3998,"Ġste":3999,"mergency":4000,"Ġprep":4001,"Ġrequires":4002,"ĠEl":4003,"Ġhearing":4004,"EUR":4005,"Ġmodel":4006,"ĠEmploy":4007,"Ġneeds":4008,"Ġ57":4009,"FL":4010,"Ġmis":4011,"ĠĠĠĠĊĠĠĠĠĠĠĠĠĠĠĠ":4012,"Ġdest":4013,"Ġport":4014,"Ġka":4015,"010":4016,"Ġcompanies":4017,"ĠTransportation":4018,"Ġvo":4019,"Ġdifferent":4020,"Ġconsideration":4021,"ession":4022,"ĠEducation":4023,"Ġresponse":4024,"ived":4025,"Ġcompon":4026,"Ġexample":4027,"nex":4028,"Ġtype":4029,"aux":4030,"rap":4031,"dis":4032,"ask":4033,"Ġadded":4034,"eness":4035,"Ġhome":4036,"set":4037,"Ġ95":4038,"ĠMin":4039,"Ġestimated":4040,"Ġenter":4041,"CI":4042,"Ġthird":4043,"Ġjo":4044,"Cal":4045,"000000":4046,"Ġjurisdic":4047,"Ġbur":4048,"ony":4049,"At":4050,"requ":4051,"ÎµÎ½":4052,"Ġhigher":4053,"Ġ..............................................................................................":4054,"ĠCer":4055,"Ã©c":4056,"Ġfinanci":4057,"ĠÎ±Î½":4058,"Cl":4059,"owski":4060,"gu":4061,"Ġwerden":4062,"fici":4063,"mod":4064,"iu":4065,"ĠÏħ":4066,"ĠÐ":4067,"ĠJan":4068,".âĢĻâĢĻ":4069,"percent":4070,"Ġidentified":4071,"ĠEuro":4072,"Ġdri":4073,"Ġunless":4074,"Rep":4075,"Ġsale":4076,"ĠEN":4077,"ectively":4078,"ĠSouth":4079,"Ġrecords":4080,"DO":4081,"Ġspecies":4082,"Ġautor":4083,"Ġunit":4084,"ccup":4085,"reh":4086,"ken":4087,"atisf":4088,"Ġcases":4089,"sen":4090,"SO":4091,"Ġ63":4092,".\"":4093,"Ġpossible":4094,"ĠÏĦÎ¿":4095,"nership":4096,"rea":4097,"ĊĊĠĠĠĠ":4098,"Ġfiling":4099,"Ġprincipal":4100,"Ġmiss":4101,"Ġ67":4102,"idential":4103,"Ġren":4104,"Ġsocial":4105,"organ":4106,"Ġrestric":4107,"Ġbo":4108,"Ġune":4109,"Ġentities":4110,"road":4111,"itat":4112,"HS":4113,"ATES":4114,"eme":4115,"Ġability":4116,"Ġofficers":4117,"Ġemployment":4118,"sts":4119,"Ġ09":4120,"Ġoperators":4121,"embre":4122,"uck":4123,"Ġinternational":4124,"Ġ310":4125,"hour":4126,"adata":4127,"ĠAffairs":4128,"Ã¡v":4129,"ulations":4130,"Ġdella":4131,"ĠDem":4132,"Ġmeg":4133,"Ġclean":4134,"Ġmi":4135,"urred":4136,"ej":4137,"Ġcooper":4138,"nie":4139,"iec":4140,"Ġloans":4141,"kom":4142,"Ġassessment":4143,"ĠTIT":4144,"fall":4145,"FM":4146,"Ġ313":4147,"ĠWar":4148,"Ġseveral":4149,"Ġ...............................................................................................":4150,"ervis":4151,"avy":4152,"ibr":4153,"Ġintended":4154,"ilies":4155,"Ġrespond":4156,"Ċĉĉĉĉĉĉĉĉĉ":4157,"ÃŃs":4158,"inen":4159,"GEN":4160,"td":4161,"ĠRECORD":4162,"Ġ102":4163,"Ġord":4164,"roup":4165,"SPORT":4166,"ĠHowever":4167,"Ġdistribution":4168,"older":4169,"Ġhaving":4170,"ĠÄįl":4171,"ARD":4172,"Ġ\\[":4173,"face":4174,"Ġconst":4175,"Ġlarge":4176,"Ġ'":4177,"br":4178,"ĠDSK":4179,"115":4180,"Ġmulti":4181,"ociation":4182,"ĠOFFIC":4183,"ĠJohn":4184,"SM":4185,"reet":4186,"tie":4187,"ĠFil":4188,"Ġtele":4189,"Ġfactors":4190,"ĠÏĢÎ¿Ïħ":4191,"ĠBr":4192,"2017":4193,"ĠPR":4194,"place":4195,"Ġexpress":4196,"Ġ64":4197,"Ġsobre":4198,"Ġdisp":4199,"pres":4200,"Ġten":4201,"Î¼ÎŃ":4202,"ĠComisiÃ³n":4203,"Ġgenerally":4204,"Ġprem":4205,"Ġcas":4206,"Ġequal":4207,"ĠrÃ©":4208,"Ġrelevant":4209,"Mar":4210,"Ġsay":4211,"ago":4212,"ĠCla":4213,"Ġquarter":4214,"Ġcirc":4215,"Ġbene":4216,"ĠĊĠĠĠĠĠĠĠĠĠĠĠĠĠĠĠĠĠĠĠĠĠĠĠĠĠĠĠĠĠĠĠĠĠĠĠĠĠĠĠĠĠĠĠĠĠĠĠĠĠĠĠĠĠĠĠĠĠĠĠĠĠĠĠĠĠĠĠĠĠĠĠĠĠĠĠĠĠĠĠĠĠĠĠĠĠĠĠĠĠĠĠĠĠĠĠĠĠĠĠĠĠĠĠĠĠĠĠĠĠĠĠĠĠĠĠĠĠĠĠĠĠĠĠĠĠĠĠĠĠĠĠĠĠĠĠĠ":4217,"Ã´":4218,"Ġview":4219,"Ġded":4220,"Citation":4221,"tified":4222,"right":4223,"ELL":4224,"ĠNet":4225,"titutions":4226,"Ġdated":4227,"ĠMetadata":4228,"Sen":4229,"ĠReglamento":4230,"Ċĉĉĉĉĉĉ":4231,"Ġ................................................................................................":4232,"eries":4233,"Ġoperation":4234,"ĠInternational":4235,"dz":4236,"ores":4237,"Ġ07":4238,"900":4239,"will":4240,"ĠTITLE":4241,"Ġdeg":4242,"Ġprepar":4243,"itive":4244,"Ġpersonnel":4245,"Ġopen":4246,"La":4247,"Ġtreatment":4248,"Ä¼":4249,"tiva":4250,"Ġexerc":4251,"quid":4252,"ova":4253,"cep":4254,"greg":4255,"cia":4256,"Ġ08":4257,"rt":4258,"ourn":4259,"Ġstatus":4260,"ĠNO":4261,"Ð°":4262,"after":4263,"ocation":4264,"SPORTATION":4265,"entific":4266,"Ġinstitution":4267,"ager":4268,"2016":4269,"onor":4270,"Ġ62":4271,"tin":4272,"UC":4273,"Ġfees":4274,"ĠSEN":4275,"Ġdetermination":4276,"Ġoil":4277,"Ãµes":4278,"Ġcurrently":4279,"unds":4280,"asing":4281,"Ġbillion":4282,"CON":4283,"Ġclerks":4284,"ĠControl":4285,"ATED":4286,"Ġdivid":4287,"Ġofficer":4288,"Ġfix":4289,"ights":4290,"Ġadvers":4291,"Ġmaterials":4292,"reasury":4293,"Ġpurchase":4294,"Ġ.................................................................................................":4295,"Ġestimates":4296,"uta":4297,"vironment":4298,"ario":4299,"Ġinserting":4300,"ĠChairman":4301,"ĠrÃ¨glement":4302,"ĠNA":4303,"ĠData":4304,"Ġfree":4305,"Ġmill":4306,"Ġappoint":4307,"Ġhar":4308,"arant":4309,"Ġ78":4310,"quired":4311,"Ġletter":4312,"ĠkÃ¶":4313,"Ġbu":4314,"Ġfeet":4315,"Ġ98":4316,"Ġ93":4317,"Ġ76":4318,"ITI":4319,"sz":4320,"achine":4321,"oma":4322,"Ġcaus":4323,"Ġbeginning":4324,"Ġdecl":4325,"If":4326,"ĠOR":4327,"FI":4328,"spec":4329,"Ġmonitor":4330,"water":4331,"Ġ110":4332,"Ġstates":4333,"aging":4334,"Ġeen":4335,"cs":4336,"clusion":4337,"tire":4338,"Ġgroups":4339,"ĠMad":4340,"ĠTrib":4341,"lands":4342,"Îĳ":4343,"SIONAL":4344,"Ġqui":4345,"ĠBy":4346,"Ġess":4347,"Ġfield":4348,"125":4349,"Ã¤nd":4350,"oks":4351,"mittees":4352,"Ċĉĉĉĉĉĉĉĉĉĉĉĉ":4353,"Ġpast":4354,"Ġfar":4355,"ĠDevelopment":4356,"Ã¤Ã¤r":4357,"nen":4358,"ĠVir":4359,"Ġsent":4360,"raz":4361,"side":4362,"war":4363,"ĠBut":4364,"Ġsingle":4365,"Ġshort":4366,"ĠcrÃ©d":4367,"Ġgovern":4368,"ĠAtt":4369,"ĠClass":4370,"Ġju":4371,"izing":4372,"Ġnatural":4373,"150":4374,"itig":4375,"thers":4376,"EK":4377,"range":4378,"Ġconnection":4379,"akes":4380,"endit":4381,"ĠCas":4382,"ollars":4383,"ĠWest":4384,"iring":4385,"Ġfile":4386,"Ġresid":4387,"Ġgreater":4388,"ĠTRANSPORTATION":4389,"Ġ..................................................................................................":4390,"Ġ1998":4391,"Î¼Î±ÏĦ":4392,"Ġreduce":4393,"Ã¡ll":4394,"***":4395,"was":4396,"ĠTer":4397,"ĠDirec":4398,"atch":4399,"ĠĠĠĊĠĠĠ":4400,"jum":4401,"Ġsen":4402,"Ġorganizations":4403,"Ġschedule":4404,"amm":4405,"ancing":4406,"Ġ85":4407,"aps":4408,"Ġsl":4409,"Ġobligations":4410,"ĠArmy":4411,"ala":4412,"ĠNOT":4413,"ĠSup":4414,"){":4415,"Ġspe":4416,"itÃł":4417,"Ġneg":4418,"ĠÎ±ÏĢÏĮ":4419,"2015":4420,"jon":4421,"Ġdesignated":4422,"care":4423,"Ġapproach":4424,"Ġeffects":4425,"ĠFer":4426,"Ġdam":4427,"ored":4428,"Ġcharg":4429,"ĠRES":4430,"ursuant":4431,"Ġsatisf":4432,"Ġfol":4433,"ĠPe":4434,"Ġexpected":4435,"Ġdemonstr":4436,"ĠCHAPTER":4437,"Ġinstall":4438,"Ġparag":4439,"Ġmanner":4440,"wa":4441,"Ġstriking":4442,"ula":4443,"Ġrepair":4444,"ledge":4445,"ora":4446,"bia":4447,"Ġreasonable":4448,"ĠDo":4449,"Ġevidence":4450,"Ġactivity":4451,".âĢĿ":4452,"HA":4453,"iento":4454,"Ġ500":4455,"ependent":4456,"Ä¾":4457,"ground":4458,"CY":4459,"Ġtransportation":4460,"gel":4461,"Ġrelations":4462,"respond":4463,"Ġconsistent":4464,"Ġ244":4465,"argin":4466,"van":4467,"Ã¨re":4468,"Ġ...................................................................................................":4469,"Ġpati":4470,"FORMATION":4471,"Ġcritical":4472,"States":4473,"Ġ_":4474,"igure":4475,"Ġhourly":4476,"Ġpolicies":4477,"ĠDel":4478,"Ġunderst":4479,"ĠJud":4480,"Ġelectronic":4481,"esta":4482,"TIVE":4483,"Mean":4484,"Ġbehalf":4485,"era":4486,"Ġdal":4487,"ested":4488,"Ġpersonal":4489,"Ġunits":4490,"ĠIndust":4491,"olu":4492,"Ġnicht":4493,"ĠÎ½Î±":4494,"Ġmight":4495,"angu":4496,"acks":4497,"Ġprevent":4498,"ards":4499,"Ġdos":4500,"ĠĊĠĠĠĠĠĠĠĠĠĠĠĠĠĠĠĠĠĠĠĠĠĠĠĠĠĠĠĠĠĠĠĠĠĠĠĠĠĠĠĠĠĠĠĠĠĠĠĠĠĠĠĠĠĠĠĠĠĠĠĠĠĠĠĠĠĠĠĠĠĠĠĠĠĠĠĠĠĠĠĠĠĠĠĠĠĠĠĠĠĠĠĠĠĠĠĠĠĠĠĠĠĠĠĠĠĠĠĠĠĠĠĠĠĠĠĠĠĠĠĠĠĠĠĠĠĠĠĠĠĠĠĠĠĠĠĠĠ":4501,"âĢ²":4502,"ĠÎŃ":4503,"Ġlocated":4504,"Ġnav":4505,"cre":4506,"aneous":4507,"arn":4508,"Ms":4509,"ige":4510,"New":4511,"ĠĊĠĠĠĠĠĠĠĠĠĠĠĠĠĠĠĠĠĠĠĠĠĠĠĠĠĠĠĠĠĠĠĠĠĠĠĠĠĠĠĠĠĠĠĠĠĠĠĠĠĠĠĠĠĠĠĠĠĠĠĠĠĠĠĠĠĠĠĠĠĠĠĠĠĠĠĠĠĠĠĠĠĠĠĠĠĠĠĠĠĠĠĠĠĠĠĠĠĠĠĠĠĠĠĠĠĠĠĠĠĠĠĠĠĠĠĠĠĠĠĠĠĠĠĠĠĠĠĠĠĠĠĠĠĠĠĠĠĠ":4512,"Ġintro":4513,"ĠĊĠĠĠĠĠĠĠĠĠĠĠĠĠĠĠĠĠĠĠĠĠĠĠĠĠĠĠĠĠĠĠĠĠĠĠĠĠĠĠĠĠĠĠĠĠĠĠĠĠĠĠĠĠĠĠĠĠĠĠĠĠĠĠĠĠĠĠĠĠĠĠĠĠĠĠĠĠĠĠĠĠĠĠĠĠĠĠĠĠĠĠĠĠĠĠĠĠĠĠĠĠĠĠĠĠĠĠĠĠĠĠĠĠĠĠĠĠĠĠĠĠĠĠĠĠĠĠĠĠĠĠĠĠĠĠĠĠĠĠ":4514,"Ġprotect":4515,"Ġexpos":4516,"ĠĊĠĠĠĠĠĠĠĠĠĠĠĠĠĠĠĠĠĠĠĠĠĠĠĠĠĠĠĠĠĠĠĠĠĠĠĠĠĠĠĠĠĠĠĠĠĠĠĠĠĠĠĠĠĠĠĠĠĠĠĠĠĠĠĠĠĠĠĠĠĠĠĠĠĠĠĠĠĠĠĠĠĠĠĠĠĠĠĠĠĠĠĠĠĠĠĠĠĠĠĠĠĠĠĠĠĠĠĠĠĠĠĠĠĠĠĠĠĠĠĠĠĠĠĠĠĠĠĠĠĠĠĠĠĠĠĠĠĠĠĠ":4517,"oli":4518,"omestic":4519,"250":4520,"ĠAbs":4521,"uri":4522,"104":4523,"anks":4524,"uclear":4525,"Ġregulation":4526,"'t":4527,"ĠĊĠĠĠĠĠĠĠĠĠĠĠĠĠĠĠĠĠĠĠĠĠĠĠĠĠĠĠĠĠĠĠĠĠĠĠĠĠĠĠĠĠĠĠĠĠĠĠĠĠĠĠĠĠĠĠĠĠĠĠĠĠĠĠĠĠĠĠĠĠĠĠĠĠĠĠĠĠĠĠĠĠĠĠĠĠĠĠĠĠĠĠĠĠĠĠĠĠĠĠĠĠĠĠĠĠĠĠĠĠĠĠĠĠĠĠĠĠĠĠĠĠĠĠĠĠĠĠĠĠĠĠĠĠĠĠĠĠĠĠĠĠ":4528,"ĠSocial":4529,"ĠÏĢÎ±Ïģ":4530,"Ġnor":4531,"eland":4532,"Ġcontracts":4533,"ptions":4534,"Non":4535,"ĠEv":4536,"aska":4537,"ÅĪ":4538,"ĠTexas":4539,"ĠEff":4540,"Ġ61":4541,"orporated":4542,"========":4543,"idas":4544,"reek":4545,"Ġclaims":4546,"Ġpublished":4547,"Ġ....................................................................................................":4548,"encia":4549,"Ġpag":4550,"Ã©k":4551,"vided":4552,"lobal":4553,"ĠEuropÃ¤":4554,"Ġcontinu":4555,"going":4556,"ĠBudget":4557,"Î±Ïĥ":4558,"ami":4559,"106":4560,"Å¡an":4561,"but":4562,"Ġyield":4563,"Îļ":4564,"COM":4565,"Ġcause":4566,"Ġlower":4567,"Ġcomplete":4568,"otor":4569,"103":4570,"rolled":4571,"ovan":4572,"Ġcharacter":4573,"BER":4574,"ĠSal":4575,"ĠMiss":4576,"ĠBusiness":4577,"Ġ1996":4578,"Ġdirectly":4579,"chaf":4580,"ĠĊĠĠĠĠĠĠĠĠĠĠĠĠĠĠĠĠĠĠĠĠĠĠĠĠĠĠĠĠĠĠĠĠĠĠĠĠĠĠĠĠĠĠĠĠĠĠĠĠĠĠĠĠĠĠĠĠĠĠĠĠĠĠĠĠĠĠĠĠĠĠĠĠĠĠĠĠĠĠĠĠĠĠĠĠĠĠĠĠĠĠĠĠĠĠĠĠĠĠĠĠĠĠĠĠĠĠĠĠĠĠĠĠĠĠĠĠĠĠĠĠĠĠĠĠĠĠĠĠĠĠĠĠĠĠĠĠĠĠĠĠĠĠ":4581,"Ġbalance":4582,"Ġforward":4583,"Äģs":4584,"ĠEqu":4585,"add":4586,"raf":4587,"uter":4588,"ĠAM":4589,"ĠLi":4590,"nia":4591,"isation":4592,"ĊĊĊĊĊĊĊĊĊĊĊĊĊĊĊĊ":4593,"Ġ72":4594,"ĠCity":4595,"Rec":4596,"Dep":4597,"Page":4598,"Americ":4599,"gether":4600,"fÃ¼":4601,"else":4602,"ĠÌ":4603,"title":4604,"ria":4605,"Ġdistrib":4606,"aced":4607,"Ġentitled":4608,"unities":4609,"ÏĨÎ¿":4610,"lied":4611,"Ġpriv":4612,"Ġ69":4613,"Ġ74":4614,"Ġcertific":4615,"ĠElect":4616,"ĠSUB":4617,"Ġpress":4618,"cles":4619,"ĠNe":4620,"Ġ104":4621,"ĠUN":4622,"Ġ300":4623,"ĠOb":4624,"Ċĉĉĉĉĉ":4625,"Ġcountries":4626,"KS":4627,"Ã¤Ã¤":4628,"Ġlisted":4629,"Ġuz":4630,"iff":4631,"tention":4632,"ĠPRES":4633,"ĠINFORMATION":4634,"ĊĊĠĠĠĠĠĠ":4635,"Ġfive":4636,"Äįi":4637,"stat":4638,"Ġvarious":4639,"Ġportion":4640,"ĠCONGRESSIONAL":4641,"conom":4642,"}.":4643,"Ġjoint":4644,"EAR":4645,"ĠCongressional":4646,"nov":4647,"overy":4648,"ĠSU":4649,"ĠĊĠĠĠĠĠĠĠĠĠĠĠĠĠĠĠĠĠĠĠĠĠĠĠĠĠĠĠĠĠĠĠĠĠĠĠĠĠĠĠĠĠĠĠĠĠĠĠĠĠĠĠĠĠĠĠĠĠĠĠĠĠĠĠĠĠĠĠĠĠĠĠĠĠĠĠĠĠĠĠĠĠĠĠĠĠĠĠĠĠĠĠĠĠĠĠĠĠĠĠĠĠĠĠĠĠĠĠĠĠĠĠĠĠĠĠĠĠĠĠĠĠĠĠĠĠĠĠĠĠĠĠĠĠĠĠĠĠĠĠĠĠĠĠ":4650,"Ġrange":4651,"ĠEur":4652,"ete":4653,"ava":4654,"ĠĊĠĠĠĠĠĠĠĠĠĠĠĠĠĠĠĠĠĠĠĠĠĠĠĠĠĠĠĠĠĠĠĠĠĠĠĠĠĠĠĠĠĠĠĠĠĠĠĠĠĠĠĠĠĠĠĠĠĠĠĠĠĠĠĠĠĠĠĠĠĠĠĠĠĠĠĠĠĠĠĠĠĠĠĠĠĠĠĠĠĠĠĠĠĠĠĠĠĠĠĠĠĠĠĠĠĠĠĠĠĠĠĠĠĠĠĠĠĠĠĠĠĠĠĠĠĠĠĠĠĠĠĠĠĠĠĠĠĠĠĠĠĠĠĠ":4655,"Ġ.....................................................................................................":4656,"TC":4657,"Ġcome":4658,"ster":4659,"ÏģÎ¬":4660,"Ġcannot":4661,"Ġput":4662,"cy":4663,"MI":4664,"def":4665,"Ġremov":4666,"Ġsample":4667,"National":4668,"ĠĊĠĠĠĠĠĠĠĠĠĠĠĠĠĠĠĠĠĠĠĠĠĠĠĠĠĠĠĠĠĠĠĠĠĠĠĠĠĠĠĠĠĠĠĠĠĠĠĠĠĠĠĠĠĠĠĠĠĠĠĠĠĠĠĠĠĠĠĠĠĠĠĠĠĠĠĠĠĠĠĠĠĠĠĠĠĠĠĠĠĠĠĠĠĠĠĠĠĠĠĠĠĠĠĠĠĠĠĠĠĠĠĠĠĠĠĠĠĠĠĠĠĠĠĠĠĠĠĠĠĠĠĠĠĠĠĠĠĠĠĠĠĠĠĠĠ":4669,"AG":4670,"Ġenvironmental":4671,"Ġconcent":4672,"Ġacross":4673,"Ġanim":4674,"Äģr":4675,"cu":4676,"tex":4677,"ĠFlor":4678,"Ġsav":4679,"ortgage":4680,"hel":4681,"nis":4682,"ĠQu":4683,"program":4684,"Ġrelative":4685,"Ġcontained":4686,"ese":4687,"TON":4688,"Ġthreat":4689,"rect":4690,"more":4691,"ĠRepresentatives":4692,"Ġ96":4693,"leman":4694,"Ġjurisdiction":4695,"ville":4696,"Ġworld":4697,"Ġist":4698,"Committee":4699,"ÎŃÏĤ":4700,"dem":4701,"Ġstudents":4702,"Ġenforcement":4703,"Â·":4704,"Ġweight":4705,"112":4706,"ĠON":4707,"ĠProtection":4708,"ĠĊĠĠĠĠĠĠĠĠĠĠĠĠĠ":4709,"ACT":4710,"Ġ#":4711,"iers":4712,"ĠSurvey":4713,"Per":4714,"committee":4715,"Ġsector":4716,"Î»Î»":4717,"ĠGEN":4718,"Ġmatter":4719,"Ġthereof":4720,"Comp":4721,"rastructure":4722,"Ġsource":4723,"Î½Î¿":4724,"ditional":4725,"ĠDav":4726,"though":4727,"Ġexchange":4728,"iting":4729,"Kom":4730,"Ġvir":4731,"Ġknown":4732,"emed":4733,"ioni":4734,"stances":4735,"eto":4736,"Ġaffected":4737,"related":4738,"Ġgrowth":4739,"Ġbecome":4740,"entive":4741,"head":4742,"ols":4743,"Ġfuel":4744,"ĠÎºÎ±ÏĦ":4745,"Ġ379":4746,"uni":4747,"Ġ87":4748,"Ġbr":4749,"Ġans":4750,"Ġjobs":4751,"endar":4752,"Ġaplic":4753,"Ġmoney":4754,"Ġlands":4755,"Ġrevenue":4756,"Ġfish":4757,"Ġson":4758,"ĠBen":4759,"iter":4760,"ĠÃ©t":4761,"ĠDr":4762,"Man":4763,"Ġlarg":4764,"Ġwa":4765,"Ġ......................................................................................................":4766,"ette":4767,"ĠYear":4768,"lying":4769,"Ġboard":4770,"Ġ1997":4771,"ĠFY":4772,"ORP":4773,"ready":4774,"ĠMit":4775,"Ġaccounting":4776,"ĠResp":4777,"Ġcontact":4778,"Ġserved":4779,"ea":4780,"riculture":4781,"Ġ73":4782,"ĠBo":4783,"Ġvast":4784,"Ġdell":4785,"Ġopportunity":4786,"entes":4787,"Ġ68":4788,"ando":4789,"Ġagreements":4790,"IST":4791,"ANCE":4792,",âĢĿ":4793,"Ġ91":4794,"Ġ97":4795,"mig":4796,"Ġhospital":4797,"ford":4798,".]":4799,"izes":4800,"Ġpen":4801,"---":4802,"phone":4803,"OJ":4804,"ĠAccount":4805,"Ġdefinition":4806,"ĠCan":4807,"lication":4808,"Ġfunc":4809,"making":4810,"ĠWill":4811,"ĠAR":4812,"Ġdirec":4813,"ĠLong":4814,"ĠReview":4815,"ische":4816,"aires":4817,"There":4818,"ĠAmendment":4819,"Pub":4820,"Ġhal":4821,"Ġ92":4822,"ĠÅł":4823,"Ġinj":4824,"Ġimplementation":4825,"ĠvÃµ":4826,"Ġ1995":4827,"function":4828,"onds":4829,"Ġobserv":4830,"Ġexecutive":4831,"\",":4832,"ĠBar":4833,"Ġcapacity":4834,"Co":4835,"Ġcopy":4836,"Serv":4837,"fl":4838,"orporate":4839,"jen":4840,"ype":4841,"Ġage":4842,"Ġlegisl":4843,"ength":4844,"Ġappear":4845,"ÎŁ":4846,"ydro":4847,"urer":4848,"ising":4849,"ÏĥÎµÎ¹":4850,"Ġdass":4851,"exp":4852,"Ġlie":4853,"Ġeller":4854,"Ġimmedi":4855,"ĠCommerce":4856,"ĠDI":4857,"Ã§Ãµes":4858,"Ġartikel":4859,"itiz":4860,"pa":4861,"vet":4862,"ÏĦÎµ":4863,"Ġfew":4864,"Ġexport":4865,"Ġgrants":4866,"Ġfra":4867,"Ġtext":4868,"such":4869,"ains":4870,"struc":4871,"ÏĦÎ¹":4872,"iten":4873,"osition":4874,"Ãľ":4875,"ION":4876,"Ġlikely":4877,"Ġ(âĢľ":4878,"ĠĠĊĠĠĠĠĠ":4879,"icians":4880,"net":4881,"Ġamendments":4882,"Ã¼l":4883,"ologies":4884,"nik":4885,"2022":4886,"ahr":4887,"ellig":4888,"Ġserve":4889,"ĠWater":4890,"Ġstated":4891,"Ġ84":4892,"ĠĠĊĠĠĠĠĠĠĠ":4893,"Ġx":4894,"Ġ.......................................................................................................":4895,"akis":4896,"article":4897,"avor":4898,"Ġsections":4899,"Ġdocuments":4900,"enden":4901,"107":4902,"Ã¸r":4903,"ĠartÃŃculo":4904,"ĠOrgan":4905,"Ġerror":4906,"ara":4907,"Ġtransport":4908,"PO":4909,"ĠĠĠĠĊĠĠĠĠĠĠĠĠĠ":4910,"ality":4911,"Ġteachers":4912,"Ġ88":4913,"Ġwages":4914,"ĠGarc":4915,"ray":4916,"Ġnext":4917,"Ġfamilies":4918,"eder":4919,"see":4920,"ades":4921,"Ä«bas":4922,"orney":4923,"ĠPort":4924,"ĠÎ·":4925,"Ġabs":4926,"shall":4927,"Ãļ":4928,"Ġprofessional":4929,"Def":4930,"Trans":4931,"idd":4932,"ĠPerson":4933,"ĠDivision":4934,"trans":4935,"Ġplant":4936,"Ġfoc":4937,"Ġ94":4938,"yk":4939,"Ġforce":4940,"ĠÏĮ":4941,"lers":4942,"Ġkas":4943,"1999":4944,"ARTMENT":4945,"rier":4946,"Ġpopulation":4947,"lie":4948,"ĠPL":4949,"Union":4950,"Ġplus":4951,"anguage":4952,"Ġhaz":4953,"Ġmes":4954,"Ġregional":4955,"Ġinitial":4956,"Ġsources":4957,"Meas":4958,"ĠSpecial":4959,"UND":4960,"Continued":4961,"Ġinstitutions":4962,"ĠStreet":4963,"Ġconducted":4964,"Ġud":4965,"Ġ77":4966,"Ġfurn":4967,"Ġoptions":4968,"ĠHer":4969,"Ġtimes":4970,"Ġconsent":4971,"ĠAnnual":4972,"iment":4973,"Ġmotion":4974,"rease":4975,"ĠMA":4976,"Ġdr":4977,"agues":4978,"Î¶":4979,"Ġhat":4980,"Ġmaximum":4981,"craft":4982,"ĉĠĉĠ":4983,"ĠRed":4984,"opp":4985,"ship":4986,"Ġsusp":4987,"URN":4988,"fol":4989,"Ġbre":4990,"ĠPres":4991,"Ġhowever":4992,"ush":4993,"And":4994,"Ġ111":4995,"izz":4996,"Ġtaxes":4997,"Ġals":4998,"ĠEnvironmental":4999,"ĠYou":5000,"het":5001,"ged":5002,"Ġpublication":5003,"ĠSA":5004,"Ġsize":5005,"Î¼Î²":5006,"ĊĊĠĠĠ":5007,"Ġbetter":5008,"nek":5009,"ĠprÃ©s":5010,"ways":5011,"Rel":5012,"Ġproposal":5013,"Ġsw":5014,"Ġenactment":5015,"Em":5016,"Ġgive":5017,"tirement":5018,"ĠSc":5019,"Ġexpense":5020,"Î¯Î¿Ïħ":5021,"mitt":5022,"ĠInt":5023,"eck":5024,"MAN":5025,"Ġ........................................................................................................":5026,"Ġbes":5027,"Î¼Î¿":5028,"ĠBal":5029,"Ġef":5030,"back":5031,"MB":5032,"ĠTreasury":5033,"Ġcommit":5034,"Ġ89":5035,"Ċĉĉĉĉĉĉĉĉĉĉĉ":5036,"Ġorigin":5037,"Ġrecognized":5038,"neh":5039,"ĠEngine":5040,"eds":5041,"Ġeconomy":5042,"Congressional":5043,"INE":5044,"âĢ¢âĢ¢":5045,"occ":5046,"ike":5047,"ĠEuropÃ¤ischen":5048,"Ġformer":5049,"Ġoutstanding":5050,"109":5051,"Ġsufficient":5052,"Fin":5053,"oles":5054,"date":5055,"ĠAN":5056,"Ġacquisition":5057,"Ġvor":5058,"yp":5059,"ĠINC":5060,"ĠLLC":5061,"ÅĽci":5062,"rist":5063,"LIC":5064,"ĠRules":5065,"Ġaid":5066,"Sch":5067,"ĠTax":5068,"Cons":5069,"Ġaccept":5070,"ĠÃ¶":5071,"Ġok":5072,"Ġapplications":5073,"eline":5074,"xxxx":5075,"has":5076,"vol":5077,"Ġ,":5078,"ranch":5079,"omin":5080,"Ġhard":5081,"tify":5082,")**":5083,"Ġencour":5084,"Ġ112":5085,"130":5086,"reen":5087,"visory":5088,"ordning":5089,"ecause":5090,"omas":5091,"ĠBu":5092,"ĊĊĠĠĠĠĠĠĠĠ":5093,"Ġselected":5094,"Ġgem":5095,"Ġbelie":5096,"rate":5097,".;":5098,"ority":5099,"IE":5100,"ĠLand":5101,"304":5102,"tity":5103,"Ġmechan":5104,"Ġregistrant":5105,"ĠPost":5106,"zer":5107,"Ã¡ny":5108,"Ġcut":5109,"eting":5110,"Ġrise":5111,"ĠMrs":5112,"liv":5113,"Ġfee":5114,"ICE":5115,"KER":5116,"ĠFirst":5117,"Ġneeded":5118,"Î¼ÏĮ":5119,"Ġ71":5120,"Pri":5121,"ills":5122,"301":5123,"Ġimpos":5124,"ginia":5125,"ĠĠĊĠĠĠĠĠĠĠĠĠĠĠĠĠ":5126,"Ġwomen":5127,"Ġlook":5128,"Ġdisch":5129,"Ġdur":5130,"elles":5131,"Î¯Î±ÏĤ":5132,"ĠUr":5133,"Ġbroad":5134,"hand":5135,"ĠAnal":5136,"Ass":5137,"aters":5138,"Ġstart":5139,"ĠAny":5140,"rac":5141,"Im":5142,"ĠĠĠĠĊĠĠĠ":5143,"Ġkont":5144,"Ġfire":5145,"Ġdemand":5146,"abel":5147,"Ġstrateg":5148,"140":5149,"igen":5150,"len":5151,"ĠMod":5152,"Ġ105":5153,"appro":5154,"MA":5155,"Ġconcerning":5156,"020":5157,"blic":5158,"Ġ.........................................................................................................":5159,"ĠCreek":5160,"berg":5161,"ĠGarcÃŃa":5162,"mo":5163,"Act":5164,"Ġmg":5165,"IGH":5166,"Ġ103":5167,"ĠWhite":5168,"pper":5169,"nosti":5170,"Î»Î¿":5171,"uje":5172,"where":5173,"ners":5174,"VI":5175,"ĠpÃ¤":5176,"Ġfunction":5177,"108":5178,"Ġmodific":5179,"ĠGENERAL":5180,"160":5181,"Ġothers":5182,"EST":5183,"GA":5184,"Ġactual":5185,"Ġ600":5186,"Ġki":5187,"ĠLeg":5188,"reng":5189,"Ġduty":5190,"sement":5191,"state":5192,"Ġcoverage":5193,"ema":5194,"bar":5195,"ĠVerordnung":5196,"Ġenh":5197,"lier":5198,"iana":5199,"Ġequity":5200,"ĠLim":5201,"ording":5202,"ĠConsejo":5203,"ĠCR":5204,"Ġreduction":5205,"ricultural":5206,"eu":5207,"Ġstill":5208,"ĠSTAFF":5209,"114":5210,"El":5211,"Ġcollected":5212,"Ã¨s":5213,"Ġcomo":5214,"uma":5215,"field":5216,"ĠConseil":5217,"reci":5218,"ĠEs":5219,"ĠREPORT":5220,"Ġnach":5221,"Ġow":5222,"111":5223,"ATIONAL":5224,"Ġcircum":5225,"Ġordered":5226,"ĠPolicy":5227,"KE":5228,"fessional":5229,"nah":5230,"Ġbar":5231,"House":5232,"ÏĦÎ®":5233,"Ġaggreg":5234,"Ġ79":5235,"orti":5236,"chapter":5237,"\"(":5238,"Ġhtt":5239,"Ġsubsequ":5240,"atter":5241,"Ġdeveloped":5242,"hen":5243,"Ġcoll":5244,"Ġadequ":5245,"law":5246,"Artikel":5247,"Ġhousing":5248,"marily":5249,"Med":5250,"Ġitems":5251,"REC":5252,"ulg":5253,"amin":5254,"Ġadministration":5255,"Ġvehicle":5256,"Ġliabilities":5257,"Ġtarget":5258,"fact":5259,"aria":5260,"elling":5261,"ĠCompensation":5262,"EB":5263,"ĠShe":5264,"certain":5265,"Ġprimary":5266,"Ġbuilding":5267,"ellen":5268,"DS":5269,"azzjoni":5270,"ifically":5271,"Off":5272,"ĠÏĩ":5273,"zz":5274,"emor":5275,"pen":5276,"ĠHigh":5277,"iques":5278,"Ġalong":5279,"Ġtogether":5280,"aint":5281,"ĠES":5282,"asons":5283,"Ġcu":5284,"elligence":5285,"Ġbil":5286,"Ġmethods":5287,"ĠSH":5288,"ilt":5289,"Ġartik":5290,"plan":5291,"Ġ..........................................................................................................":5292,"Ġ120":5293,"ias":5294,"ĠGuard":5295,"Ġemissions":5296,"Ġlicense":5297,"idades":5298,"Ġcompar":5299,"ateral":5300,"Ġstep":5301,"Ġ1994":5302,"Ġ82":5303,"ĠRegister":5304,"Ġpractices":5305,"compl":5306,"ĠArea":5307,"Ġgent":5308,"Ġhouse":5309,"px":5310,"Ġsold":5311,"ANT":5312,"Ġut":5313,"ĠFood":5314,"Ġtransactions":5315,"Ð¸":5316,"ĠOur":5317,"Ġnotes":5318,"Ġespecial":5319,"Ġpoints":5320,"ĠUniversity":5321,"TIONS":5322,"Ġoption":5323,"Ġinterests":5324,"Ġautom":5325,"ropriations":5326,"venues":5327,"Ġpremium":5328,"anged":5329,"Ġstrong":5330,"mith":5331,"una":5332,"jud":5333,"ĠForeign":5334,"aces":5335,"Ġapart":5336,"Ġ115":5337,"ĠSan":5338,"ĠâĢĵâĢĵâĢĵâĢĵâĢĵ":5339,"ĠiÅ¡":5340,"Ġalready":5341,"emic":5342,"ĠPay":5343,"icz":5344,"new":5345,"Ġcorrespond":5346,"Ġindicate":5347,"ĠPRESID":5348,"TX":5349,"fully":5350,"ĠArtikel":5351,"Ġmove":5352,"ÏģÏī":5353,"113":5354,"General":5355,"Ġ106":5356,"asta":5357,"ĠShort":5358,"ĠPark":5359,"ots":5360,"anov":5361,"Ġrespectively":5362,"Ġeine":5363,"Ġapplicant":5364,"Ġqualified":5365,"ander":5366,"Ġliquid":5367,"icial":5368,"Car":5369,"Ġdescription":5370,"Ã©ho":5371,"ract":5372,"Ðµ":5373,"Ġ86":5374,"rep":5375,"Ġinspection":5376,"ids":5377,"Ġconc":5378,"uh":5379,"istics":5380,"Ġadopted":5381,"Ġdesigned":5382,"Ġseek":5383,"atters":5384,"Ġdone":5385,"och":5386,"Ġhabitat":5387,"Ã¤ÃŁ":5388,"ĠSENATE":5389,"jas":5390,"pore":5391,"hav":5392,"VA":5393,"ÏģÎ³":5394,"produc":5395,"PPE":5396,"Ġexec":5397,"Ġtransaction":5398,"Ġregion":5399,"Ġ...........................................................................................................":5400,"ĠRegulatory":5401,"Î¿Î¹":5402,"ully":5403,"bi":5404,"Pl":5405,"bor":5406,"Ġtur":5407,"116":5408,"IZ":5409,"Ġsoci":5410,"Ġexperience":5411,"Ġpercentage":5412,"kov":5413,"Ġpresente":5414,"DR":5415,"Public":5416,"âĢĿ)":5417,"atal":5418,"afe":5419,"life":5420,"Ġsix":5421,"isen":5422,"Ġcomply":5423,"ĠMich":5424,"Ġrequested":5425,"Ġrecent":5426,"umul":5427,"ĠFl":5428,"ĠMex":5429,"rif":5430,"Ġtesting":5431,"ĠCommunity":5432,"minal":5433,"ĠMembers":5434,"inf":5435,"ened":5436,"Ġcommunications":5437,"bert":5438,"Î·ÏĤ":5439,"Äįen":5440,"Ġburden":5441,"ĠPower":5442,"Ġmemb":5443,"Ġmeaning":5444,"Ġentered":5445,"ĠCAR":5446,"SON":5447,"Ġobligation":5448,"ĠÎµÎ½":5449,"Ġ108":5450,"ams":5451,"So":5452,"unk":5453,"Ġgranted":5454,"iro":5455,"Ġfarm":5456,"Ġbusinesses":5457,"Ġopp":5458,"Commission":5459,"eping":5460,"would":5461,"Ġassum":5462,"Ġprob":5463,"ALE":5464,")]":5465,"ĠÎ´Î¹Î±":5466,"121":5467,"Ġfall":5468,"Ġtherefore":5469,"Bl":5470,"ĠDO":5471,"ĠprÃ©":5472,"Ġwhose":5473,"Ġmag":5474,"ads":5475,"ĠColum":5476,"ĠAuthority":5477,"ĠAmericans":5478,"Ġexpendit":5479,"ĠVan":5480,"mu":5481,"Ġevaluation":5482,"Ġovers":5483,"Ġaccounts":5484,"ĠChina":5485,"ĠpÅĻ":5486,"ĠRO":5487,"ĠLA":5488,"Ġactive":5489,"ĠPat":5490,"ĠBro":5491,"Ġmand":5492,"ani":5493,"zÃ¡":5494,"ĠDEP":5495,"pol":5496,"Ġparagrap":5497,"Ġequival":5498,"Ġvalues":5499,"Ġnature":5500,"Ġpolitical":5501,"Ġpil":5502,"elines":5503,"ĠInvest":5504,"ached":5505,"Ġpreced":5506,"Ġlease":5507,"wide":5508,"Î¹Î¿":5509,"Ġcheck":5510,"ITIES":5511,"Ġdistrict":5512,"ĠWhen":5513,"Ġidentify":5514,"Ġresponsible":5515,"ĠId":5516,"OH":5517,"Ġ83":5518,"Ġbon":5519,"ĠBel":5520,"Ġpreviously":5521,"ittle":5522,"ĠOver":5523,"ĠAssociation":5524,"Ġcarrying":5525,"ĉĠĠ":5526,"rehensive":5527,"enz":5528,"gi":5529,"Ġ............................................................................................................":5530,"Min":5531,"amento":5532,"oung":5533,"ervisors":5534,"enced":5535,"aden":5536,"ading":5537,"Ġbound":5538,"URE":5539,"ĠFlorida":5540,"uto":5541,"9060":5542,"Pr":5543,"ĠRegist":5544,"Ġgada":5545,"HU":5546,"ĠForce":5547,"ĠGeorg":5548,"Ġexcess":5549,"cision":5550,"rength":5551,"clude":5552,"abil":5553,"Ġaround":5554,"andid":5555,"Ġminim":5556,"Ġ1934":5557,"Or":5558,"tid":5559,"position":5560,"Ġterrit":5561,"Î£":5562,"Ġsens":5563,"ĠMor":5564,"lia":5565,"aine":5566,"dul":5567,"Ġaan":5568,"ained":5569,"Ġpp":5570,"ĠTrad":5571,"ÎµÏħ":5572,"ĠEach":5573,"ĠTable":5574,"Ġkur":5575,"egen":5576,"lichen":5577,"inion":5578,"ils":5579,"Ġ240":5580,"tas":5581,"Ġentire":5582,"DI":5583,"cribe":5584,"Ġdiffic":5585,"ĠSuch":5586,"Ġbei":5587,"375":5588,"Ġreserv":5589,"cap":5590,"tes":5591,"Ġgar":5592,"Ð¾":5593,"ÏĦÏģÎ¿":5594,"Ġliability":5595,"Ġthous":5596,"Ġoccupational":5597,"ĠIRB":5598,"Ġannoun":5599,"Ġdro":5600,"TY":5601,"Measured":5602,"unications":5603,"Ġcharge":5604,"Ġemergency":5605,"Ġ{":5606,"Ġpack":5607,"olina":5608,"Ġpositions":5609,"Ġ0634":5610,"orage":5611,"Î¼ÎŃÎ½":5612,"ĠNation":5613,"Ġdeal":5614,"Des":5615,"Ġ107":5616,"ĠSafety":5617,"ĠEar":5618,"Ġmajority":5619,"Ġagreed":5620,"Ġrecorded":5621,"Ġprices":5622,"Ġprocedure":5623,"006":5624,"Ġcustomers":5625,"Ġcommunities":5626,"Ġdefense":5627,"ÃŃn":5628,"Ġ.............................................................................................................":5629,"220":5630,"Ġlosses":5631,"idth":5632,"ouis":5633,"Ġalternative":5634,"rez":5635,"gaap":5636,"itos":5637,"oms":5638,"Note":5639,"Ġintegr":5640,"pd":5641,"Ġcompleted":5642,"Is":5643,"Acc":5644,"ĠResources":5645,"Ġtempor":5646,"ĠHar":5647,"Ġ114":5648,"ela":5649,"Ġmonitoring":5650,"Ġcourse":5651,"XXX":5652,"Ġnation":5653,"Ċĉĉĉĉĉĉĉĉĉĉ":5654,"ĊĉĉĉĉĉĉĉĊĉĉĉĉĉĉĉ":5655,"Ġprinci":5656,"umbers":5657,"ĠMedicare":5658,"Ġeducational":5659,"ITH":5660,"Ġ2023":5661,"Ġak":5662,"Ġsont":5663,"Ġdomestic":5664,"Ġ180":5665,"ds":5666,"Ġ125":5667,"ondary":5668,"NE":5669,"omeland":5670,"Ġ__":5671,"yc":5672,"ĠÏĢÎµ":5673,"Ġpetition":5674,"pon":5675,"Val":5676,"Ġguidance":5677,"Ġoriginal":5678,"Ġtri":5679,"stru":5680,"Ġchem":5681,"126":5682,"ites":5683,"yz":5684,"BO":5685,"aulted":5686,"Ġinvolved":5687,"atistics":5688,"Ġpow":5689,"Ġaudit":5690,"Ġprimarily":5691,"oration":5692,"fit":5693,"Ġminutes":5694,"Ġconsolidated":5695,"June":5696,"Ġoutside":5697,"ournal":5698,"Ġdetermines":5699,"Ġauthorities":5700,"ĠCoast":5701,"TO":5702,"Ġindustries":5703,"ture":5704,"RC":5705,"117":5706,"Ġdise":5707,"abilit":5708,"ĠCOMP":5709,"áĥ":5710,"ĠJustice":5711,"Ġtu":5712,"FS":5713,"ede":5714,"Ġ81":5715,"Ġbenefici":5716,"iddle":5717,"ĠSERV":5718,"Ġreceiving":5719,"Ġachieve":5720,"ĠRET":5721,"ticles":5722,"ĠCA":5723,"ĠPER":5724,"Ġground":5725,"ÏīÏĤ":5726,"ika":5727,"Ġ..............................................................................................................":5728,"quest":5729,"Ã©ri":5730,"Ġpenal":5731,"ters":5732,"123":5733,"eal":5734,"ĠFac":5735,"Ã¶l":5736,"180":5737,"BR":5738,"rain":5739,"ĠTherefore":5740,"Ġcoordin":5741,"Ġtop":5742,"bet":5743,"Ġappendix":5744,"tives":5745,"self":5746,"arks":5747,"ĠÏĦÎ±":5748,"uest":5749,"Ġ150":5750,"659":5751,"Ġapplied":5752,"Ġduties":5753,"Ġhistor":5754,"Ġtypes":5755,"vania":5756,"Ġhazard":5757,".-":5758,"ectors":5759,"Ġthank":5760,"ĠAus":5761,"zÄħ":5762,"Äģm":5763,"NL":5764,"ĠExhibit":5765,"Ġbuild":5766,"Ġsist":5767,"ĠKar":5768,"CL":5769,"ĠExp":5770,"119":5771,"Ġcompared":5772,"Ġperman":5773,"Ġclar":5774,"ĠConstitution":5775,"Ġcircumstances":5776,"ikk":5777,"Ġlight":5778,"sa":5779,"ectives":5780,"IES":5781,"ĠCONT":5782,"ocument":5783,"Ġtransmit":5784,"Ġsubsidi":5785,"305":5786,"nej":5787,"Ġmail":5788,"Ġcorporation":5789,"ĠScience":5790,"ĠVA":5791,"ĠCredit":5792,"Î¼Î±":5793,"Ġparagraphe":5794,"pret":5795,"ĠContents":5796,"ĠSE":5797,"house":5798,"May":5799,"ĠBas":5800,"Ġkey":5801,"ĠkÃ¤":5802,"ĠÃī":5803,"CHAPTER":5804,"Ġmm":5805,"Ġdurch":5806,"Ġmerc":5807,"Ġchall":5808,"Ġcode":5809,"INT":5810,"ailability":5811,"ITED":5812,"hio":5813,"fil":5814,"Ġ1990":5815,"tional":5816,"anim":5817,"Ġprepared":5818,"005":5819,"rak":5820,"Ã³d":5821,"ĠINTER":5822,"enders":5823,"nÃ½":5824,"ABl":5825,"quirements":5826,"Ġfloor":5827,"ijn":5828,"through":5829,"ĠNL":5830,"Ġenvironment":5831,"Ã©se":5832,"Ġrecommendations":5833,"ĠTrust":5834,"PER":5835,"Ġdisclosure":5836,"ĠÎ¬":5837,"ĠInf":5838,"ĠFAA":5839,"AIRB":5840,"#####":5841,"205":5842,"Ġust":5843,"iciency":5844,"Ġreceip":5845,"ĠLoan":5846,"Ġinternal":5847,"ÈĻ":5848,"ILLING":5849,"Ġtrust":5850,"Ã¤Ã¤n":5851,"Ġcolleagues":5852,"Ġred":5853,"Ġcommunication":5854,"303":5855,"Ġ...............................................................................................................":5856,"han":5857,"Ġborrow":5858,"ĠVolume":5859,"Ġfunctions":5860,"Ġsubstantial":5861,"Ġrepe":5862,"level":5863,"syl":5864,"class":5865,"Ġrisks":5866,"ĠVI":5867,"ĠSchool":5868,"VID":5869,"oid":5870,"FA":5871,"Ġarrange":5872,"idos":5873,"perty":5874,"ĠOne":5875,"anta":5876,"Ġpreparation":5877,"ocr":5878,"Ã©d":5879,"owa":5880,"rij":5881,"ĠSte":5882,"Ġku":5883,"Ã©l":5884,"titive":5885,".**":5886,"DC":5887,"than":5888,"Ġsupply":5889,"ottom":5890,"Ab":5891,"Ġtit":5892,"Ġsm":5893,"ISTR":5894,"Ġperiods":5895,"their":5896,"374":5897,"Ġalle":5898,"Ġmoving":5899,"inical":5900,"ĊĊĠĠ":5901,"Ċĉĉĉ":5902,"ĠGra":5903,"Ġreduced":5904,"Ġappropriations":5905,"atud":5906,"ENS":5907,"nit":5908,"ocal":5909,"ĠSim":5910,"240":5911,"agy":5912,"135":5913,"Ġvessel":5914,"iko":5915,"rest":5916,"Ġvac":5917,"ĠBur":5918,"Ġrun":5919,"Ġsolic":5920,"Ġvalid":5921,"ador":5922,"Ġrad":5923,"HON":5924,"uli":5925,"Ġhonor":5926,"Ġalloc":5927,"Ġphysical":5928,"Ġmater":5929,"Ġ----------------":5930,"MIN":5931,"Ġwaste":5932,"riz":5933,"Ġrelationship":5934,"ĠStatement":5935,"ĠDoc":5936,"odo":5937,"uge":5938,"ĠTrade":5939,"Ġkind":5940,"ĠHuman":5941,"Ġsind":5942,"ĠTechnology":5943,"ĠIND":5944,"Ġappropriated":5945,"Ġcontinued":5946,"ired":5947,"Ġfavor":5948,"egoti":5949,"118":5950,"ijiet":5951,"Ġseq":5952,"fund":5953,"itable":5954,"ABLE":5955,"ĠNor":5956,"306":5957,"Ġ................................................................................................................":5958,"Es":5959,"centi":5960,"amily":5961,"Ġfri":5962,"RESENT":5963,"structions":5964,"Ans":5965,"ĠNote":5966,"tar":5967,"Ġfoot":5968,"most":5969,"etro":5970,"kg":5971,"Ġindependent":5972,"Ġdollars":5973,"pan":5974,"Ġstrength":5975,"Ġplanning":5976,"glied":5977,"WN":5978,"124":5979,"ĠOFFICER":5980,"ua":5981,"Ã¥d":5982,"Ġreflect":5983,"Ġfirm":5984,"Ġobtained":5985,"Ġtaxable":5986,"Î¸Îµ":5987,"Ġfully":5988,"350":5989,"ĠĊĠĠĠĠĠĠĠĠĠĠĠĠĠĠĠĠĠĠĠĠĠĠĠĠĠĠĠĠĠĠĠĠĠĠĠĠĠĠĠĠĠĠĠĠĠĠĠĠĠĠĠĠĠĠĠĠĠĠĠĠĠĠĠĠĠĠĠĠĠĠĠĠĠĠĠĠĠĠĠĠĠĠĠĠĠĠĠĠĠĠĠĠĠĠĠĠĠĠĠĠĠĠĠĠĠĠĠĠĠĠĠĠĠĠĠĠĠĠĠĠĠĠĠĠĠĠĠĠĠĠĠĠĠĠĠĠĠĠĠĠĠĠĠĠĠĠ":5990,"bal":5991,"ĠFish":5992,"Ġprohib":5993,"information":5994,"190":5995,"Ġprint":5996,"oman":5997,"Ġnie":5998,"Ã³p":5999,"ums":6000,"ÏģÎ·":6001,"ĊĉĠ":6002,"MR":6003,"Ġstudies":6004,"rants":6005,"Ġparticipation":6006,"IAL":6007,"uting":6008,"Ġsust":6009,"Ġadjustments":6010,"ĠVirginia":6011,"ISSION":6012,"Ã©p":6013,"Î»Î·":6014,"Ġearly":6015,"Ġthings":6016,"122":6017,"Ġemployer":6018,"ĠGovern":6019,"Ġexposure":6020,"LT":6021,"302":6022,"ĉĉĉĉĉ":6023,"ĠFiled":6024,"ATIV":6025,"ĠAS":6026,"Ġpractice":6027,"129":6028,"ennsyl":6029,"itizens":6030,"Ã¡k":6031,"efore":6032,"Ġlanguage":6033,"return":6034,"ĠUniÃ³n":6035,"eli":6036,"ĠrÃ©s":6037,"Ġ160":6038,"Ġseparate":6039,"ĠOperations":6040,"ÏĥÎµ":6041,"ĠLtd":6042,"Ġdiv":6043,"Ġwage":6044,"Ġfram":6045,"175":6046,"fÃ¼hr":6047,"ĠChar":6048,"Ġaggregate":6049,"170":6050,"Sh":6051,"Ġpassed":6052,"Ġside":6053,"Ġaccording":6054,"ĠProject":6055,"Ġconsumer":6056,"ging":6057,"onsor":6058,"ĠRegulations":6059,"Ġ.................................................................................................................":6060,"Ġapartado":6061,"estern":6062,"Ġ205":6063,"Ġsugg":6064,"ĠCommon":6065,"Ġcorrect":6066,"ifying":6067,"zk":6068,"ĠGas":6069,"Ġmarkets":6070,"Die":6071,"Ġdiscussed":6072,"nych":6073,"Ġimpacts":6074,"ÏĥÎµÎ¹ÏĤ":6075,"406":6076,"text":6077,"Ġpartnership":6078,"zione":6079,"lem":6080,"ĠÏĦÎ¹":6081,"Ġkoh":6082,"Ġquestions":6083,"Ġweekly":6084,"data":6085,"Ġincentive":6086,"ser":6087,"obile":6088,"Ġfailure":6089,"&&":6090,"ĠÃª":6091,"Ġlonger":6092,"nÄĽ":6093,"ĠmÃ¤Ã¤r":6094,"ÄĮ":6095,"Office":6096,"\\*\\*":6097,".:":6098,"ĠSw":6099,"ĠRates":6100,"ĠSupp":6101,"Ġrelease":6102,"With":6103,"OG":6104,"author":6105,"Ġprogress":6106,"ĠFIN":6107,"Ġexercise":6108,"Item":6109,"public":6110,"ĠGA":6111,"liche":6112,"ĠIll":6113,"ĠPap":6114,"utory":6115,"Ġmiles":6116,"002":6117,"THE":6118,"Ġtaking":6119,"ECT":6120,"itigation":6121,"ijos":6122,"vil":6123,"ensions":6124,"ĠUnit":6125,"Administ":6126,"990":6127,"ĠAssistance":6128,"iek":6129,"Ġfacilit":6130,"ĠParlamento":6131,"lov":6132,"error":6133,"Qu":6134,"ASH":6135,"Ġdepend":6136,"Ġcontributions":6137,"amen":6138,"ĠÏĥÏĦÎ¿":6139,"gs":6140,"ĠÃªtre":6141,"Ġpom":6142,"December":6143,"Ġresulting":6144,"Ġretain":6145,"Ġconcerned":6146,"Ġpage":6147,"Î¿ÏħÎ½":6148,"Washington":6149,"ĠeuropÃ©enne":6150,"elij":6151,"ded":6152,"Where":6153,"ĠRuss":6154,"pad":6155,"ĠMo":6156,"Ġhalf":6157,"ĠSpec":6158,"Ġinvestments":6159,"011":6160,"BA":6161,"staat":6162,"Ġik":6163,"Î¯Î½":6164,"Ġtas":6165,"Ġsuper":6166,"Ġreform":6167,"Ġcompet":6168,"Ġhistory":6169,"acional":6170,"Ġoccupation":6171,"203":6172,"may":6173,"ĠCarolina":6174,"Ph":6175,"ĪĴ":6176,"Ġdeemed":6177,"00000":6178,"ĠMadam":6179,"mb":6180,"ĠQual":6181,"Ä¯":6182,"Ġprop":6183,"Ġpresented":6184,"Ġtw":6185,"Ġmiemb":6186,"non":6187,"acific":6188,"Ġ..................................................................................................................":6189,"Ġparts":6190,"Ġbelieves":6191,"unto":6192,"Ġadmin":6193,"etail":6194,"Ġknowledge":6195,"Ġtemper":6196,"atur":6197,"July":6198,"Ġsitu":6199,"Ġ113":6200,"Ġdirek":6201,"155":6202,"oftw":6203,"Î±Î³":6204,"umu":6205,"Ġdetermining":6206,"ĠÏĥÏĦÎ·":6207,"Ġdeath":6208,"Ġrevenues":6209,"ĠCentral":6210,"Inter":6211,"204":6212,"Ġaccur":6213,"VER":6214,"Ġwird":6215,"Ġcho":6216,"Ġther":6217,"clusive":6218,"illing":6219,"omm":6220,"Department":6221,"Ġpaper":6222,"Ġasked":6223,"rob":6224,"/=":6225,"ĠStud":6226,"ients":6227,"Ġdelle":6228,"Ġharm":6229,"Ġfinance":6230,"ĠEnd":6231,"Äĵm":6232,"Ġregistered":6233,"Ġextend":6234,"Mc":6235,"ĠRETURN":6236,"Ġcanc":6237,")-":6238,"ĠRem":6239,"Ac":6240,"Äģci":6241,"riting":6242,"Ġnetwork":6243,"Ġadverse":6244,"emp":6245,"Ġeiner":6246,"128":6247,"holder":6248,"enda":6249,"ĠColumbia":6250,"LOY":6251,"atom":6252,"ĠREPRESENT":6253,"722":6254,"Group":6255,"eters":6256,"Îł":6257,"Ġproblem":6258,"ablish":6259,"tio":6260,"ĠâĢĵâĢĵâĢĵâĢĵ":6261,"ĠEconom":6262,"Ġregular":6263,"occup":6264,"Oct":6265,"Ġsurface":6266,"ĠCL":6267,"Ġill":6268,"Ġsigned":6269,"xy":6270,"Ġfa":6271,"Ġ299":6272,"ĠCODE":6273,"ĠAgriculture":6274,"ensus":6275,"ĠCost":6276,"MT":6277,"retion":6278,"Ġelectric":6279,"anie":6280,"Ġrequests":6281,"Ġfactor":6282,"Ġ________________":6283,"dom":6284,"Ġcur":6285,"Ġbring":6286,"Ġjed":6287,"arily":6288,"ĠVeterans":6289,"Ġstraight":6290,"yr":6291,"ĠInstitute":6292,"Ġinvestigation":6293,"Ġvic":6294,"Ġschools":6295,"cht":6296,"rief":6297,"156":6298,"rued":6299,"Ġpes":6300,"ĠHE":6301,"Ġthroughout":6302,"Ġbody":6303,"ennsylvania":6304,"------------":6305,"ĠBay":6306,"prises":6307,"Ġwhy":6308,"Ġdelivery":6309,"LESS":6310,"Ġ...................................................................................................................":6311,"Ġsubchapter":6312,"ĠTur":6313,"parte":6314,"margin":6315,"ĠInterest":6316,"ĠPA":6317,"Ġrole":6318,"company":6319,"icing":6320,"Ġsole":6321,"Ġtag":6322,"Ġcertification":6323,"ridge":6324,"ellaneous":6325,"oud":6326,"Ġelection":6327,"208":6328,"ectiveness":6329,"anto":6330,"imiento":6331,"tract":6332,"ĠNotice":6333,"Ġpercenti":6334,"Ġsig":6335,"Ġol":6336,"oftware":6337,"Ġoverall":6338,"Ġmotor":6339,"Ġproceedings":6340,"sten":6341,"ensk":6342,"ĠPART":6343,"Ġwhole":6344,"ĠÎ¼ÎŃ":6345,"UTH":6346,"ĠMexico":6347,"ĠÅ¡t":6348,"Ġprod":6349,"ĠEL":6350,"Ã¢":6351,"ibrary":6352,"Ġcounter":6353,"Ġfrequ":6354,"illed":6355,"Ġaircraft":6356,"ells":6357,"Ġcreate":6358,"Aug":6359,"iscellaneous":6360,"Ġtempore":6361,"Ġges":6362,"ÑĤ":6363,"ĠÎ£":6364,"ĠSol":6365,"\\_\\_\\_\\_\\_\\_\\_\\_":6366,"Ris":6367,"ographic":6368,"Ã©ny":6369,"uit":6370,"Ġlocation":6371,"kal":6372,"ĠOut":6373,"inois":6374,"Ġuses":6375,"table":6376,"iente":6377,"Ġcomponents":6378,"lam":6379,"Ġoffered":6380,"ĠSales":6381,"Ð½":6382,"Ġhear":6383,"Ġeuro":6384,"Ġtaxpay":6385,"145":6386,"ĠPrivate":6387,"ansas":6388,"ives":6389,"Ġcontra":6390,"lim":6391,"Ġdirectors":6392,"idence":6393,"Ġscope":6394,"Ġ;":6395,"Secretary":6396,"ĠDavid":6397,"Ġowned":6398,"Ġcalendar":6399,"004":6400,"ĠID":6401,"Ġjus":6402,"003":6403,"count":6404,"Ġrecip":6405,"lad":6406,"ĠSk":6407,"UBLIC":6408,"</":6409,"west":6410,"aa":6411,"Ġevents":6412,"can":6413,"ildlife":6414,"Ġ1993":6415,"Do":6416,"209":6417,"ĠForest":6418,"atures":6419,"Ġcollect":6420,"Ġni":6421,"Ġnoted":6422,"405":6423,"Ġlimits":6424,"Under":6425,"Ġacres":6426,"Ġcandid":6427,"ĠHand":6428,"ĠWeb":6429,"ĠAdministrative":6430,"ĠPRESIDING":6431,"Ġparticipants":6432,"Ġconcerns":6433,"Ins":6434,"ingen":6435,"NY":6436,"ĠOccup":6437,"ĠÎ»":6438,"Ġnem":6439,"osa":6440,"DD":6441,"ĠBL":6442,"Ġbis":6443,"gment":6444,"isting":6445,"Ġtelephone":6446,"Se":6447,"Ġserving":6448,"290":6449,"terneh":6450,"party":6451,"Ġtravel":6452,"ns":6453,"border":6454,"Ġ1992":6455,"itÃ©s":6456,"703":6457,"ĠDEPARTMENT":6458,"ensen":6459,"Ã¤h":6460,"cast":6461,"ÏģÎ¸":6462,"aud":6463,"ĠAbsatz":6464,"vas":6465,"Ġassemb":6466,"ÃŃm":6467,"EPA":6468,"week":6469,"call":6470,"215":6471,"Ġ116":6472,"Ġclose":6473,"ye":6474,"ĠĊĠĠĠĠĠĠĠĠĠĠĠĠĠĠĠĠĠĠĠĠĠĠĠĠĠĠĠĠĠĠĠĠĠĠĠĠĠĠĠĠĠĠĠĠĠĠĠĠĠĠĠĠĠĠĠĠĠĠĠĠĠĠĠĠĠĠĠĠĠĠĠĠĠĠĠĠĠĠĠĠĠĠĠĠĠĠĠĠĠĠĠĠĠĠĠĠĠĠĠĠĠĠĠĠĠĠĠĠĠĠĠĠĠĠĠĠĠĠĠĠĠĠĠĠĠĠĠĠĠĠĠĠĠĠĠĠĠĠĠĠĠĠĠĠĠĠĠ":6475,"RI":6476,"burg":6477,"Ġtro":6478,"Ġbij":6479,"Ġassign":6480,"inÄģ":6481,"ĉĉĉĉĉĉĉ":6482,"Expos":6483,"entists":6484,"PC":6485,"Ã¤ll":6486,"SL":6487,"eler":6488,"Ġreasons":6489,"ĠCorps":6490,"aily":6491,"Ġlegislative":6492,"ĠAPP":6493,"Ġoften":6494,"Ġasset":6495,"ATIVES":6496,"ĠTar":6497,"Ġworden":6498,"ĠSPEA":6499,"Ġoccur":6500,"Ġ....................................................................................................................":6501,"ĠrÃ©g":6502,"itness":6503,"mination":6504,"Ġ1986":6505,"ians":6506,"Ġul":6507,"Ġausge":6508,"nih":6509,"Gu":6510,"Health":6511,"Î¤":6512,"GRAM":6513,"Ġsalaries":6514,"Ġdei":6515,"Ġot":6516,"Ġdiss":6517,"Ġvehicles":6518,"Ġquan":6519,"ĠRober":6520,"Ġveterans":6521,"urement":6522,"clu":6523,"play":6524,"ĠÏĥÎµ":6525,"urrency":6526,"From":6527,"ĠChild":6528,"ĠSPEAKER":6529,"Ġdetailed":6530,"Ġprocessing":6531,"ĠÎµÏĢ":6532,"jects":6533,"Ġmanufacturing":6534,"kk":6535,"kez":6536,"Ġentry":6537,"ĠĊĠĠĠĠĠĠĠĠĠĠĠĠĠĠĠĠĠĠĠĠĠĠĠĠĠĠĠĠĠĠĠĠĠĠĠĠĠĠĠĠĠĠĠĠĠĠĠĠĠĠĠĠĠĠĠĠĠĠĠĠĠĠĠĠĠĠĠĠĠĠĠĠĠĠĠĠĠĠĠĠĠĠĠĠĠĠĠĠĠĠĠĠĠĠĠĠĠĠĠĠĠĠĠĠĠĠĠĠĠĠĠĠĠĠĠĠĠĠĠĠĠĠĠĠĠĠĠĠĠĠĠĠĠĠĠĠĠĠĠĠĠĠĠĠĠĠĠĠ":6538,"ĠStandards":6539,"Ġrail":6540,"Ã¨res":6541,"Ġself":6542,"ĠSUBCHAPTER":6543,"nic":6544,"Ġagent":6545,"136":6546,"enk":6547,"ĠIsland":6548,"umping":6549,"ĠSche":6550,"ogy":6551,"Ġsex":6552,"ono":6553,"Ġgentleman":6554,"prove":6555,"ĠHousing":6556,"Ġktor":6557,"Ġcalled":6558,"Ġviolation":6559,"report":6560,"ĠLouis":6561,".''":6562,"Ġincurred":6563,"ÏĬ":6564,"Ġsites":6565,"ĠcrÃ©dit":6566,"lementary":6567,"Ġestate":6568,"ĠGer":6569,"ĠWhat":6570,"ĠNone":6571,"Ġeffic":6572,"Ġparte":6573,"Ġfig":6574,"Ġindicated":6575,"134":6576,"Ġtek":6577,"Ġstructure":6578,"ĠĊĠĠĠĠĠĠĠĠĠĠĠĠĠĠĠĠĠĠĠĠĠĠĠĠĠĠĠĠĠĠĠĠĠĠĠĠĠĠĠĠĠĠĠĠĠĠĠĠĠĠĠĠĠĠĠĠĠĠĠĠĠĠĠĠĠĠĠĠĠĠĠĠĠĠĠĠĠĠĠĠĠĠĠĠĠĠĠĠĠĠĠĠĠĠĠĠĠĠĠĠĠĠĠĠĠĠĠĠĠĠĠĠĠĠĠĠĠĠĠĠĠĠĠĠĠĠĠĠĠĠĠĠĠĠĠĠĠĠĠĠĠĠĠĠĠĠĠĠĠ":6579,"ĠKing":6580,"Ġassigned":6581,"ril":6582,"irk":6583,"ĠĊĠĠĠĠĠĠĠĠĠĠĠĠĠĠĠĠĠĠĠĠĠĠĠĠĠĠĠĠĠĠĠĠĠĠĠĠĠĠĠĠĠĠĠĠĠĠĠĠĠĠĠĠĠĠĠĠĠĠĠĠĠĠĠĠĠĠĠĠĠĠĠĠĠĠĠĠĠĠĠĠĠĠĠĠĠĠĠĠĠĠĠĠĠĠĠĠĠĠĠĠĠĠĠĠĠĠĠĠĠĠĠĠĠĠĠĠĠĠĠĠĠĠĠĠĠĠĠĠĠĠĠĠĠĠĠĠĠĠĠĠĠĠĠĠĠĠĠĠĠĠ":6584,"Ġmatters":6585,"Ġorders":6586,"Ġspending":6587,"enÃ©":6588,"ITT":6589,"Ġ311":6590,"Sp":6591,"ARE":6592,"Ġbasic":6593,"ifi":6594,"Ã©ment":6595,"Ġcred":6596,"down":6597,"tat":6598,"RLD":6599,"ĠĠĠĊĠĠĠĠĠĠĠ":6600,"Ġpra":6601,"Ġadding":6602,"Ġett":6603,"127":6604,"206":6605,"LV":6606,"loss":6607,"AST":6608,"ĠInterior":6609,"ĠMitglied":6610,"urpos":6611,"were":6612,"ĠSUPP":6613,"oph":6614,"chaft":6615,"Ġlog":6616,"Ġled":6617,"Ob":6618,"Ġcity":6619,"ĠÎ®":6620,"Ġgoods":6621,"ĠEstados":6622,"Å±":6623,"ĠReserve":6624,"oto":6625,"Ġeffort":6626,"ĠRod":6627,"Ġpayable":6628,"Ġunders":6629,"Ġnu":6630,"Ġallowed":6631,"workers":6632,"Ġ.....................................................................................................................":6633,"Ġrenew":6634,"OF":6635,"akse":6636,"Ġtreated":6637,"âĢĻâĢĻ.":6638,"ĠCare":6639,"ĠMarine":6640,"Ã¥n":6641,"Ġincorporated":6642,"Ġvessels":6643,"unit":6644,"Id":6645,"ordination":6646,"ĠApplic":6647,"Ġconsid":6648,"visions":6649,"stall":6650,"abe":6651,"wend":6652,"airman":6653,"Ġestable":6654,"Ġ480":6655,"American":6656,"ĠAT":6657,"Ġetc":6658,"Ġexpect":6659,"230":6660,"ĠMer":6661,"Ġtrading":6662,"(\"":6663,"Ġdifficult":6664,"month":6665,"Ġroll":6666,"Ġofficials":6667,"Ã¦r":6668,"Ġherein":6669,"Ġexpand":6670,"Ġproviders":6671,"PH":6672,"WA":6673,"design":6674,"fr":6675,"750":6676,"],":6677,"urers":6678,"Ġimmediately":6679,"bro":6680,"comple":6681,"Ġadvance":6682,"vin":6683,"Ġforms":6684,"Ġmor":6685,"139":6686,"Ġdeleg":6687,"usa":6688,"Ġpoll":6689,"atk":6690,"they":6691,"elo":6692,"ibilities":6693,"Ġkeep":6694,"dec":6695,"ĠÎ¸":6696,"Ġseries":6697,"Ġcr":6698,"ĉĉĉĉĉĉĉĉĉĉĉĉĉĉĉĉ":6699,"Ġworked":6700,"ĠInsp":6701,"Ġcustomer":6702,"car":6703,"iner":6704,"ieg":6705,"149":6706,"Ġrather":6707,"withstanding":6708,"Ġelimin":6709,"132":6710,"ĠHomeland":6711,"Î±Î»":6712,"Ġali":6713,"Ġvolume":6714,"ham":6715,"rod":6716,"Ã³s":6717,"Ġresponsibility":6718,"hang":6719,"uestion":6720,"Ġguarant":6721,"Ġnumer":6722,"ĠLam":6723,"wards":6724,"Ġnurs":6725,"inary":6726,"2023":6727,"015":6728,"ĠBet":6729,"ĠNavy":6730,"ĠLet":6731,"chen":6732,"335":6733,"hte":6734,"Ge":6735,"vide":6736,"CES":6737,"ĠAlaska":6738,"Ġcategories":6739,"Art":6740,"abric":6741,"ĠRest":6742,"igne":6743,"ĠAssistant":6744,"duled":6745,"mis":6746,"ÏĦÏģÎ¿ÏĢ":6747,"Ġstand":6748,"Ġpropor":6749,"ĠTHK":6750,"pez":6751,"Ġrevised":6752,"Ġexcluding":6753,"165":6754,"Su":6755,"ĠSum":6756,"Ġitem":6757,"Ġmanagers":6758,"Ġvai":6759,"ĊĠĠĠĠĠĠĠĠĊĠĠĠĠĠĠĠĠ":6760,"Ġinfrastructure":6761,"cher":6762,"ĠPage":6763,"ĠNatural":6764,"ÎĻ":6765,"assa":6766,"Occup":6767,"icher":6768,"Ġperformed":6769,"Ġowner":6770,"nez":6771,"auf":6772,"Ġtechnologies":6773,"Ġglobal":6774,"Ġvia":6775,"rat":6776,"Ġdischarge":6777,"Ġnormal":6778,"Ġcaused":6779,"ĠHR":6780,"Ġanticip":6781,"025":6782,"ader":6783,"tivities":6784,",âĢĶ":6785,"Pursuant":6786,"Ġconstitu":6787,"ĠInternet":6788,"Ġ......................................................................................................................":6789,"Ġresol":6790,"Ġ--------------------------------":6791,"ANS":6792,"yond":6793,"ĠPan":6794,"Ġproblems":6795,"Ġdom":6796,"President":6797,"ĊĊĉ":6798,"tible":6799,"lÃ¤":6800,"Ġaffili":6801,"Ġmakes":6802,"valuation":6803,"rim":6804,"duced":6805,"ÏĢÎ¹ÏĦÏģÎ¿ÏĢ":6806,"Ġvy":6807,"nost":6808,"itet":6809,"ĠAttorney":6810,"Ġspace":6811,"gest":6812,"BS":6813,"ternal":6814,"ĠÎļ":6815,"Ġ109":6816,"production":6817,"rÃ¤":6818,"ÃĦ":6819,"Ġstation":6820,"ROLL":6821,"Ġcomprehensive":6822,"andes":6823,"annel":6824,"utt":6825,"know":6826,"Ġhapp":6827,"Ġnegoti":6828,"ÑĢ":6829,"hu":6830,"NGL":6831,"ĠREPRESENTATIVES":6832,"ĠIRON":6833,"Form":6834,"Relative":6835,"ĠIT":6836,"rio":6837,"Te":6838,"antes":6839,"Ġneb":6840,"ache":6841,"Ġpermitted":6842,"Fr":6843,"astern":6844,"toc":6845,"osph":6846,"formance":6847,"etta":6848,"GENCY":6849,"Ġpip":6850,"Ġnov":6851,"ĠÃľ":6852,"144":6853,"ĠOhio":6854,"Ġcross":6855,"Ġdecisions":6856,"uns":6857,"Ġopportunities":6858,"Ġcamp":6859,"Ġnuclear":6860,"ÏĮÎ½":6861,"essa":6862,"Ġcharges":6863,"UG":6864,"Ġreim":6865,"bra":6866,"fication":6867,"Ġsubsequent":6868,"Ġpreceding":6869,"Ġ117":6870,"pass":6871,"Ġsurve":6872,"Ġpunkt":6873,"yle":6874,"Ġnever":6875,"oday":6876,"ĠDu":6877,"ĠSin":6878,"Ġbanks":6879,"Ġincreasing":6880,"emeins":6881,"404":6882,"ske":6883,"mail":6884,"cludes":6885,"ift":6886,"Ġcitizens":6887,"alk":6888,"Service":6889,"ĠCivil":6890,"ĠbÅ«":6891,"ĠCurrent":6892,"ensed":6893,"Ġadjustment":6894,"185":6895,"Ġfocus":6896,"Ġchemical":6897,"Ġ400":6898,"Ġrepresentatives":6899,"Ġlot":6900,"Ġdepartment":6901,"Ġgross":6902,"liament":6903,"Ġremaining":6904,"225":6905,"Ġ301":6906,"ĠEuropeo":6907,"ement":6908,"Ġcontains":6909,"ĠEin":6910,"there":6911,"Ã¡ci":6912,"Ġcontrols":6913,"odes":6914,"tivity":6915,"166":6916,"bon":6917,"Ġmachine":6918,"Ġved":6919,"lez":6920,"ĠSTATES":6921,"hat":6922,"Ġ.......................................................................................................................":6923,"VN":6924,"Ġwebs":6925,"Ġid":6926,"font":6927,"Ġcommittees":6928,"thern":6929,"ĠBO":6930,"hest":6931,"pdf":6932,"IO":6933,"NON":6934,"Ãģ":6935,"Ġalla":6936,"Ġzw":6937,"iai":6938,"gt":6939,"ĠInsurance":6940,"ĠFDA":6941,"Ġopinion":6942,"anger":6943,"425":6944,"animous":6945,"403":6946,"sta":6947,"ĠEd":6948,"ĠDan":6949,"ĠSmall":6950,",*":6951,"ĠGeorgia":6952,"ops":6953,"Ġending":6954,"Senate":6955,"ĠClause":6956,"usi":6957,"Î¿ÏĤ":6958,"OTHER":6959,"Ġapplies":6960,"210":6961,"ogen":6962,"arios":6963,"Ġtai":6964,"ĠFeb":6965,"ĠDirectors":6966,"Be":6967,"ĠDi":6968,"1000":6969,"Î¼Îµ":6970,"EV":6971,"ĠCash":6972,"133":6973,"presas":6974,"imate":6975,"ÎĹ":6976,"Ġcarried":6977,"ML":6978,"gar":6979,"Ġfixed":6980,"ajo":6981,"ÏĦÎ¬":6982,"Ġspecifically":6983,"active":6984,"ĠAv":6985,"Ġsubmission":6986,"CORP":6987,"who":6988,"ANGE":6989,"ĠÏĦÎ¹ÏĤ":6990,"Ã½m":6991,"Å¡anas":6992,"cepted":6993,"ullet":6994,"PD":6995,"ÏĪ":6996,"onder":6997,"Ġbed":6998,"Ġ130":6999,"ĠFL":7000,"Ġinvent":7001,"Ġalleg":7002,"755":7003,"aÅĤ":7004,"207":7005,"lemental":7006,"ĠFrom":7007,"270":7008,"Äģk":7009,"Ġincreases":7010,"Ġuit":7011,"ĠĊĠĠĠĠĠĠĠĠĠĠĠĠĠĠĠĠĠĠĠĠĠĠĠĠĠĠĠĠĠĠĠĠĠĠĠĠĠĠĠĠĠĠĠĠĠĠĠĠĠĠĠĠĠĠĠĠĠĠĠĠĠĠĠĠĠĠĠĠĠĠĠĠĠĠĠĠĠĠĠĠĠĠĠĠĠĠĠĠĠĠĠĠĠĠĠĠĠĠĠĠĠĠĠĠĠĠĠĠĠĠĠĠĠĠĠĠĠĠĠĠĠĠĠĠĠĠĠĠĠĠĠĠĠĠĠĠĠĠĠĠĠĠĠĠĠĠĠĠĠĠĠ":7012,"amise":7013,"Ġwords":7014,"istan":7015,"Ġcult":7016,"Ã©nÃ©":7017,"Ġmass":7018,"opa":7019,",.":7020,"ĠNI":7021,"Ġacquired":7022,"Åł":7023,"Ġclassification":7024,"tica":7025,"214":7026,"ware":7027,"Dis":7028,"anufact":7029,"ÎµÏĦÎ±Î¹":7030,"dy":7031,"333":7032,"missie":7033,"isi":7034,"Ġtoo":7035,"ĠProposed":7036,"ila":7037,"inder":7038,"incip":7039,"Our":7040,"Ã¡b":7041,"Ã¡nÃŃ":7042,"Pol":7043,"~~":7044,"dress":7045,"Ġsubpart":7046,"ĠÎ²":7047,"ĠHold":7048,"Ã¶s":7049,"Ġattend":7050,"Ġdeposit":7051,"Ġadopt":7052,"jet":7053,"nÃ½ch":7054,"ello":7055,"Ġ250":7056,"das":7057,"Ġcollec":7058,"Ġdeveloping":7059,"ĠRevenue":7060,"ĠWilliam":7061,"Ġ........................................................................................................................":7062,"pling":7063,"Ġterror":7064,"ANK":7065,"riers":7066,"iste":7067,"âĢĻâĢĻ;":7068,"urchase":7069,"ĠMAR":7070,"ĠMartin":7071,"mun":7072,"211":7073,"280":7074,"rik":7075,"Ġfu":7076,"URES":7077,"Ġ365":7078,"Ġregistration":7079,"Ġthousands":7080,"BILLING":7081,"ancy":7082,"MO":7083,"ategy":7084,"ĠMill":7085,"luss":7086,"Ġcategory":7087,"ĠUse":7088,"ĠBuilding":7089,"estimony":7090,"ĠMal":7091,"216":7092,"ĠSept":7093,"255":7094,"ĠCapital":7095,"ima":7096,"Ġhttp":7097,"Ġoffices":7098,"well":7099,"EMENTS":7100,"otts":7101,"iej":7102,"mid":7103,"Figure":7104,"ĠStatements":7105,"europ":7106,"ethyl":7107,"ming":7108,"ĠprÃ©sent":7109,"LY":7110,"ahl":7111,"Ġreserve":7112,"Ġinnov":7113,"Ġsell":7114,"ĠPrograms":7115,"uda":7116,"Ġattrib":7117,"Ġstruct":7118,"igan":7119,"zenÃŃ":7120,"Ġrecognize":7121,"Ġissuance":7122,"Ġparagraphs":7123,"Ġ0000":7124,"195":7125,"Ġcalculated":7126,"ĠOk":7127,"Ġjew":7128,"Ġenhance":7129,"Ġmortgage":7130,"ĠAnalysis":7131,"450":7132,"amed":7133,"ori":7134,"Ġfinancing":7135,"ĠGl":7136,"ĠCommissione":7137,"Ġkap":7138,"Î¿ÏħÏĤ":7139,"ĠLake":7140,"top":7141,"Ġgovernments":7142,"idade":7143,"rations":7144,"ework":7145,"empt":7146,"ustee":7147,"illa":7148,"worth":7149,"ĠACT":7150,"cale":7151,"Ġcommission":7152,"tioned":7153,"ĠItem":7154,"ĠComments":7155,"leist":7156,"Ġei":7157,"ĠgÄ§all":7158,"Ġlittle":7159,"orsch":7160,"Ġmultiple":7161,"Ġmaj":7162,"hom":7163,"Ġhimself":7164,"ficial":7165,"Ġexemption":7166,"ASS":7167,"cean":7168,"Ġbeg":7169,"ishes":7170,"ĠDrug":7171,"Ġplat":7172,"tigo":7173,"Ġonce":7174,"INGTON":7175,"aiver":7176,"dan":7177,"isa":7178,"Ġderiv":7179,"roz":7180,"urt":7181,"ĠRad":7182,"health":7183,"orf":7184,"Ġpi":7185,"stream":7186,"ekt":7187,"Ġconsultation":7188,"Ġrural":7189,"Ġ.........................................................................................................................":7190,"Ġoperate":7191,"Ġinstrument":7192,"Ã«":7193,"Ġavoid":7194,"Ġduly":7195,"ĠREG":7196,"},":7197,"ours":7198,"146":7199,"Ġlives":7200,"Ġinterpret":7201,"ĠMO":7202,"pet":7203,"Ġovertime":7204,"169":7205,"band":7206,"2500":7207,"217":7208,"ĠWorkers":7209,"ÏģÏĮ":7210,"lio":7211,"prot":7212,"Ġ''":7213,"Ġgoals":7214,"bank":7215,"Ġpap":7216,"ĠEast":7217,"SU":7218,"ĠĊĠĠĠĠĠĠĠĠĠĠĠĠĠĠĠĠĠĠĠĠĠĠĠĠĠĠĠĠĠĠĠĠĠĠĠĠĠĠĠĠĠĠĠĠĠĠĠĠĠĠĠĠĠĠĠĠĠĠĠĠĠĠĠĠĠĠĠĠĠĠĠĠĠĠĠĠĠĠĠĠĠĠĠĠĠĠĠĠĠĠĠĠĠĠĠĠĠĠĠĠĠĠĠĠĠĠĠĠĠĠĠĠĠĠĠĠĠĠĠĠĠĠĠĠĠĠĠĠĠĠĠĠĠĠĠĠĠĠĠĠĠĠĠĠĠĠĠĠĠĠĠĠ":7219,"IF":7220,"Ġworker":7221,"Ġcontent":7222,"Ġprescribed":7223,"culated":7224,"137":7225,"Ġavailability":7226,"oir":7227,"tainment":7228,"ICH":7229,"about":7230,"ĠpÅĻÃŃ":7231,"istor":7232,"utor":7233,"aten":7234,"outher":7235,"Ġstream":7236,"uksen":7237,"cks":7238,"ÃŃc":7239,"prise":7240,"Ġconservation":7241,"Å¾i":7242,"aches":7243,"etting":7244,"ĠYes":7245,"Ġstudent":7246,"Ġwithd":7247,"ocks":7248,"ume":7249,"rov":7250,"PE":7251,"Ġserious":7252,"VIS":7253,"zy":7254,")..":7255,"ĠPs":7256,"\\:":7257,"ortiz":7258,"603":7259,"employment":7260,"ĠEuropea":7261,"ĠÎ±ÏĢÎ¿":7262,"orado":7263,"Ġtransferred":7264,"Ġinflu":7265,"teen":7266,"ĠMass":7267,"Ġsituation":7268,"March":7269,"nu":7270,"COMM":7271,"Ġappointed":7272,"tered":7273,"Ġsem":7274,"rin":7275,"309":7276,"Ġbeyond":7277,"Ġ6633":7278,"ĠÎķÏĢÎ¹ÏĦÏģÎ¿ÏĢ":7279,"ĠĊĠĠĠĠĠĠĠĠĠĠĠĠĠĠĠĠĠĠĠĠĠĠĠĠĠĠĠĠĠĠĠ":7280,"Company":7281,"Äħc":7282,"138":7283,"Ġcivilian":7284,"etary":7285,"Ġhereby":7286,"Ġcomplex":7287,"elm":7288,"Ġexc":7289,"Number":7290,"Ġbonuses":7291,"thing":7292,"Äħce":7293,"ĠAdvisory":7294,"GU":7295,"iation":7296,"system":7297,"osti":7298,"Ġcompetition":7299,"glish":7300,"ĠMus":7301,"fÃ¶r":7302,"ĠJournal":7303,"Ġsavings":7304,"019":7305,"Ġpromote":7306,"Ġcomponent":7307,"Ġchalleng":7308,"Ġrecovery":7309,"SH":7310,"ĠSav":7311,"Ġarticle":7312,"ĠĠĠĊĠĠĠĠĠĠĠĠĠĠĠĠĠ":7313,"ĠAppropriations":7314,"016":7315,"ICK":7316,"ĠĠĠĠĊĠĠĠĠĠĠĠĠĠĠĠĠĠ":7317,"ĠMore":7318,"Ġdoing":7319,"ĠdÃ©cision":7320,"LEMENT":7321,"Ãºblic":7322,"ĠÏĥÏħÎ½":7323,"Ġleadership":7324,"Management":7325,"ĠPROGRAM":7326,"rators":7327,"government":7328,"ublik":7329,"vert":7330,"ï¿½ï¿½ï¿½ï¿½ï¿½ï¿½ï¿½ï¿½":7331,"unn":7332,"Ġ..........................................................................................................................":7333,"ĠSam":7334,"isl":7335,"ĠReform":7336,"efits":7337,"Ġholding":7338,"Ġcounsel":7339,"Ġadequate":7340,"gra":7341,"ĠGo":7342,"orge":7343,"Ġ118":7344,"ĠzÃ¡":7345,"ĠIncome":7346,"Ġleft":7347,"John":7348,"viation":7349,"Ġreplace":7350,"Ġnar":7351,"Ġholid":7352,"TIC":7353,"ĠParlement":7354,"WE":7355,"Ġimplementing":7356,"Ġcontaining":7357,"rical":7358,"Ġrecon":7359,"oÅ¡":7360,"TIT":7361,"abled":7362,"Ġinstruments":7363,"abb":7364,"ĠDen":7365,"Af":7366,"Ġadvis":7367,"ellow":7368,"Ġwaters":7369,"imp":7370,"Ġagents":7371,"Ġscientific":7372,"ĠProced":7373,"enza":7374,"Ġcombination":7375,"https":7376,"Ġscience":7377,"opoul":7378,"oods":7379,"219":7380,"Ġpatients":7381,"Ġton":7382,"218":7383,"Î¬Î½":7384,"years":7385,"izations":7386,"Ġwhom":7387,"Ġparticularly":7388,"ÏĢÎ±":7389,"MC":7390,"Ġcharacteristics":7391,"ĠDuring":7392,"oking":7393,"SR":7394,"Ġenacted":7395,"elli":7396,"ternehmen":7397,"ĠSmith":7398,"actor":7399,"ĠTechnical":7400,"717":7401,"Ġdecrease":7402,"ĠTreat":7403,"Ġ!":7404,"ersey":7405,"Ġcenter":7406,"Ġdegree":7407,"148":7408,"ims":7409,"Ġdelay":7410,"Ġ370":7411,"tisan":7412,"164":7413,"275":7414,"Ã³pez":7415,"Ġactually":7416,"Il":7417,"ĠDie":7418,"ĠMaterial":7419,"Ġdiscretion":7420,"esting":7421,"Ġbills":7422,"MY":7423,"163":7424,"Ġide":7425,"Ġnotification":7426,"ĠDEF":7427,"Ġcleaners":7428,"ĠLÃ³pez":7429,"pid":7430,"imas":7431,"Ġobjectives":7432,"Ġadj":7433,"utri":7434,"Ġparticipate":7435,"Ġrevision":7436,"ĠBre":7437,"GY":7438,"ĠDecision":7439,"ĠInternal":7440,"260":7441,"elj":7442,"empl":7443,"Ġanti":7444,"nak":7445,"arÃ¡":7446,"Ä·":7447,"ĠEffective":7448,"rees":7449,"213":7450,"Ġkan":7451,"Ġmarch":7452,"hard":7453,"hares":7454,"013":7455,"Dire":7456,"unicip":7457,"ĠWD":7458,"aben":7459,"profit":7460,"Ġconv":7461,"person":7462,"ĠĊĠĠĠĠĠĠĠĠĠĠĠĠĠĠĠĠĠĠĠĠĠĠĠĠĠĠĠĠĠĠĠĠĠĠĠĠĠĠĠĠĠĠĠĠĠĠĠĠĠĠĠĠĠĠĠĠĠĠĠĠĠĠĠĠĠĠĠĠĠĠĠĠĠĠĠĠĠĠĠĠĠĠĠĠĠĠĠĠĠĠĠĠĠĠĠĠĠĠĠĠĠĠĠĠĠĠĠĠĠĠĠĠĠĠĠĠĠĠĠĠĠĠĠĠĠĠĠĠĠĠĠĠĠĠĠĠĠĠĠĠĠĠĠĠĠĠĠĠĠĠĠĠĠ":7463,"Ġproceeding":7464,"ĠVII":7465,"ĠRegional":7466,"Ġproperties":7467,"ĠÎĳ":7468,"aining":7469,"Ġexpressed":7470,"235":7471,"ASE":7472,"ĠWhile":7473,"ester":7474,"gle":7475,"154":7476,"Ġspecialty":7477,"00000000":7478,"left":7479,"ĠMary":7480,"enture":7481,"Ġale":7482,"oe":7483,"closure":7484,"ĠSW":7485,"ls":7486,"import":7487,"jection":7488,"147":7489,"Ġoperator":7490,"ollowing":7491,"ĠÃ¨":7492,"Ġimpair":7493,"ÃŁnah":7494,"Ä«g":7495,"White":7496,"Ġrecre":7497,"Ġcontinues":7498,"leased":7499,"Ġproduced":7500,"Net":7501,"Ġcompetitive":7502,"Col":7503,"Ġcriminal":7504,"Ġay":7505,"ĠÎĶ":7506,"Ġrend":7507,"408":7508,"Ġ...........................................................................................................................":7509,"Ġdoor":7510,"ĠMedian":7511,"Ġcontrolled":7512,"Pa":7513,"OY":7514,"vious":7515,"ĠCommissie":7516,"Ġrelief":7517,"ĠBY":7518,"Ġdevice":7519,"geb":7520,"Artik":7521,"ĠAccording":7522,"ĠSCH":7523,"ÏĮÏĦÎ·":7524,"Ġconference":7525,"ĠÎµÎº":7526,"IRB":7527,"159":7528,"ROLLED":7529,"504":7530,"..]":7531,"ĠASS":7532,"Ġsenior":7533,"Ġcoal":7534,"Ġunderstand":7535,"197":7536,"ije":7537,"NAN":7538,"iform":7539,"ches":7540,"Ġdig":7541,"undred":7542,"ĠDocket":7543,"Ġinput":7544,"ĠPennsylvania":7545,"width":7546,"...]":7547,"itors":7548,"eur":7549,"Ġstorage":7550,"167":7551,"Whereas":7552,"ÏģÎµ":7553,"eks":7554,"try":7555,"Ġdivers":7556,"Ġmarketing":7557,"ĠAngel":7558,"Ġconvers":7559,"reshold":7560,"Sales":7561,"604":7562,"ĠÎµÏĢÎ¹":7563,"ĠPal":7564,"ĠEvrop":7565,"uts":7566,"izotts":7567,"aan":7568,"outhern":7569,"ĠAG":7570,"ĠDay":7571,"ĠpÄģr":7572,"866":7573,"arse":7574,"Ġclinical":7575,"Ġmission":7576,"Ġobjection":7577,"Ġ373":7578,"Ġcommod":7579,"Ġsubstance":7580,"enant":7581,"ĠMont":7582,"Ġtoim":7583,"ĠHis":7584,"etts":7585,"Ġ479":7586,"ĠRoad":7587,"ÏĩÎµ":7588,"BI":7589,"Ġpu":7590,"lege":7591,"Ġstrategy":7592,"istic":7593,"Ġexpenditures":7594,"ducts":7595,"143":7596,"Ġretirement":7597,"ĠVice":7598,"chez":7599,"ĠMain":7600,"Ġinterested":7601,"Ġcentral":7602,"rÃ¡":7603,"Ġnumbers":7604,"Cap":7605,"reme":7606,"ĠMarket":7607,"Ġtransition":7608,"Cor":7609,"zeug":7610,"Ġestablishing":7611,"inding":7612,"Î»Îµ":7613,"Ġlub":7614,"ĠAfric":7615,"Ġplaced":7616,"CEE":7617,"irms":7618,"ifik":7619,"Ġonder":7620,"ĠIllinois":7621,"Ġlay":7622,"overed":7623,"ĠJun":7624,"essment":7625,"Ġmonthly":7626,"ses":7627,"Ġrepresentative":7628,"eri":7629,"Ġlid":7630,"IGN":7631,"iska":7632,"oke":7633,"Ġtot":7634,"ĠPacific":7635,"ingu":7636,"Ġelse":7637,"into":7638,"Ġreceipt":7639,"Î¿Î½Î¹Ïĥ":7640,"ISH":7641,"OW":7642,"Ġefficiency":7643,"Ġ............................................................................................................................":7644,"ĠRa":7645,"Direct":7646,"Ġfre":7647,"Ġimposed":7648,"131":7649,"HL":7650,"Ġsafe":7651,"Ġeffectiveness":7652,"008":7653,"Ġlines":7654,"012":7655,"Resp":7656,"ĠExt":7657,"Ġagricultural":7658,"ĊĠĠĠĠĠĠĠĠĠĠĠĠĠĠĠĠĠĠĠĠĠĠĠĠĠĠĠĠĊĠĠĠĠĠĠĠĠĠĠĠĠĠĠĠĠĠĠĠĠĠĠĠĠ":7659,"irts":7660,"risiko":7661,"entially":7662,"list":7663,"Ġdocket":7664,"Ġnep":7665,"ĠAppendix":7666,"153":7667,"Ġelements":7668,"402":7669,"ĠSil":7670,"Ġmal":7671,"Ġscientists":7672,"Ġturn":7673,"Pre":7674,"UK":7675,"Ġleave":7676,"Ġretail":7677,"BL":7678,"ĠÏĥÏĦÎ·Î½":7679,"193":7680,"009":7681,"Ġvoting":7682,"here":7683,"550":7684,"Ġoffset":7685,"adz":7686,"eit":7687,"Ġyet":7688,"SMEC":7689,"Ã¡z":7690,"otti":7691,"rupt":7692,"ĠWDTH":7693,"Ġlimitations":7694,"atical":7695,"iles":7696,"EÃľ":7697,"ĠNW":7698,"244":7699,"Ġegy":7700,"ĠApr":7701,"ignificant":7702,"ĠArmed":7703,"ĠOf":7704,"ijas":7705,"Î¼Î¿Ïį":7706,"ĠAvenue":7707,"Ġsignificantly":7708,"Ġvig":7709,"Ġpan":7710,"issÃ£o":7711,"ĠPM":7712,"bed":7713,"Ġtribal":7714,"Ġamb":7715,"ipar":7716,"Ã¡d":7717,"Ġcollege":7718,"Ġcreated":7719,"198":7720,"folio":7721,"ferences":7722,"Ġcontribution":7723,"europa":7724,"ĠIssu":7725,"Ġversion":7726,"Ġpermanent":7727,"Ġimpago":7728,"ÄĹl":7729,"vez":7730,"ĠCamp":7731,"PB":7732,"Ġ139":7733,"ĠCounsel":7734,"307":7735,"ĠGrant":7736,"Ġindirect":7737,"Ġdisease":7738,"ĠSTAT":7739,"Ġmach":7740,"Ġforces":7741,"356":7742,"Ġfinans":7743,"Ġrequiring":7744,"lage":7745,"Ġdebate":7746,"jonijiet":7747,"157":7748,"Ġinstructions":7749,"360":7750,"dist":7751,"Ġownership":7752,"ĠspÃ©":7753,"Ġ**(":7754,"ourly":7755,"ĠAdv":7756,"izottsÃ¡g":7757,"bes":7758,"Å¡t":7759,"Ġengaged":7760,"Ġsupporting":7761,"jn":7762,"ĠFiscal":7763,"\">":7764,"ĠWorld":7765,"ulate":7766,"zung":7767,"Ġscheduled":7768,"ĠĠĊĠĠĠĠ":7769,"Ãºn":7770,"ĠĠĠĊĠĠĠĠĠ":7771,"ĠâĪĴ":7772,"ĊĠĊĠ":7773,"Ġequivalent":7774,"ÏĥÏĦ":7775,"Ġhom":7776,"ÅĻÃŃzenÃŃ":7777,"ouri":7778,"Ġcel":7779,"ĊĊĊĊĊĊĊĊĊĊĊĊĊĊĊĊĊĊĊĊĊĊĊĊĊĊĊĊĊĊĊĊ":7780,"CEN":7781,"ĠFull":7782,"fort":7783,"ĠImp":7784,"ĠSubcommittee":7785,"Ġearlier":7786,"Ġrulemaking":7787,"ĠDIS":7788,"ĠMat":7789,"0106":7790,"179":7791,"Rating":7792,"Ġwebsite":7793,"Ġ.............................................................................................................................":7794,"lg":7795,"sm":7796,"Ġcontinuing":7797,"Ġdestin":7798,"Jan":7799,"ĠAud":7800,"Î¼ÎµÎ½":7801,"ĠÎºÎ±Î½":7802,"cor":7803,"Ġausgefall":7804,"read":7805,"Î¹ÎºÎ®":7806,"GS":7807,"tax":7808,"Ġwriting":7809,"Docket":7810,"Ġtemporary":7811,"ĠEurÃ³p":7812,"alla":7813,"Ġwur":7814,"ĠRights":7815,"Ġutiliz":7816,"Ġelekt":7817,"Ġreasonably":7818,"Ġface":7819,"Ġstraips":7820,"oster":7821,"Ġautres":7822,"Ġteam":7823,"Ġkor":7824,"INGS":7825,"ĠChrist":7826,"ĠNE":7827,"ĠOMB":7828,"Ġevaluate":7829,"168":7830,"ĠpÃ¤iv":7831,"eren":7832,"Ġ1991":7833,"Ġprocesses":7834,"Ġtimely":7835,"ALTH":7836,"141":7837,"Ãį":7838,"oting":7839,"1998":7840,"029":7841,"Oper":7842,"ĠDOE":7843,"007":7844,"type":7845,"FO":7846,"Ġspr":7847,"158":7848,"echts":7849,"child":7850,"Ġupd":7851,"ĠStaff":7852,"emy":7853,"Ġsure":7854,"ĠRicht":7855,"Ġsoftware":7856,"Ġnorth":7857,"ĠHo":7858,"Ġmess":7859,"CZ":7860,"Ġpie":7861,"014":7862,"gressional":7863,"ĠMy":7864,"ĠÌģ":7865,"oment":7866,"ÏĥÎ¹":7867,"ĠParliament":7868,"een":7869,":\"":7870,"Ġsouth":7871,"506":7872,"Ġsubstantially":7873,"Ġdiscussion":7874,"GUE":7875,"285":7876,"Ġavec":7877,"iÅ¼":7878,"income":7879,"Ġ6601":7880,"ĠJersey":7881,"osten":7882,"mÃ¤":7883,"Ġdefic":7884,"incipal":7885,"ĠRequest":7886,"Ġappropriation":7887,"Ġ187":7888,"245":7889,"Ġadjusted":7890,"Ġzone":7891,"Ġcorporate":7892,"ÎºÎµ":7893,"urg":7894,"itan":7895,"ĠvÃµi":7896,"Ġunter":7897,"Ġpou":7898,"Ġdoub":7899,"ĠChange":7900,"Ġflu":7901,"Ġextended":7902,"been":7903,"ĠsÃº":7904,"Ġconsumers":7905,"Ġprofit":7906,"ĠAGENCY":7907,"ersons":7908,"Sc":7909,"ĠmÃ¡s":7910,"ĠMedical":7911,"iciones":7912,"Ġrecommended":7913,"226":7914,"ticolo":7915,"505":7916,"Ñģ":7917,"ratic":7918,"605":7919,"Ġaccepted":7920,"ĠED":7921,"ket":7922,"Ġml":7923,"reedom":7924,"295":7925,"Î´Î¿":7926,"abs":7927,"arters":7928,"arbe":7929,"ĠName":7930,"indust":7931,"ĠConstruction":7932,"Ġdirected":7933,"ĠFurther":7934,"rukt":7935,"Ġundert":7936,"\")":7937,"reased":7938,"Ġsich":7939,"ĠAfter":7940,"fi":7941,"zenia":7942,"umptions":7943,"Ġtests":7944,"Ġprovider":7945,"FLAT":7946,"UST":7947,"Ġcomputer":7948,"Ġlimitation":7949,"Äģd":7950,"ĠCOMMISSION":7951,"Ġzum":7952,"keit":7953,"ROM":7954,"AK":7955,"issa":7956,"176":7957,"Ġdirection":7958,"ECH":7959,"Ġholidays":7960,"iche":7961,"407":7962,"bit":7963,"308":7964,"Ġ..............................................................................................................................":7965,"ĠÅ¼":7966,"239":7967,"Ġpartner":7968,"jer":7969,"attle":7970,"Ġsession":7971,"256":7972,"Ġmix":7973,"174":7974,"auer":7975,"ĠMand":7976,"Ġao":7977,"Ġzijn":7978,"Ġextension":7979,"Ġber":7980,"Ġprinciples":7981,"Ġ1974":7982,"Ġmembres":7983,"ĠCS":7984,"tos":7985,"zÄħd":7986,"Ġprodukt":7987,"ĠFUR":7988,"Ġoperational":7989,"agnos":7990,"ifications":7991,"tats":7992,"Ġcaso":7993,"ĠNY":7994,"ditionally":7995,"Ġgaranti":7996,"223":7997,"Ġunion":7998,"Part":7999,"ĠComun":8000,"Ġft":8001,"oi":8002,"142":8003,"elser":8004,"410":8005,"dep":8006,"keeping":8007,"Ġconflic":8008,"ĠMitgliedstaat":8009,"ĠSant":8010,"Î»Î±":8011,"usz":8012,"Europ":8013,"bel":8014,"oundation":8015,"iminary":8016,"ĠÏĢÎµÏģÎ¹":8017,"Ã¼h":8018,"ĠIniti":8019,"ĠgÄ§and":8020,".,*":8021,"Ġachie":8022,"Ġsil":8023,"Ġkos":8024,"Ġsea":8025,"Ġeligibility":8026,"ply":8027,"ruit":8028,"ERN":8029,"409":8030,"ĠRoom":8031,"CP":8032,"ninger":8033,"Ġuncertain":8034,"Ġold":8035,"ĠAppro":8036,"Ġexception":8037,"Ä«bu":8038,"endments":8039,"Ġ($":8040,"group":8041,"Ġdollar":8042,"Å¡k":8043,"RESS":8044,"ulletin":8045,"Ġstatis":8046,"ummer":8047,"ĠEconomic":8048,"owie":8049,"Ġplay":8050,"Ġdedic":8051,"uuta":8052,"Ġlack":8053,"320":8054,"ĠBecause":8055,"CIAL":8056,"Ġkoht":8057,"Ġdivision":8058,"Ġdepart":8059,"ĠÅ¾e":8060,"ĠHa":8061,"sc":8062,"heit":8063,"249":8064,"606":8065,"ĠREL":8066,"ĠtÃ¤":8067,"Ġvagy":8068,"ĠDR":8069,"Mon":8070,"IND":8071,"argo":8072,"vÃŃ":8073,"ĠStatistics":8074,"bu":8075,"CB":8076,"ÏĦÏīÎ½":8077,"Ġbrief":8078,"ĠIl":8079,"ĠAgent":8080,"risis":8081,"ĠParticip":8082,"enta":8083,"Ġdirector":8084,"ĠÎºÎ±ÏĦÎ¬":8085,"number":8086,"Ġwr":8087,"Äįek":8088,"zone":8089,"vÃ¤":8090,"iqu":8091,"Ã¡nchez":8092,"ĠCustom":8093,"Ġestablishments":8094,"-(":8095,"Ġsurv":8096,"ohol":8097,"Ġpriority":8098,"Ġausgefallen":8099,"Î³ÏģÎ±":8100,"Ã©ben":8101,"ĠSÃ¡nchez":8102,"196":8103,"ATOR":8104,"ĠCertific":8105,"Ste":8106,"Ã¶d":8107,"Ġdan":8108,"fs":8109,"Ġ1978":8110,"Ġarticles":8111,"Ġmind":8112,"Ġresponsibilities":8113,"migration":8114,"ĠVol":8115,"oty":8116,"Ġ>/=":8117,"aration":8118,"Ġstatutory":8119,"olamento":8120,"152":8121,"Ãĵ":8122,"Ġraz":8123,"Ġ1988":8124,"ĠKon":8125,"arbor":8126,"310":8127,"Ġpension":8128,"nut":8129,"Ġmodified":8130,"704":8131,"Question":8132,"Ã¶k":8133,"ĠComissÃ£o":8134,"gÄ§":8135,"Ġnos":8136,"elen":8137,"359":8138,"ething":8139,"Ġtown":8140,"189":8141,"Ġcompris":8142,"sur":8143,"Ġmut":8144,"Ġinteg":8145,"Ġemission":8146,"lantic":8147,"ĠIslands":8148,"Ġimprovement":8149,"service":8150,"Ã¼t":8151,"184":8152,"ict":8153,"Ġmiembros":8154,"212":8155,"Ġflex":8156,"ĠColl":8157,"021":8158,"ĠÎµÎ¾":8159,"Ġ...............................................................................................................................":8160,"ĠĊĠĠĠĠĠĠĠĠĠĠĠĠĠĠĠĠĠĠĠĠĠĠĠĠĠĠĠĠĠĠĠĠĠĠĠĠĠĠĠĠĠĠĠĠĠĠĠĠĠĠĠĠĠĠĠĠĠĠĠĠĠĠĠĠĠĠĠĠĠĠĠĠĠĠĠĠĠĠĠĠĠĠĠĠĠĠĠĠĠĠĠĠĠĠĠĠĠĠĠĠĠĠĠĠĠĠĠĠĠĠĠĠĠĠĠĠĠĠĠĠĠĠĠĠĠĠĠĠĠĠĠĠĠĠĠĠĠĠĠĠĠĠĠĠĠĠĠĠĠĠĠĠĠĠ":8161,"ĠDeb":8162,"qual":8163,"ĠkÃ¶z":8164,"Ġgain":8165,"amis":8166,"WR":8167,"elig":8168,"vu":8169,"Ġ1980":8170,"retaries":8171,"Ġpub":8172,"ĠgemÃ¤ÃŁ":8173,"Ġoct":8174,"Ġlength":8175,"ERSON":8176,"Verts":8177,"iber":8178,"ĠItal":8179,"390":8180,"Ġflows":8181,"236":8182,"Name":8183,"186":8184,"ĠMio":8185,"Ġtermination":8186,"ÈĽ":8187,"urring":8188,"Ġelement":8189,"ĠContract":8190,"ASHINGTON":8191,"eling":8192,"CTA":8193,"ircul":8194,"Ġoccurred":8195,"vos":8196,"ĠDES":8197,"BE":8198,"Ġkter":8199,"ĠÃ¥":8200,"aware":8201,"Ġcooperation":8202,"ILS":8203,"Ġsie":8204,"Ġarch":8205,"conf":8206,"techn":8207,"ĠJoint":8208,"oston":8209,"Ġafford":8210,"Les":8211,"ĠRobert":8212,"Ġjustice":8213,"Ã¤hr":8214,"First":8215,"Ġfishing":8216,"ĠRock":8217,"ifer":8218,"Appro":8219,"Ġroad":8220,"ÏģÎ¹Î¸":8221,"Ã¡si":8222,"Ann":8223,"ĠElectric":8224,"Ġchanged":8225,"Ġpilot":8226,"power":8227,"ĠĠĊĠ":8228,"REG":8229,"itar":8230,"eden":8231,"havior":8232,"ĠSystems":8233,"0002":8234,"Ġpractic":8235,"Ġtransmitting":8236,"Ġtaxpayer":8237,"ĠHaw":8238,"yan":8239,"Ġweighted":8240,"eten":8241,"ĠSupport":8242,"ĠWil":8243,"vat":8244,"site":8245,"rd":8246,"iration":8247,"ksi":8248,"Ġdeep":8249,"Ġ\\":8250,"Ġrende":8251,"Ġhydro":8252,"ENCE":8253,"PM":8254,"lass":8255,"Ġcommitment":8256,"ĠRos":8257,"Ġbez":8258,"Ġpoz":8259,"ijo":8260,"itud":8261,"asis":8262,"ĠFort":8263,"Ġ309":8264,"Subject":8265,"istance":8266,"idu":8267,"Ġdne":8268,"Ġproduce":8269,"forder":8270,"Ġinvolve":8271,"Ġsummary":8272,"246":8273,"CHANGE":8274,"339":8275,"rs":8276,"151":8277,"ĠSpr":8278,"elfare":8279,"current":8280,"atie":8281,"Ġveter":8282,"Ġseason":8283,"ĠâĢĺ":8284,"Ġyoung":8285,"these":8286,"Î¿Î»":8287,"imi":8288,"ĊĊĊĊĊĊĊ":8289,"ĠCler":8290,"224":8291,"yer":8292,"ission":8293,"Ġaccompl":8294,"ĠÃītats":8295,"ĠFern":8296,"Ġmic":8297,"Ġmus":8298,"Ġ245":8299,"comes":8300,"Ġflood":8301,"Î±Î¸":8302,"ĠWITH":8303,"Ġconsequ":8304,"Answer":8305,"sion":8306,"194":8307,"Ġ366":8308,"Ġalways":8309,"Ġrestrictions":8310,"ĠPAR":8311,"ĠEuratom":8312,"bottom":8313,"inte":8314,"tok":8315,"But":8316,"Ġbox":8317,"ĠGuid":8318,"Ġheading":8319,"Ġsolid":8320,"Transportation":8321,"*)":8322,"Ġauthorize":8323,"ĠSer":8324,"you":8325,"Ġai":8326,"issipp":8327,"ĠMD":8328,"Ġcommenters":8329,"ĠNM":8330,"Ġmedic":8331,"rick":8332,"ÏĢÎ¿Î¹":8333,"inations":8334,"estimm":8335,"173":8336,"anging":8337,"ĠSz":8338,"ĠMic":8339,"ĠĊĠĠĠĠĠĠĠĠĠĠĠĠ":8340,"Ġbrought":8341,"ĠDIAM":8342,"made":8343,"Ġcomputed":8344,"NC":8345,"Î¹ÎºÏĮ":8346,"Program":8347,"Ã»":8348,"Ġaides":8349,"aga":8350,"color":8351,"Ġ123":8352,"Ġiden":8353,"Ġfindings":8354,"::":8355,"Ġsettlement":8356,"UAL":8357,"Ġseparately":8358,"ĠDirective":8359,"ICES":8360,"istent":8361,"Ġleader":8362,"ZCTA":8363,"urrence":8364,"Ġmarine":8365,"oro":8366,"NATIONAL":8367,"kon":8368,"ÏģÎŃ":8369,"azioni":8370,"endant":8371,"ĠJul":8372,"ĠBesch":8373,"oming":8374,"ohl":8375,"Ġwitness":8376,"Ã§a":8377,"apan":8378,"Ġdar":8379,"ĠLu":8380,"reciation":8381,"Ġadoption":8382,"illance":8383,"ĠRich":8384,"ĠPubl":8385,"othing":8386,"tÃ³":8387,"main":8388,"giv":8389,"380":8390,"Ä«jum":8391,"Ġespecially":8392,"Ġprze":8393,"Ġ360":8394,"VE":8395,"ĠCompl":8396,"Ġcertificate":8397,"aching":8398,"Ġallowance":8399,"mas":8400,"html":8401,"edi":8402,"ĠRady":8403,"stein":8404,"Ã©rie":8405,"Ġcontre":8406,"ahren":8407,"ĠEngineers":8408,"Ġ................................................................................................................................":8409,"ulo":8410,"ĊĠĠĠĠĠĠĠĠĠĠĠĠĠĠĠĠĠĠĠĠĠĠĠĠĊĠĠĠĠĠĠĠĠĠĠĠĠĠĠĠĠĠĠĠĠĠĠĠĠĠĠĠ":8411,"ĠFile":8412,"lut":8413,"334":8414,"NS":8415,"jan":8416,"pson":8417,"ĠThomas":8418,"amendment":8419,"265":8420,"Ġmillions":8421,"enter":8422,"Ġdisability":8423,"Ġanex":8424,"Ġvictim":8425,"Ġreli":8426,"Ġmaintained":8427,"wood":8428,"ĠVor":8429,"uesday":8430,"vens":8431,"encement":8432,"aving":8433,"iske":8434,"Ġsuff":8435,"188":8436,"336":8437,"Of":8438,"ĠNav":8439,"503":8440,"esse":8441,"Ġindex":8442,"umin":8443,"Ġva":8444,"IX":8445,"Ġwind":8446,"rog":8447,"Ġdead":8448,"ĠLess":8449,"ĠTraders":8450,"nÃ¡":8451,"ĠCD":8452,"issippi":8453,"OTAL":8454,"234":8455,"ĠAust":8456,"ourth":8457,"amos":8458,"Ġwish":8459,"Ġprinted":8460,"hÃ¶r":8461,"Ġannually":8462,"esk":8463,"erk":8464,"Ġih":8465,"Ġ6602":8466,"Ġaddressed":8467,"Ġtechnicians":8468,"ĠĠĠĠĊĠĠĠĠĠĠĠ":8469,"ĠProvided":8470,"Ġpatient":8471,"Ġ1989":8472,"Ġdaily":8473,"egu":8474,"499":8475,"fers":8476,"Calculated":8477,"Ġpal":8478,"161":8479,"ĠFinal":8480,"regulations":8481,"his":8482,"Ġtrue":8483,"JA":8484,"ĠCE":8485,"aken":8486,"Ġjudgment":8487,"Ġemployed":8488,"September":8489,"162":8490,"cio":8491,"ĠFinance":8492,"Ġproduk":8493,"bus":8494,".\\":8495,"Ã©m":8496,"Ġej":8497,"ael":8498,"Ġhogy":8499,"had":8500,"706":8501,"ĠBlack":8502,"untary":8503,"ĠIndustrial":8504,"Ġunderstanding":8505,"Ġsyst":8506,"Ġsecondary":8507,"Data":8508,"UTHOR":8509,"Ġdeferred":8510,"Ġcommenter":8511,"Ġdirective":8512,"018":8513,"Ġways":8514,"Ġreviewed":8515,"Ġrelig":8516,"rek":8517,"296":8518,"timated":8519,"Ġhor":8520,"ĠER":8521,"Î¿Î½ÏĦÎ±Î¹":8522,"necess":8523,"light":8524,"ĠSenior":8525,"Ġdecember":8526,"Ġresource":8527,"STR":8528,"Ġthus":8529,"Ġwaiver":8530,"Ġpatent":8531,"Ãĸ":8532,"Ġimplemented":8533,"atus":8534,"178":8535,"body":8536,"Ġinterven":8537,"024":8538,"Ġmanager":8539,"ĠProcess":8540,"Ġaccompany":8541,"Åĳl":8542,"228":8543,"Br":8544,"ÃŁnahmen":8545,"Ġupp":8546,"ĠFURTHER":8547,"Ġyhte":8548,"Ġelected":8549,"Komis":8550,"changes":8551,"Äĵr":8552,"705":8553,"Ġsentence":8554,"Ġfeed":8555,"Ġselection":8556,"ression":8557,"Ġmanufacturer":8558,"acht":8559,"ĠRef":8560,"hours":8561,"Ġmid":8562,"ÏĦÎ¹ÎºÎ¬":8563,"ĠInvestment":8564,"ĠÎ±Ïħ":8565,"Ġawards":8566,"unal":8567,"MENTS":8568,"itel":8569,"027":8570,"ĠOS":8571,"ĠUs":8572,"238":8573,"Ġdevices":8574,"Ġreimbur":8575,"ead":8576,"usion":8577,"].":8578,"enger":8579,"Ġkonk":8580,"Ġhope":8581,"Ġalter":8582,"Ġsym":8583,"Ġinclu":8584,"Tra":8585,"appropri":8586,"ĠDas":8587,"Ġplease":8588,"tiec":8589,"Notice":8590,"Ġthreshold":8591,"econom":8592,"maz":8593,"Ne":8594,"****":8595,"028":8596,"ktor":8597,"inery":8598,"Ġauthorization":8599,"Ġdamage":8600,"Ġcongressional":8601,"1997":8602,"determin":8603,"Report":8604,"Ġ.................................................................................................................................":8605,"eno":8606,"Ġinterval":8607,"NOTE":8608,"508":8609,"247":8610,"%)":8611,"Ġcompletion":8612,"Ġces":8613,"355":8614,"ius":8615,"Ġ296":8616,"support":8617,"Ġmedidas":8618,"Ġkad":8619,"ĠDA":8620,"ĠSO":8621,"living":8622,"Ġessential":8623,"stra":8624,"Ġclerk":8625,"rawn":8626,"oted":8627,"183":8628,"ursday":8629,"isten":8630,"ĠRegion":8631,"oda":8632,"Financial":8633,"ĠDirectiva":8634,"Ġrank":8635,"lÃ¡":8636,"227":8637,"ĠEquity":8638,"Ġimprovements":8639,"Ġpartners":8640,"enness":8641,"last":8642,"nec":8643,"roy":8644,"ĠTime":8645,"Ġdraft":8646,"480":8647,"BP":8648,"ackson":8649,"026":8650,"Any":8651,"222":8652,"arbon":8653,"================":8654,"ensch":8655,"ĠFe":8656,"Gr":8657,"Ġaway":8658,"Ġconver":8659,"DOC":8660,"Ġcollar":8661,"192":8662,"266":8663,"ĠCONTACT":8664,"ĠXX":8665,"ĠÃ©tÃ©":8666,"177":8667,"Lo":8668,"Ġ295":8669,"ĠEmployees":8670,"ĠGR":8671,"ASA":8672,"paid":8673,":#":8674,"Comment":8675,"Ġratio":8676,"ĠWeber":8677,"337":8678,"Ġgew":8679,"Ġappeal":8680,"cem":8681,"ÃŃk":8682,"ĠNa":8683,"Ġespec":8684,"Ġpla":8685,"achus":8686,"angen":8687,"ĠBE":8688,"Credit":8689,"elho":8690,"padding":8691,"emm":8692,"ĠALLOY":8693,"Ġsteps":8694,"BG":8695,"Ġago":8696,"017":8697,"Ġfond":8698,"ĠTele":8699,"osed":8700,"ĠRepresentative":8701,"ĠAction":8702,"325":8703,"ARR":8704,"ALDE":8705,"187":8706,"DK":8707,"ULT":8708,"229":8709,"available":8710,"Äĵj":8711,"ĠJames":8712,"Ġcoast":8713,"ĠOl":8714,"Ġtestimony":8715,"Ġrecently":8716,"hibits":8717,"arms":8718,"Coun":8719,"Ġpressure":8720,"TXT":8721,"ĠOrganization":8722,"Ġtex":8723,"ĠAlthough":8724,"Ġtalk":8725,"Ġsupplies":8726,"ĠWal":8727,"Ġmeasured":8728,"VEL":8729,"Ġaug":8730,"Ġjudicial":8731,"Ġthough":8732,"each":8733,"YST":8734,"When":8735,"iÄħ":8736,"ĠSR":8737,"Ġuved":8738,"Ġnearly":8739,"ought":8740,"ĠÎ¹":8741,"inger":8742,"aja":8743,"nÃ©ho":8744,"Ġunique":8745,"isto":8746,"ĠGeb":8747,"MU":8748,"iks":8749,"Ġalebo":8750,"idents":8751,"1996":8752,"Ġguidelines":8753,"Ġmeetings":8754,"ĠĊĠĠĠĠĠĠĠĠĠĠĠĠĠĠĠĠĠĠĠĠĠĠĠĠĠĠĠĠĠĠĠĠĠĠĠĠĠĠĠĠĠĠĠĠĠĠĠĠĠĠĠĠĠĠĠĠĠĠĠĠĠĠĠĠĠĠĠĠĠĠĠĠĠĠĠĠĠĠĠĠĠĠĠĠĠĠĠĠĠĠĠĠĠĠĠĠĠĠĠĠĠĠĠĠĠĠĠĠĠĠĠĠĠĠĠĠĠĠĠĠĠĠĠĠĠĠĠĠĠĠĠĠĠĠĠĠĠĠĠĠĠĠĠĠĠĠĠĠĠĠĠĠĠĠĠ":8755,"Ġlieu":8756,"bos":8757,"Ġfunded":8758,"ĠÂ·":8759,"Ġ425":8760,"ĠDon":8761,"Ġemail":8762,"Ġrating":8763,"191":8764,"ĠShares":8765,"ednes":8766,"lems":8767,"Ġclosed":8768,"ĠCz":8769,"resents":8770,"Ġviolence":8771,"._":8772,"Ġdesignation":8773,"ĠEQU":8774,"mittel":8775,"efit":8776,"vend":8777,"023":8778,"ĠIran":8779,"akers":8780,"business":8781,"consider":8782,"ĠHome":8783,"ĠÎ¿ÏĢÎ¿":8784,"ĠEXP":8785,"Ġhundred":8786,"ĠOnline":8787,"ĠmÃ¡":8788,"ague":8789,"fen":8790,"STA":8791,"ĠHEALTH":8792,"ĠTRA":8793,"alse":8794,"Ġnovem":8795,"pati":8796,"ĠFUND":8797,"titutes":8798,"Ġinvolving":8799,"Ġremed":8800,"igt":8801,"LOW":8802,"Ġnec":8803,"Ġidentification":8804,"Ġnebo":8805,"Ġunanimous":8806,"iciary":8807,"Ġcoordination":8808,"Ġdiscri":8809,"regon":8810,"pite":8811,"Ġassumptions":8812,"Ġ230":8813,"yers":8814,"atu":8815,"172":8816,"607":8817,"bb":8818,"That":8819,"Ġproceeds":8820,"330":8821,"ords":8822,"GAN":8823,"ĠSM":8824,"Ġrelativa":8825,"Äĵt":8826,"leum":8827,"rew":8828,"Ġcz":8829,"Ġfer":8830,"ĠSECUR":8831,")).":8832,"609":8833,"Ã¤nÃ¤":8834,"Ġsteel":8835,"Ġanswer":8836,"Ġ..................................................................................................................................":8837,"opy":8838,"ELD":8839,"TIN":8840,"ĠPartnership":8841,"quare":8842,"akt":8843,"Ġlink":8844,"ĠRequirements":8845,"titutional":8846,"Ġeks":8847,"ouses":8848,"Ġtransmission":8849,"emorand":8850,"ĠChem":8851,"ĠMethod":8852,"232":8853,"ĠCri":8854,"ĠCast":8855,"ĠSeries":8856,"171":8857,"Sin":8858,"ĠBi":8859,"oka":8860,"ĠConsolidated":8861,"ĠPo":8862,"utable":8863,"Ġshows":8864,"ssue":8865,"ordening":8866,"ided":8867,"ĠNC":8868,"Ġjoin":8869,"Ġplants":8870,"Ġ1987":8871,"Ġfel":8872,"tte":8873,"Ġyouth":8874,"707":8875,"nem":8876,"Ġhousehold":8877,"ĠDer":8878,"754":8879,"ĠSome":8880,"ÎĿ":8881,"Ġtook":8882,"Ġont":8883,"icate":8884,"Ġpays":8885,"Ġutility":8886,"455":8887,"ĠEmergency":8888,"Ġrecommendation":8889,"Ġconfidential":8890,"IRC":8891,"ĠÂ§Â§":8892,"ician":8893,"Ġabuse":8894,"Ġhighest":8895,"ĠAccounting":8896,"These":8897,"roller":8898,"Ġmargin":8899,"Ġcombined":8900,"231":8901,"5413":8902,"Ġapr":8903,"Ġderived":8904,"ĠÏħÏĢÎ¿":8905,"Ġconting":8906,"Elect":8907,"ĠRelated":8908,"ĠUSA":8909,"elly":8910,"onday":8911,"tituted":8912,"ĠBri":8913,"Ġinjury":8914,"Ġinves":8915,"340":8916,"Ġriver":8917,"Ġdesignate":8918,"Ġdieser":8919,"ocratic":8920,"Ġcarbon":8921,"ĠMil":8922,"Ġlabel":8923,"Ġdifference":8924,"Ġ800":8925,"294":8926,"182":8927,"chi":8928,"Ġartigo":8929,"Ġhu":8930,"Ġunable":8931,"ĠAu":8932,"alls":8933,"linie":8934,"Ġengineering":8935,"imes":8936,"ĠFacility":8937,"Ġweap":8938,"Î¼Î·":8939,"ĠRate":8940,"332":8941,"tag":8942,"long":8943,"Ġsegment":8944,"Ġsupported":8945,"FT":8946,"aste":8947,"ĠnÃ£o":8948,"sky":8949,"Ġparticipating":8950,"asi":8951,"ĠRu":8952,"Ġeinem":8953,"Ġenforce":8954,"Ġmerch":8955,"Ġanexo":8956,"181":8957,"Î»Î¯Î¿Ïħ":8958,"ednesday":8959,"lat":8960,"Ã¶t":8961,"Ġrevise":8962,"Ġfraud":8963,"Ġcarrier":8964,"kra":8965,"Ġremains":8966,"Ġinventory":8967,"ĠFrank":8968,"ANG":8969,"Ã¶m":8970,"Techn":8971,"276":8972,"Ġalc":8973,"endo":8974,"raq":8975,"Ġfarms":8976,"ĠÏĦÎ¿Î½":8977,"759":8978,"ÎĶ":8979,"Ġreally":8980,"hez":8981,"Ã¡ra":8982,"Year":8983,"[[":8984,"Ġinvestors":8985,"Ġanimal":8986,"itz":8987,"olt":8988,"oo":8989,"ĠTom":8990,"Ġdrugs":8991,"antage":8992,"LEY":8993,"221":8994,"237":8995,"||":8996,"ĠnÃ¡":8997,"IGHT":8998,"Ġseen":8999,"ĠDesign":9000,"ī¤":9001,"ĠHel":9002,"Ġsecure":9003,"Ġjul":9004,"atell":9005,"ĠdÃ©f":9006,"Ġadversely":9007,"UNT":9008,"ĠOperating":9009,"Ġencourage":9010,"ĠSubs":9011,"Ã¨me":9012,"Ġreti":9013,"Ġtoward":9014,"Ġstatute":9015,"iese":9016,"One":9017,"Ġappears":9018,"Î»Î¿Î³":9019,"Ġdop":9020,"ĠÄįlÃ¡n":9021,"Ġdich":9022,"Ġgrad":9023,"Den":9024,"Ġsul":9025,"Ġindustrial":9026,"ĠStr":9027,"point":9028,"Ġallows":9029,"Ġefficient":9030,"Ġship":9031,"Ġ...................................................................................................................................":9032,"Ġcollabor":9033,"Ġdeposits":9034,"ĠPsN":9035,"ifies":9036,"ĠÂ°":9037,"Ġcopies":9038,"Ġmedia":9039,"ĠIS":9040,"ĠCommissioner":9041,"communications":9042,"ACK":9043,"ĠET":9044,"Ġbegan":9045,"ĠÎł":9046,"enia":9047,"Ġcareer":9048,"509":9049,"ARS":9050,"Ġcy":9051,"gue":9052,"Ġnacional":9053,"Ġradi":9054,"ample":9055,"oit":9056,"riff":9057,"UP":9058,"rich":9059,"Ġflight":9060,"ĠColorado":9061,"FC":9062,"Ġmul":9063,"ĠCOVID":9064,"Ġborder":9065,"ÏĬÎº":9066,"254":9067,"Ġrepl":9068,"730":9069,"ĠÎºÎ±Î½Î¿Î½Î¹Ïĥ":9070,"Ġintroduced":9071,"Ġassociation":9072,"ierung":9073,"Ã¼b":9074,"ĠEXCHANGE":9075,"Ġgradu":9076,"ansion":9077,"utz":9078,"905":9079,"ĠManufact":9080,"357":9081,"Ġdeter":9082,"Ġtemperature":9083,"Ġjak":9084,"709":9085,"Ä£":9086,"hing":9087,"Ġannounced":9088,"ĠgÄ§al":9089,"rizona":9090,"ĠJudge":9091,"Ġing":9092,"âĢĿ),":9093,"Ġlending":9094,"ĠPen":9095,"ternational":9096,"encing":9097,"Ġwarrant":9098,"Ġ401":9099,"ettu":9100,"Ġmanufacturers":9101,"Ġremoval":9102,"notes":9103,"iger":9104,"Ġextra":9105,"nom":9106,"ÃŃtÃ¡s":9107,"Ġcommerce":9108,"ĠMAN":9109,"ĠGre":9110,"ĠTeachers":9111,"Ġlear":9112,"VL":9113,"ception":9114,"util":9115,"ategory":9116,"022":9117,"ĉĉĉĉĉĊ":9118,"Ġminor":9119,"Ġdrivers":9120,"ortion":9121,"ulated":9122,"ÏħÏģÏī":9123,"Ġweeks":9124,"tober":9125,"Executive":9126,"Ġcrop":9127,"ĠAuf":9128,"331":9129,"Ä«dz":9130,"ORK":9131,"Ġcertified":9132,"Ġ6659":9133,"Ġbecame":9134,"ĠNative":9135,"ĠMichigan":9136,"Ġlost":9137,"507":9138,"Ã¤nder":9139,"Ġimm":9140,"Ġze":9141,"heast":9142,"Ġlive":9143,"earing":9144,"etroleum":9145,"Ġacts":9146,"Ġgoal":9147,"Ġsolely":9148,"279":9149,"aign":9150,"iler":9151,"pis":9152,"ientes":9153,"mbH":9154,"dos":9155,"Ġfabric":9156,"Ġdil":9157,"Ġliving":9158,"achusetts":9159,"414":9160,"ĠDez":9161,"MINISTR":9162,"Ġsuccessful":9163,"ERR":9164,"Ġsin":9165,"South":9166,"ĠCOLD":9167,"INLESS":9168,"Euro":9169,"ĠAmer":9170,"Ġmodification":9171,"only":9172,"Ġrepeal":9173,"Ġongoing":9174,"ĊĊĉĉĉĉ":9175,"Ġ140":9176,"lung":9177,"ĠInvestig":9178,"January":9179,"Ġoversight":9180,"Ġbir":9181,"agency":9182,"ulatory":9183,"Ġlate":9184,"ICAL":9185,"Ġtranspar":9186,"ĠBus":9187,"Ġuma":9188,"<=":9189,"Sup":9190,"ndez":9191,"Ġsoon":9192,"ĠelÅĳ":9193,"ĠĊĠĠĠĠĠĠĠĠĠĠĠĠĠĠĠĠĠĠĠĠĠĠĠĠĠĠĠĠĠĠĠĠĠĠĠĠĠĠĠĠĠĠĠĠĠĠĠĠĠĠĠĠĠĠĠĠĠĠĠĠĠĠĠĠĠĠĠĠĠĠĠĠĠĠĠĠĠĠĠĠĠĠĠĠĠĠĠĠĠĠĠĠĠĠĠĠĠĠĠĠĠĠĠĠĠĠĠĠĠĠĠĠĠĠĠĠĠĠĠĠĠĠĠĠĠĠĠĠĠĠĠĠĠĠĠĠĠĠĠĠĠĠĠĠĠĠĠĠĠĠĠĠĠĠĠĠ":9194,"ĠProduction":9195,"Ġurban":9196,"ÏģÎ¹Ïĥ":9197,"Ġfriend":9198,"HO":9199,"rÃŃ":9200,"ĠSTAINLESS":9201,"Ġforest":9202,"Ġeines":9203,"Senator":9204,"ligt":9205,"unte":9206,"otion":9207,"Ġexamination":9208,"Ġ....................................................................................................................................":9209,"ĠKal":9210,"Ġerr":9211,"Ġsuperv":9212,"ĠValley":9213,"Ġ385":9214,"inu":9215,"1995":9216,"Ġinstallation":9217,"ATER":9218,"aÃ§Ãµes":9219,"amber":9220,"ipartisan":9221,"ĠWithout":9222,"nam":9223,"Ġarrangements":9224,"Å¡i":9225,"401":9226,"oÅ¾":9227,"ĠLimited":9228,"Ġ1982":9229,"Ġprel":9230,"258":9231,"Ġonline":9232,"nerg":9233,"Ġole":9234,"Ã¥r":9235,"izaciÃ³n":9236,"ĠĠĠĠĊĠĠĠĠĠ":9237,"Ġhighly":9238,"ĠACTION":9239,"Ġlu":9240,"ittel":9241,"805":9242,"Ġexempt":9243,"Ã³g":9244,"Ġwait":9245,"Ġimpairment":9246,"ĠQuality":9247,"acher":9248,"Ã¡ly":9249,"ĠRepublican":9250,"ountain":9251,"Ġimportance":9252,"Men":9253,"itÃ¤":9254,"ÏģÎ¸ÏģÎ¿":9255,"366":9256,"ĠÏĢÎ±ÏģÎ¬":9257,"248":9258,"Ġargu":9259,"Ġpending":9260,"Ġconven":9261,"Ġdeploy":9262,"bill":9263,"ghan":9264,"oloÄį":9265,"242":9266,"Ġrespective":9267,"Ġoffering":9268,"286":9269,"ĠEnforcement":9270,"ĠKore":9271,"pects":9272,"acco":9273,"gent":9274,"nÃ©es":9275,"Indust":9276,"ĠFair":9277,"atkoz":9278,"Ġvid":9279,"ĠRelations":9280,"608":9281,"Ġpenalty":9282,"ennessee":9283,"nou":9284,"How":9285,"Å¾e":9286,"ament":9287,"Ġsoll":9288,"Ġmineral":9289,"Ġcame":9290,"ocuments":9291,"OI":9292,"odu":9293,"Ġestablec":9294,"ĊĊĊĠ":9295,"ĊĠĠĠĠĠĠĠĠĠĠĠĠĠĠĠĠĠĠĠĠĠĠĠĠĠĠĠĠĊĠĠĠĠĠĠĠĠĠĠĠĠĠĠĠĠĠĠĠĠĠĠĠĠĠĠĠĠĠĠĠ":9296,"ĠdÄĹl":9297,"Ġfurnished":9298,"338":9299,"those":9300,"906":9301,"Ġcurrency":9302,"ÏĢÎµ":9303,"iciÃ³n":9304,"Ġrecognition":9305,"Att":9306,"ĠAnnex":9307,"lications":9308,"Ġtrack":9309,"Ġpositive":9310,"Ġprivile":9311,"Ġselect":9312,"ĠCertain":9313,"ĠCanada":9314,"Ġradio":9315,"teil":9316,"LEMENTARY":9317,"ĠGreen":9318,"Fort":9319,"cla":9320,"ÏīÏĥÎ·":9321,"ĊĠĠĠĠĊĠĠĠĠ":9322,"lines":9323,"349":9324,"Ġcard":9325,"ĠDocument":9326,"Ġning":9327,"459":9328,"ĠRen":9329,"fac":9330,"Ġdescrib":9331,"293":9332,"Ġincident":9333,"ĠSchedule":9334,"420":9335,"Ġsegu":9336,"Ġremoved":9337,"amiento":9338,"ĠDa":9339,"Ġultim":9340,"243":9341,"Ġcov":9342,"Ġefect":9343,"ĠÎ±ÏģÎ¹Î¸":9344,"unch":9345,"ĠAviation":9346,"Ġcommitted":9347,"Ġmeets":9348,"Ġlat":9349,"ĠPos":9350,"ĠĊĠĠĠĠĠĠĠĠĠĠĠĠĠĠĠĠĠĠĠĠĠĠĠĠĠĠĠĠĠĠĠĠĠĠĠĠĠĠĠĠĠĠĠĠĠĠĠĠĠĠĠĠĠĠĠĠĠĠĠĠĠĠĠĠĠĠĠĠĠĠĠĠĠĠĠĠĠĠĠĠĠĠĠĠĠĠĠĠĠĠĠĠĠĠĠĠĠĠĠĠĠĠĠĠĠĠĠĠĠĠĠĠĠĠĠĠĠĠĠĠĠĠĠĠĠĠĠĠĠĠĠĠĠĠĠĠĠĠĠĠĠĠĠĠĠĠĠĠĠĠĠĠĠĠĠĠĠ":9351,"870":9352,"756":9353,"ĠÎĻ":9354,"Ġjun":9355,"Ġconcentration":9356,"278":9357,"fa":9358,"ismo":9359,"Ġrepresents":9360,"ĠPaul":9361,"iaus":9362,"Ġprevention":9363,"Ġrestricted":9364,"Ġupdate":9365,"259":9366,"Ġ121":9367,"iding":9368,"anco":9369,"Ġsy":9370,"alle":9371,"process":9372,"ÏħÎ½":9373,"Ġconstruct":9374,"Ġtraffic":9375,"Ġengineers":9376,"ĠAccess":9377,"erved":9378,"North":9379,"Ġclimate":9380,"ĠAy":9381,"ĠDefin":9382,"ĠÏĢÏģÎ¿Ïĥ":9383,"Ġsomething":9384,"ĠStation":9385,"ĊĉĉĉĉĉĉĉĉĊĉĉĉĉĉĉĉĉ":9386,"Ġkell":9387,"ALLOY":9388,"Ġintent":9389,"Ġaset":9390,"rece":9391,".).":9392,"ĠKe":9393,"ÏħÏģÏīÏĢÎ±":9394,"Ġunderlying":9395,"Ġikke":9396,"ĠCOILS":9397,"Ġsowie":9398,"Ġcrisis":9399,"imal":9400,"legal":9401,"when":9402,"ĠSince":9403,"Ġfight":9404,"Ġdarb":9405,"page":9406,"Ġregolamento":9407,"Ġgot":9408,"irop":9409,"rum":9410,"Ġpublicly":9411,"Ġchallenges":9412,"iere":9413,"Ġever":9414,"ĠBR":9415,"ĠHOT":9416,"ĠAB":9417,"ovÃ©":9418,"Ġ.....................................................................................................................................":9419,"264":9420,"tem":9421,"aximum":9422,"rive":9423,"]]":9424,"ÏģÎ¯Î¿Ïħ":9425,"Ð²":9426,"FIRB":9427,"ĠChapter":9428,"Ġmig":9429,"395":9430,"ycle":9431,"Ġnum":9432,"806":9433,"Ġ405":9434,"itol":9435,"ĠDemocr":9436,"urb":9437,"nÃŃch":9438,"Ġproposals":9439,"Ġsatisfy":9440,"Ġproduits":9441,"ĠZus":9442,")âĢĶ":9443,"porzÄħd":9444,"ĠIssue":9445,"duk":9446,"atos":9447,"Ġheard":9448,"ĠPercent":9449,"Ã¯":9450,"ĠcrÃ©dito":9451,"HE":9452,"iving":9453,"Ġbid":9454,"ĠÎ¿Î¹":9455,"Ġ~":9456,"yses":9457,"FY":9458,"Title":9459,"ĠIr":9460,"Ġlit":9461,"ĠForces":9462,"ĠParty":9463,"1994":9464,"Ġenable":9465,"ĠProducts":9466,"Ġ122":9467,"Ġfast":9468,"tige":9469,"Ġcharter":9470,"ĠThank":9471,"ĠProfessional":9472,"fish":9473,"Mrs":9474,"inning":9475,"289":9476,"Ġlocations":9477,"Îľ":9478,"ĠOpen":9479,"Î¿ÏįÎ½":9480,"Comm":9481,"Ġimpose":9482,"vy":9483,"period":9484,"DRESS":9485,"hy":9486,")...":9487,"specific":9488,"Az":9489,"Ġpath":9490,"Ġtechniques":9491,"CD":9492,"277":9493,"ÏĥÎµÏīÎ½":9494,"enen":9495,"Ġconstitute":9496,"Î¼ÏĨ":9497,"Ġparticipant":9498,"ÏĦÏĮ":9499,"lieÃŁ":9500,"tise":9501,"269":9502,"Der":9503,"ÏħÏģÏīÏĢÎ±ÏĬÎº":9504,"ibles":9505,"should":9506,"necessary":9507,"kÃ¡":9508,"ĠvÄĽ":9509,"Ġparents":9510,"FE":9511,"Ġcharged":9512,"Ġvotes":9513,"346":9514,"Ġstanov":9515,"Ġacad":9516,"./":9517,"ĠMilitary":9518,"ĠNRC":9519,"ÃŁer":9520,"ĠAuthorization":9521,"erd":9522,"nio":9523,"xic":9524,"ropol":9525,"ĠAUTHOR":9526,"Ġemerg":9527,"ĠÃ¤r":9528,"hn":9529,"Ġpermits":9530,"ĠUE":9531,"Ġcontractor":9532,"ĠPublishing":9533,"anza":9534,"ÃŃcÃŃ":9535,"islation":9536,"ĠktÃ³":9537,"eals":9538,"uerto":9539,"Ġpros":9540,"NONALLOY":9541,"ĠJOH":9542,"habilit":9543,"Ġwithdraw":9544,"urpose":9545,"pf":9546,"gesch":9547,"Ġenerg":9548,"ĠReporting":9549,"adv":9550,"Defaulted":9551,"Ġkun":9552,"HT":9553,"ĠpaÃŃs":9554,"Ġ204":9555,"âĢĶâĢĶ":9556,"Ġdelivered":9557,"opan":9558,"Kum":9559,"msel":9560,"ablishment":9561,"ainst":9562,"ĠÎ´Î¹":9563,"ĠFra":9564,"ĠKingdom":9565,"315":9566,"ĠVIII":9567,"ĠRegistrant":9568,"Ġlett":9569,"Ġwy":9570,"SV":9571,"ĠSERVICES":9572,"904":9573,"ÃŃnez":9574,"ĠComb":9575,"Ġoperated":9576,")),":9577,"prac":9578,"Ġclearly":9579,"tivo":9580,"050":9581,"Ġpromulg":9582,"Ġny":9583,"tek":9584,"ificaciÃ³n":9585,"Ġpued":9586,"Ġenough":9587,"Ġmont":9588,"Ġattention":9589,"299":9590,"Occupation":9591,"ERC":9592,"ĠFROM":9593,"enty":9594,"Ġsanc":9595,"ĠOvers":9596,"Ġnotify":9597,"Ġakt":9598,"369":9599,"Ġvariety":9600,"amine":9601,"ĠGemeins":9602,"Ġgal":9603,"before":9604,"Ġnel":9605,"You":9606,"YSTEM":9607,"Ġstop":9608,"omb":9609,"ĠFINAN":9610,"Ġig":9611,"Ġlarger":9612,"Ġdifferences":9613,"HC":9614,"Ġinstead":9615,"imen":9616,"Ġitself":9617,"ĠJos":9618,"ĠConservation":9619,"Ġtrial":9620,"iot":9621,"253":9622,"Ġcikk":9623,"ĠGlobal":9624,"hardt":9625,"klad":9626,"ILITY":9627,"sim":9628,"TT":9629,"Ġurge":9630,"uesto":9631,"kun":9632,"Ġmillones":9633,"Ġarba":9634,"ĠSummary":9635,"ĠClean":9636,"ammen":9637,"Ġaj":9638,"olg":9639,"ĠTraining":9640,"tier":9641,"Ġattiec":9642,"ĠMedicaid":9643,"Ġsetting":9644,"Ġlaboratory":9645,"nexe":9646,"804":9647,"ĠPUBLIC":9648,"Ġsubsidiaries":9649,"Ġinstitu":9650,"GB":9651,"272":9652,"ĠprÃŃ":9653,"ĠsiÄĻ":9654,"Ġaqu":9655,"ĠCre":9656,"close":9657,"asse":9658,"ĠShare":9659,"acji":9660,"also":9661,"Ġniet":9662,"Ð»":9663,"edo":9664,"ĠMartÃŃnez":9665,"Ġfacilitate":9666,"ighted":9667,"unkt":9668,"Ġamortiz":9669,"WS":9670,"DEP":9671,"ĠEstado":9672,"Ġfacts":9673,"ĠGmbH":9674,"AU":9675,"olar":9676,"ĠpÃ¤ivÃ¤nÃ¤":9677,"Ġsuiv":9678,"Ġpertin":9679,"Eng":9680,"name":9681,"ĠMitgliedstaaten":9682,"Each":9683,"ilo":9684,"emi":9685,"Ġ......................................................................................................................................":9686,"rupp":9687,"Ã¡roz":9688,"emn":9689,"ĠLT":9690,"Ġcounty":9691,"Ġbonds":9692,"Ġ315":9693,"Ġconcernant":9694,"ffent":9695,"Ġsend":9696,"Ġ119":9697,"Ġcele":9698,"gpo":9699,"ningen":9700,"ĠProperty":9701,"jos":9702,"283":9703,"ĠSUR":9704,"econdary":9705,"INS":9706,"Ġsubmitting":9707,"ĠSeg":9708,"Ġfinds":9709,"ĠLew":9710,"Ġgrade":9711,"903":9712,"ĠImplement":9713,"content":9714,"Ġallocated":9715,"ĠApplication":9716,"713":9717,"ĠBizottsÃ¡g":9718,"Ġcad":9719,"Ġnavig":9720,"Stock":9721,"Ġ124":9722,"accord":9723,"Ġworks":9724,"ĠArch":9725,"233":9726,"Ġmoment":9727,"Ġpopulations":9728,"ucky":9729,"rz":9730,"Äįenst":9731,"ape":9732,"division":9733,"ĠOrd":9734,"index":9735,"358":9736,"isesti":9737,"ĠPie":9738,"Ġbond":9739,"ĠCollege":9740,"ensing":9741,"ĠDepart":9742,"440":9743,"456":9744,"Ġtip":9745,"Ġpowers":9746,"273":9747,"GN":9748,"Ġanaly":9749,"ÅĦski":9750,"overning":9751,"Ġpropri":9752,"Ġlargest":9753,"Ġjanu":9754,"country":9755,"best":9756,"Ġpurchased":9757,"iaÅĤ":9758,"Ġredesign":9759,"Ġmap":9760,"344":9761,"Ġintelligence":9762,"Ġ1985":9763,"909":9764,"April":9765,"leistungen":9766,"Spe":9767,"749":9768,"284":9769,"nement":9770,"Ġ129":9771,"Ġsel":9772,"Ġsept":9773,"ĠList":9774,"MAR":9775,"Ġallocation":9776,"ref":9777,"ĠDATES":9778,"adores":9779,"ĠĊĠĠĠĠĠĠĠĠĠĠĠĠĠĠĠĠĠĠĠĠĠĠĠĠĠĠĠĠĠĠĠĠĠĠĠĠĠĠĠĠĠĠĠĠĠĠĠĠĠĠĠĠĠĠĠĠĠĠĠĠĠĠĠĠĠĠĠĠĠĠĠĠĠĠĠĠĠĠĠĠĠĠĠĠĠĠĠĠĠĠĠĠĠĠĠĠĠĠĠĠĠĠĠĠĠĠĠĠĠĠĠĠĠĠĠĠĠĠĠĠĠĠĠĠĠĠĠĠĠĠĠĠĠĠĠĠĠĠĠĠĠĠĠĠĠĠĠĠĠĠĠĠĠĠĠĠĠĠ":9780,"757":9781,"297":9782,"zet":9783,"Ġreducing":9784,"Ġeas":9785,"Ã¼ss":9786,"Ãªn":9787,"ĠÃĹ":9788,"Ġats":9789,"ĠBor":9790,"load":9791,"abama":9792,"Ġsustain":9793,"Ġconsists":9794,"rael":9795,"iling":9796,")....":9797,"ched":9798,"mont":9799,"reira":9800,"anal":9801,"ologists":9802,"ĠFarm":9803,"ropolitan":9804,"amente":9805,"ĠIntelligence":9806,"oti":9807,"irmed":9808,"Ġwest":9809,"Ġ165":9810,"flow":9811,"ÎķÎļ":9812,"Ġraised":9813,"Ġkohta":9814,"Ġprohibit":9815,"sko":9816,"809":9817,"Î¸Î·":9818,"251":9819,"Ġcalculate":9820,"Ġzm":9821,"Fore":9822,"ĠDashes":9823,"iny":9824,"Del":9825,"Ġengage":9826,"Ġhistorical":9827,"Ġnari":9828,"364":9829,"REP":9830,"Ġrecipient":9831,"ĠĠĊ":9832,"mselves":9833,"ITS":9834,"030":9835,"erstate":9836,"Char":9837,"ĠCONS":9838,"ÏĮÏĦÎ·ÏĦÎ±":9839,"ounds":9840,"ĠIndividual":9841,"Port":9842,"Ġdocumentation":9843,"Ġmodels":9844,"ĠPaper":9845,"ĠGross":9846,"EUT":9847,"Ġstrategic":9848,"ĠAng":9849,"Food":9850,"ĠNES":9851,"Ġpolice":9852,"ĠconformÃ©ment":9853,"atively":9854,"Ġappar":9855,"emorandum":9856,"ĠBuch":9857,"hler":9858,"ĠOTHER":9859,"cing":9860,"885":9861,"icago":9862,"vor":9863,"bass":9864,"enge":9865,"log":9866,"lah":9867,"bind":9868,"ĠCORP":9869,"unicipal":9870,"Ġmati":9871,"ermany":9872,"Ġremove":9873,"Ġ.......................................................................................................................................":9874,"isÃ©":9875,"354":9876,"Ġrent":9877,"Ġie":9878,"atum":9879,"wan":9880,"Los":9881,"-,":9882,"ĠJr":9883,"ĠJOHN":9884,"orter":9885,"ĠÎľ":9886,"Ġfinanz":9887,"Ġparent":9888,"ZZ":9889,"anÄį":9890,"ITTEE":9891,".),":9892,"040":9893,"meas":9894,"Ã¡sok":9895,"ĠRail":9896,"Ġoh":9897,"Ġjudge":9898,"itch":9899,"Over":9900,"744":9901,"vÃ©":9902,"Ġrepresented":9903,"Ġpagal":9904,"financial":9905,"ienst":9906,"787":9907,"total":9908,"Ġsampling":9909,"ussch":9910,"oline":9911,"708":9912,"ĠĊĠĠĠĠĠĠĠĠĠĠĠĠĠĠĠĠĠĠĠĠĠĠĠĠĠĠĠĠĠĠĠĠĠĠĠĠĠĠĠĠĠĠĠĠĠĠĠĠĠĠĠĠĠĠĠĠĠĠĠĠĠĠĠĠĠĠĠĠĠĠĠĠĠĠĠĠĠĠĠĠĠĠĠĠĠĠĠĠĠĠĠĠĠĠĠĠĠĠĠĠĠĠĠĠĠĠĠĠĠĠĠĠĠĠĠĠĠĠĠĠĠĠĠĠĠĠĠĠĠĠĠĠĠĠĠĠĠĠĠĠĠĠĠĠĠĠĠĠĠĠĠĠĠĠĠĠĠĠĠ":9913,"Ġaer":9914,"720":9915,"standard":9916,"ĠIndustry":9917,"Ġexpended":9918,"Ġminority":9919,"Ġpracticable":9920,"Ġseeking":9921,"contract":9922,"ÃŃv":9923,"tiiv":9924,"Ġtes":9925,"ĠValue":9926,"Ġ135":9927,"Employ":9928,"cond":9929,"ously":9930,"ĠinformaciÃ³n":9931,"ĠEF":9932,"ĠSa":9933,"EDERAL":9934,"oa":9935,"Ġmental":9936,"ĠBranch":9937,"Ġdoku":9938,"Ġang":9939,"ĠLos":9940,"ĠKÃ¶":9941,"finanz":9942,"Ġspent":9943,"âĢĿ).":9944,"Ġnurses":9945,"ativa":9946,"Ġhearings":9947,"ican":9948,"444":9949,"ĠAtlantic":9950,"Ġsense":9951,"ĠMaryland":9952,"ensity":9953,"ArtÃŃculo":9954,"Ġnegative":9955,"ischer":9956,"650":9957,").....":9958,"inas":9959,"evada":9960,"ĠHUD":9961,"ĠHen":9962,"241":9963,"Ã©ration":9964,"defaulted":9965,"758":9966,"Bar":9967,"Ġframework":9968,"Ġfest":9969,"Ã¤tt":9970,"omet":9971,"West":9972,"Ġshareholders":9973,"520":9974,"Ġlin":9975,"ĠLic":9976,"ĠBox":9977,"ĠParlament":9978,"Â¿":9979,"Ã©todo":9980,"ĠGes":9981,"ĠAltern":9982,"ÅĦst":9983,"istÃ¤":9984,"Ġadvanced":9985,"educ":9986,"365":9987,"Ġ***":9988,"people":9989,"LI":9990,"Leg":9991,"Ġportfolio":9992,"Ġveget":9993,"Ġstrategies":9994,"angible":9995,"Ġsand":9996,"ĠAssessment":9997,"CED":9998,"Me":9999,"Est":10000,"ĠGon":10001,"Class":10002,"two":10003,"ĠÏĦÎ¿ÏħÏĤ":10004,"ĠkÃ¶n":10005,"Ġproposes":10006,"Ã¼n":10007,"348":10008,"elijk":10009,"Ġbeh":10010,"263":10011,"Ã©sÃ©":10012,"like":10013,"ĠResponse":10014,"268":10015,"Ġrequis":10016,"Ġexamine":10017,"ĠConf":10018,"OUR":10019,"ĠMortgage":10020,"Î¡":10021,"Professional":10022,"Ġresidents":10023,"times":10024,"ĠRisk":10025,"Ġbud":10026,"Ġsound":10027,"ĠAssoci":10028,"Ġsamples":10029,"owe":10030,"Type":10031,"343":10032,"Ġeffectively":10033,"Ġ2024":10034,"ĠPass":10035,"Ġpractical":10036,"ĠNEW":10037,"Ġvien":10038,"Ġfon":10039,"Government":10040,"ĠlÃµ":10041,"iropas":10042,"Ġprzez":10043,"Ġeth":10044,"267":10045,"real":10046,"ĠFerreira":10047,"Ġ136":10048,"ĊĠĠĠĠĠĠĠĠĠĠĠĠĊĠĠĠĠĠĠĠĠĠĠĠĠĠĠ":10049,"Ġexped":10050,"ĠsÄħ":10051,"million":10052,"glich":10053,"Î»ÎŃ":10054,"ĠThus":10055,"Ġcenters":10056,"Ġassurance":10057,"ĠWall":10058,"DP":10059,"eph":10060,"Ġawarded":10061,"ĠIraq":10062,"Ġprepare":10063,"olesale":10064,"Ġ........................................................................................................................................":10065,"DER":10066,"Ġrendelet":10067,"ĠVe":10068,"Ã©si":10069,"716":10070,"Ġcapabilities":10071,")......":10072,"ĠMS":10073,"vertis":10074,"ĠDeputy":10075,"Ġowners":10076,"Ġhospitals":10077,"ĠUm":10078,"cipl":10079,"Ġmesures":10080,"ĠRechts":10081,"âĢ¢âĢ¢âĢ¢âĢ¢":10082,"Î¯Ïĥ":10083,"ahmen":10084,"known":10085,"graph":10086,"Ġproductos":10087,"Value":10088,"hood":10089,"Ġmetal":10090,"iol":10091,"ospod":10092,"ĠPoll":10093,"lla":10094,"070":10095,"Î³Îº":10096,"ĠFunds":10097,"halts":10098,"TM":10099,"Women":10100,"ĠPrior":10101,"illet":10102,"Ġtools":10103,"Ġlaid":10104,"ĠPROD":10105,"ticas":10106,"nas":10107,"Ġkil":10108,"Ġparlament":10109,"Ġ155":10110,"ĠHall":10111,"Î¿Î¼":10112,"anÃ¡":10113,"ĠFire":10114,"ĠPeriod":10115,"ĠHol":10116,"Ġparam":10117,"468":10118,"ichtig":10119,"invest":10120,"Ġwordt":10121,"ĠCommercial":10122,"ĠvÃ¤l":10123,"Ġbuildings":10124,"gif":10125,"ÃŃas":10126,"Ġsigu":10127,"Ġreceives":10128,"ursing":10129,"represent":10130,"ĠEarnings":10131,"Ã¼ck":10132,"iser":10133,"Ġfirms":10134,"383":10135,"utom":10136,"Ġfaith":10137,"usta":10138,"287":10139,"taining":10140,"715":10141,"ĠÎŁ":10142,"Dem":10143,"Ã¼f":10144,"fahren":10145,"innes":10146,"ections":10147,"ĠMajor":10148,"Air":10149,"acij":10150,"Ġdiagnos":10151,"ĠÃºÄį":10152,"Ġ1984":10153,"ewska":10154,"Int":10155,"Ġextr":10156,"commod":10157,"irit":10158,"Ġsimply":10159,"Ġleaders":10160,"Ġbig":10161,"ĠPeter":10162,"atav":10163,"298":10164,"Ġvirt":10165,"ĠCooper":10166,"ĠÎ±Î½Î±":10167,"asts":10168,"Mark":10169,"weg":10170,"ĠOccupational":10171,"Ġunivers":10172,"ellung":10173,"378":10174,"Ġnap":10175,"735":10176,"Î·Î³":10177,"CF":10178,"ulner":10179,"What":10180,"Ġimmediate":10181,"Ġguarantee":10182,"ĠFre":10183,"occupations":10184,"ĠMeas":10185,"inti":10186,"zial":10187,"ipping":10188,"utures":10189,"Ġbehavior":10190,"Ġchief":10191,"Ġdwar":10192,"Ġ145":10193,"rab":10194,"370":10195,"Ġthing":10196,"gn":10197,"ĠNuclear":10198,"iscuss":10199,"zenie":10200,"Amendment":10201,"458":10202,"ĠÃĦ":10203,"ĠJapan":10204,"ecting":10205,"Nov":10206,"istas":10207,"obs":10208,"252":10209,"Ġblock":10210,"257":10211,"Ġprescribe":10212,"oring":10213,"Artikolu":10214,"Ġforordning":10215,"During":10216,"Ġtips":10217,"ĠnÃ©g":10218,"ĠPrevention":10219,"Sur":10220,"Ġsubstances":10221,"ruptcy":10222,"Ġtakes":10223,"skÃ½":10224,"Ġalmost":10225,"rafo":10226,"Ġacting":10227,"Ġmanage":10228,"Dated":10229,"ĠCER":10230,"stud":10231,"Ġstage":10232,"tah":10233,"ĠAverage":10234,"ECTION":10235,"ĠÏĥÏĩÎµ":10236,"Ġcourts":10237,"ĠÎ¤":10238,"osit":10239,"Ġconfirm":10240,"Ġnone":10241,"ĠDetermin":10242,"DEC":10243,"obil":10244,"ujÃº":10245,"ĠMissouri":10246,"gren":10247,"SF":10248,"reich":10249,"ÏĢÏĦ":10250,"icio":10251,"Ġusers":10252,"ÅĽÄĩ":10253,"ĠOperators":10254,"ĠMachine":10255,"button":10256,"Ġconversion":10257,"Regist":10258,"acing":10259,"ĠBill":10260,"===":10261,"ĠRev":10262,"Ġ.........................................................................................................................................":10263,"Ġ126":10264,"iniÅ³":10265,"emption":10266,"Ġclosing":10267,"ĠCompliance":10268,"Ġ179":10269,"Prot":10270,"akota":10271,"CAS":10272,"ĠSUPPLEMENTARY":10273,"INI":10274,"fred":10275,"onsin":10276,"application":10277,"fÃ¸":10278,"elect":10279,"454":10280,"ioon":10281,"hend":10282,"ĠSi":10283,"ĠHaz":10284,"vien":10285,"Ġadministrators":10286,"Sk":10287,"Bal":10288,"halt":10289,"Ġmas":10290,"Î±ÏĤ":10291,"ĠÏĥÏį":10292,"ĠPress":10293,"midt":10294,"innesota":10295,"zek":10296,"Ġevaluated":10297,"Fl":10298,"rection":10299,"Ġenroll":10300,"ichts":10301,"ĠvÃ¤":10302,"Ġmiddle":10303,"ĠClassification":10304,"Ġdigital":10305,"ĠĊĠĠĠĠĠĠĠĠĠĠĠĠĠĠĠĠĠĠĠĠĠĠĠĠĠĠĠĠĠĠĠĠĠĠĠĠĠĠĠĠĠĠĠĠĠĠĠĠĠĠĠĠĠĠĠĠĠĠĠĠĠĠĠĠĠĠĠĠĠĠĠĠĠĠĠĠĠĠĠĠĠĠĠĠĠĠĠĠĠĠĠĠĠĠĠĠĠĠĠĠĠĠĠĠĠĠĠĠĠĠĠĠĠĠĠĠĠĠĠĠĠĠĠĠĠĠĠĠĠĠĠĠĠĠĠĠĠĠĠĠĠĠĠĠĠĠĠĠĠĠĠĠĠĠĠĠĠĠĠĠ":10306,"Ġtold":10307,"usp":10308,"first":10309,"isconsin":10310,"owned":10311,"otype":10312,"oved":10313,"ĠWell":10314,"Ġcell":10315,"ĠCall":10316,"DRESSES":10317,"fÃ©r":10318,"national":10319,"alty":10320,"342":10321,"Î¿ÏħÎ»Î¯Î¿Ïħ":10322,"466":10323,"tip":10324,"Ġgi":10325,"384":10326,"312":10327,"Description":10328,"idal":10329,"ĠÅ½":10330,"Ġmeasurement":10331,"stand":10332,"Ġuniversity":10333,"Ġdefault":10334,"396":10335,"services":10336,"Ġforma":10337,"iso":10338,"ĠÃ©tabl":10339,"Ġroom":10340,"nisse":10341,"Ġcit":10342,"Åº":10343,"452":10344,"ĠHourly":10345,"Ġkann":10346,"ĠSta":10347,"Ġdisposition":10348,"Ġoperaciones":10349,"Ġek":10350,"Ġpiec":10351,"umi":10352,"ĠGeorge":10353,"Ġconcluded":10354,"Ġuniform":10355,"Law":10356,"sche":10357,"Ġrepay":10358,"ĠOFFICE":10359,"ĠCounter":10360,"ois":10361,"Ġ128":10362,"371":10363,"ĠOp":10364,"ĠJudiciary":10365,"ĠMC":10366,"Î¼Î±ÏĦÎ±":10367,"Ġattached":10368,"ĠÏĮÏĦÎ¹":10369,"Ġ133":10370,"Ġexcluded":10371,"Securities":10372,"Ġelec":10373,"tiff":10374,"Ġthereto":10375,"ĠettÃ¤":10376,"Dr":10377,"UNITED":10378,"Ġdz":10379,"agn":10380,"ĠWhere":10381,").......":10382,"tÅ³":10383,"eft":10384,"Ġcomunit":10385,"Î¯Î½Î±Î¹":10386,"Ġinsert":10387,"Ġsubsidiary":10388,"bol":10389,"ĠTA":10390,"Ġ}":10391,"Î¸ÎµÎ¯":10392,"Ġhen":10393,"%,":10394,"ĠNATIONAL":10395,"ĠAdditional":10396,"ĠFranc":10397,"Ġtruck":10398,"ĠPrice":10399,"ĠGAO":10400,"808":10401,"Ġgeneration":10402,"Ġcoup":10403,"ĠgÃ©nÃ©":10404,"ĠAmendments":10405,"Ġoccurs":10406,"arv":10407,"ĉĠĉĠĉĠĉĠ":10408,"orum":10409,"353":10410,"payment":10411,"Ġpercentiles":10412,"262":10413,"iÄ¡":10414,"363":10415,"Ġdefinitions":10416,"Ġdiscount":10417,"Ġdetails":10418,"Bro":10419,"ĠWildlife":10420,"Ġ210":10421,"Ġconsolid":10422,"MD":10423,"ĠAcquisition":10424,"Ġphase":10425,"ĠFrance":10426,"mosph":10427,"ĠMur":10428,"aru":10429,"Ġmedian":10430,"Ġska":10431,"Ġnoteik":10432,"Ġcooperative":10433,"ĠIndex":10434,"Ġthereafter":10435,"ĠReports":10436,"ĠGard":10437,"Ġ170":10438,"producing":10439,"ĠPH":10440,"ĠCollection":10441,"hoz":10442,"wal":10443,"843":10444,"ÏģÎ®":10445,"Ġalthough":10446,"ĊĊĊĠĠ":10447,"porter":10448,"Ġproud":10449,"\":":10450,"Ġfebru":10451,"Ä«t":10452,"ĠChe":10453,"Ġreach":10454,"Ġ156":10455,"ÎķÎķ":10456,"richt":10457,"ysts":10458,"288":10459,"terior":10460,"ÏĢÎµÎ¹":10461,")*":10462,"APIT":10463,"ĠnÃ©":10464,"ĠKop":10465,"Ġimproved":10466,"ĠMississippi":10467,"Ġuseful":10468,"Ġinterim":10469,"high":10470,"orporations":10471,"ĠBon":10472,"271":10473,"Ġ[(":10474,"ĊĠĠĠĠĠĠĠĠĠĠĠĠĠĠĠĠĠĠĠĠĠĠĠĠĠĠĠĠĠĠĠĠĊĠĠĠĠĠĠĠĠĠĠĠĠĠĠĠĠĠĠĠĠĠĠĠĠĠĠĠĠĊĠĠĠĠĠĠĠĠĠĠĠĠĠĠĠĠĠĠĠĠĠĠĠĠ":10475,"Ġresulted":10476,"ĠCorp":10477,"ĠSYSTEM":10478,"Ġsponsor":10479,"341":10480,"Ġpercentile":10481,"Ġ..........................................................................................................................................":10482,"ĠFD":10483,"Ġdividends":10484,"Ġtell":10485,"means":10486,"Ġobserved":10487,"Ġbipartisan":10488,"Ġeinen":10489,"some":10490,"Å½":10491,"Ġcompens":10492,"Ġattributable":10493,"ÏīÎ³":10494,"akk":10495,"Ġcancer":10496,"Ġandere":10497,"Ġdokument":10498,"Director":10499,"Ġnotific":10500,"isms":10501,"plus":10502,"ellt":10503,"368":10504,"icer":10505,"cheid":10506,"lements":10507,"Cer":10508,"Ġwel":10509,"ĠOregon":10510,"vÄĽ":10511,"352":10512,"Ġbeneficiaries":10513,"Ġabsence":10514,"Ġvel":10515,"ĠEquipment":10516,"RIN":10517,"ĠSERVICE":10518,"Ġconj":10519,"Ġprost":10520,"Ġfeas":10521,"ihil":10522,"ĠBack":10523,"Ġ157":10524,"October":10525,"ĠUrban":10526,"within":10527,"mm":10528,"Cost":10529,"Ġaccompanying":10530,"Ġtark":10531,"ĠCondition":10532,"Ġram":10533,"Ġsupports":10534,"arding":10535,"ĠSME":10536,"377":10537,"Ries":10538,"Ġanticipated":10539,"Ġeing":10540,")........":10541,"isu":10542,"Ġ131":10543,"icon":10544,"Ġaasta":10545,"tri":10546,"ĠResults":10547,"Ġraise":10548,"ĠBorrow":10549,"385":10550,"Ġproducers":10551,"dens":10552,"Ġbod":10553,"Ġminn":10554,"olved":10555,"ĠÎķÏħÏģÏīÏĢÎ±ÏĬÎº":10556,"ĠCOUN":10557,"Ġconsumption":10558,"SD":10559,"Ġinspectors":10560,"Ġapplicants":10561,"Ġround":10562,"jem":10563,"don":10564,"provided":10565,"IVER":10566,"anda":10567,"415":10568,"bil":10569,"URR":10570,"Ġoraz":10571,"ĠPOL":10572,"Adv":10573,"ĠEmployment":10574,"ÏĩÎµÎ¹":10575,"ĠLiber":10576,"Ġsubsid":10577,"missjoni":10578,"ĠPlant":10579,"orte":10580,"261":10581,"789":10582,"ĠĠĊĠĠĠĠĠĠĠĠĠĠĠĠĠĠĠĠĠĠĠĠĠĠĠĠĠĠĠĠĠĠĠĠĠĠĠĠĠĠĠĠĠĠĠĠĠĠĠĠĠĠĠĠĠĠĠĠĠĠĠĠĠĠĠĠĠĠĠĠĠĠĠĠĠĠĠĠĠĠĠĠĠĠĠĠĠĠĠĠĠĠĠĠĠĠĠĠĠĠĠĠĠĠĠĠĠĠĠĠĠĠĠĠĠĠĠĠĠĠĠĠĠĠĠĠĠĠĠĠĠĠĠĠĠĠĠ":10583,"ĠRom":10584,"stallation":10585,"uerdo":10586,"Ġacknow":10587,"ĠMac":10588,"Ġformal":10589,"Land":10590,"ÏĦÎ¿ÏĤ":10591,"holding":10592,"individual":10593,"Ġidentifying":10594,"Ġ369":10595,"zes":10596,"erse":10597,"ritt":10598,"size":10599,"eda":10600,"VEN":10601,"ĠUl":10602,"Ġforegoing":10603,"entucky":10604,"ighe":10605,"Ġpresence":10606,"noÅĽci":10607,"ĠdrÅ¾":10608,"ĠExcept":10609,"aho":10610,"ĠÎ´ÎµÎ½":10611,"OLU":10612,"ĠMeeting":10613,"Ġcen":10614,"Met":10615,"Ġ501":10616,"ĠÂ¥":10617,"Mont":10618,"ĠSecond":10619,"ĠEnter":10620,"ĉĉĉĉĉĉĉĉĉĉĉĉĉĉĉ":10621,"case":10622,"managers":10623,"Ġapprove":10624,"embra":10625,"yg":10626,"ĠLeb":10627,"uration":10628,"Ġfootnotes":10629,"ĠPapad":10630,"Ġfine":10631,"ĠCommunications":10632,"ĠMik":10633,"Risque":10634,"753":10635,"ĠReduction":10636,"655":10637,"Ġeste":10638,"Riesgo":10639,"iction":10640,"ĊĉĠĠ":10641,"Ġarv":10642,"ĠFoundation":10643,"907":10644,"Î¹ÎºÏİÎ½":10645,"itect":10646,"ERGY":10647,"vised":10648,").........":10649,"Ġwet":10650,"Ġproportion":10651,"Sal":10652,"lew":10653,"Har":10654,"ĠCommittees":10655,"kins":10656,"iÄĻ":10657,"995":10658,"ĠSECTION":10659,"eso":10660,"eneration":10661,"Ġ270":10662,"uccess":10663,"Ãºblica":10664,"ĠZw":10665,"ĠRelease":10666,"ĠAdditionally":10667,"istory":10668,"pow":10669,"Ġdisabilities":10670,"ĠÎµÎ¯Î½Î±Î¹":10671,"ĠBased":10672,"onia":10673,"laments":10674,"Ġassistants":10675,"ĊĉĉĉĉĉĉĉĉĉĉĉĊĉĉĉĉĉĉĉĉĉĉĉ":10676,",âĢĻâĢĻ":10677,"Ġalg":10678,"ĠArizona":10679,"Bank":10680,"620":10681,"loor":10682,"274":10683,"351":10684,"ĠInspector":10685,"ĠfÃ¶":10686,"lique":10687,"Ġca":10688,"Ġmodern":10689,"articolo":10690,"Ġcleaning":10691,"495":10692,"Ġholders":10693,"Ġaware":10694,"\"),":10695,"Ġcm":10696,"ĠĠĠĊĠĠĠĠĠĠĠĠĠĠĠĠĠĠĠĠĠĠĠĠĠĠĠĠĠĠĠĠĠĠĠĠĠĠĠĠĠĠĠĠĠĠĠĠĠĠĠĠĠĠĠĠĠĠĠĠĠĠĠĠĠĠĠĠĠĠĠĠĠĠĠĠĠĠĠĠĠĠĠĠĠĠĠĠĠĠĠĠĠĠĠĠĠĠĠĠĠĠĠĠĠĠĠĠĠĠĠĠĠĠĠĠĠĠĠĠĠĠĠĠĠĠĠĠĠĠĠĠĠĠĠĠĠĠĠ":10697,"trag":10698,"Ġsoil":10699,"ĠSantos":10700,"Ġ...........................................................................................................................................":10701,"dr":10702,"ĠÅĽ":10703,"Ġreligious":10704,"Ġsets":10705,"Ġfailed":10706,"ĠRegulamento":10707,"712":10708,"how":10709,"Ġappointment":10710,"ĠHig":10711,"Ġfinding":10712,"ĠLO":10713,"tras":10714,"Ġvacations":10715,"zu":10716,"Ġexclusive":10717,"Ġsalary":10718,"Ġacid":10719,"460":10720,"Ġthemselves":10721,"ĠPolice":10722,"760":10723,"Ġmedlems":10724,"kel":10725,"ĠÃľber":10726,"otto":10727,"Ġeast":10728,"itime":10729,"Ġvalst":10730,"allow":10731,"Ġmln":10732,"ĠPod":10733,"Ġmercado":10734,"Ġelev":10735,"iera":10736,"496":10737,"(.":10738,"430":10739,"Ġadap":10740,"ĠPostal":10741,"Che":10742,"ienÄĹ":10743,"Ġinsured":10744,"ĠSupreme":10745,"atakse":10746,"311":10747,"San":10748,"Ġwent":10749,"Ġliber":10750,"Ġho":10751,"Ġauth":10752,"following":10753,"Î¼ÏĨÏīÎ½":10754,"entification":10755,"347":10756,"Ġreductions":10757,"469":10758,"Bet":10759,"ĠTrustee":10760,"astic":10761,"ĠEUROP":10762,"Ġfeatures":10763,"Ġnad":10764,"ĠPack":10765,"ĠVa":10766,"Person":10767,"Ġbanking":10768,"Ġincomple":10769,"Ġauch":10770,"ĠCertificate":10771,"Ġ134":10772,"Ġtotaling":10773,"ĠĠĊĠĠĠĠĠĠĠĠĠĠĠĠĠĠĠĠĠĠĠĠĠĠĠĠĠĠĠĠĠĠĠĠĠĠĠĠĠĠĠĠĠĠĠĠĠĠĠĠĠĠĠĠĠĠĠĠĠĠĠĠĠĠĠĠĠĠĠĠĠĠĠĠĠĠĠĠĠĠĠĠĠĠĠĠĠĠĠĠĠĠĠĠĠĠĠĠĠĠĠĠĠĠĠĠĠĠĠĠĠĠĠĠĠĠĠĠĠĠĠĠĠĠĠĠĠ":10774,"Ġtons":10775,"ĠTX":10776,"510":10777,"736":10778,"ubic":10779,"Er":10780,"ĠkÄģ":10781,"alta":10782,"345":10783,"Ġchannel":10784,"icted":10785,")..........":10786,"ipped":10787,"ĠÎºÎ±Î¸":10788,"Ġsyn":10789,"ijk":10790,"owych":10791,"February":10792,"Ġresponses":10793,"cel":10794,"Ġmuka":10795,"714":10796,"Ã¥dets":10797,"recogn":10798,"aft":10799,"cies":10800,"ghanistan":10801,"usti":10802,"ĠTribunal":10803,"Ġprotected":10804,"ositionen":10805,"ĠSchw":10806,"ĠContinued":10807,"ng":10808,"ĠImprove":10809,"Ġsous":10810,"ĠClerk":10811,"Appendix":10812,"281":10813,"tish":10814,"ĠComment":10815,"Ġannu":10816,"istry":10817,"ĠMCC":10818,"ĠOP":10819,"Ġquarterly":10820,"Ġstockholders":10821,"Ġpreferred":10822,"Ist":10823,"ĠLetter":10824,"cembre":10825,"arp":10826,"ĠParlaments":10827,"HOL":10828,"ĠCM":10829,"Mod":10830,"Ġelsewhere":10831,"ĊĊĠĠĠĠĠĠĠĠĠĠ":10832,"ĠNESOI":10833,"vs":10834,"Ã¿":10835,"ĠSpace":10836,"funded":10837,"EMA":10838,"utrition":10839,"ronically":10840,"Ġviews":10841,"ĠPoint":10842,"key":10843,"what":10844,"Ġ302":10845,"Ġdry":10846,"ĠTest":10847,"ĠdÃ©cembre":10848,"Ġpok":10849,"hd":10850,"Ġpad":10851,"361":10852,"IAN":10853,"ĠTri":10854,"Ġnamed":10855,".âĢĻâĢĻ.":10856,"uan":10857,"RU":10858,"ĠGen":10859,"ĠLoans":10860,"ĠGod":10861,"738":10862,"Ġindepend":10863,"\".":10864,"Ġsek":10865,"ressed":10866,"Ġsupervisors":10867,"abase":10868,"ĠCIRC":10869,"684":10870,"missionen":10871,"367":10872,"chev":10873,"reements":10874,"collar":10875,"struct":10876,"Ġwide":10877,"Exp":10878,"value":10879,"Ġacquire":10880,"Ġtherap":10881,"Î¼Î¬":10882,"ĠfÃ¶rordning":10883,"ĠBeg":10884,"ĊĊĠĠĠĠĠĠĠĠĠĠĠĠ":10885,"Ġassessments":10886,"Ġrelation":10887,"bach":10888,"Ġcat":10889,"during":10890,"Ġsearch":10891,"ĠvÃ½rob":10892,"allo":10893,"Ġstyle":10894,"398":10895,"Hz":10896,"Ġkoske":10897,"olament":10898,"448":10899,"Ġdraw":10900,"388":10901,"ĠEvropsk":10902,"dif":10903,"Ġneces":10904,"him":10905,"resses":10906,"ĠADMINISTR":10907,"Åĳk":10908,"insi":10909,"Ġconsiders":10910,"282":10911,"449":10912,"Ġmethodology":10913,"ĠSand":10914,"riften":10915,"ĠObama":10916,"ĠNMFS":10917,"titude":10918,"petition":10919,"Ġ............................................................................................................................................":10920,"agen":10921,"ĠfrÃ¥n":10922,"ĠUNITED":10923,"clusions":10924,"291":10925,"Ġpenalties":10926,"target":10927,"ĠCase":10928,"Ġ000000":10929,"ĠuÅ¾":10930,"Yes":10931,"Pay":10932,"Ġleading":10933,"LU":10934,"292":10935,"Ġgy":10936,"shore":10937,"Ġker":10938,"ĠME":10939,"Ġemployers":10940,"Ġbranch":10941,"Ã©v":10942,"ĠNON":10943,"ancia":10944,"ĠĊĠĠĠĠĠĠĠĠĠĠĠĠĠĠĠĠĠĠĠĠĠĠĠĠĠĠĠĠĠĠĠĠĠĠĠĠĠĠĠĠĠĠĠĠĠĠĠĠĠĠĠĠĠĠĠĠĠĠĠĠĠĠĠĠĠĠĠĠĠĠĠĠĠĠĠĠĠĠĠĠĠĠĠĠĠĠĠĠĠĠĠĠĠĠĠĠĠĠĠĠĠĠĠĠĠĠĠĠĠĠĠĠĠĠĠĠĠĠĠĠĠĠĠĠĠĠĠĠĠĠĠĠĠĠĠĠĠĠĠĠĠĠĠĠĠĠĠĠĠĠĠĠĠĠĠĠĠĠĠĠĠ":10945,"space":10946,"los":10947,"Ġboundary":10948,"ĠAlso":10949,"774":10950,"ĠEvans":10951,"ĠĊĠĠĠĠĠĠĠĠĠĠĠĠĠĠĠĠĠĠĠĠĠĠĠĠĠĠĠĠĠĠĠĠĠĠĠĠĠĠĠĠĠĠĠĠĠĠĠĠĠĠĠĠĠĠĠĠĠĠĠĠĠĠĠĠĠĠĠĠĠĠĠĠĠĠĠĠĠĠĠĠĠĠĠĠĠĠĠĠĠĠĠĠĠĠĠĠĠĠĠĠĠĠĠĠĠĠĠĠĠĠĠĠĠĠĠĠĠĠĠĠĠĠĠĠĠĠĠĠĠĠĠĠĠĠĠĠĠĠĠĠĠĠĠĠĠĠĠĠĠĠĠĠĠĠĠĠĠĠĠĠĠĠ":10952,"Î±Î³ÏīÎ³":10953,"Ġadvoc":10954,"user":10955,"ĠPlanning":10956,")...........":10957,"islative":10958,"Ġprec":10959,"ĠĊĠĠĠĠĠĠĠĠĠĠĠĠĠĠĠĠĠĠĠĠĠĠĠĠĠĠĠĠĠĠĠĠĠĠĠĠĠĠĠĠĠĠĠĠĠĠĠĠĠĠĠĠĠĠĠĠĠĠĠĠĠĠĠĠĠĠĠĠĠĠĠĠĠĠĠĠĠĠĠĠĠĠĠĠĠĠĠĠĠĠĠĠĠĠĠĠĠĠĠĠĠĠĠĠĠĠĠĠĠĠĠĠĠĠĠĠĠĠĠĠĠĠĠĠĠĠĠĠĠĠĠĠĠĠĠĠĠĠĠĠĠĠĠĠĠĠĠĠĠĠĠĠĠĠĠĠĠĠĠĠĠĠĠ":10960,"Ġdispon":10961,"ĠPor":10962,"ĠSIP":10963,"ĠĊĠĠĠĠĠĠĠĠĠĠĠĠĠĠĠĠĠĠĠĠĠĠĠĠĠĠĠĠĠĠĠĠĠĠĠĠĠĠĠĠĠĠĠĠĠĠĠĠĠĠĠĠĠĠĠĠĠĠĠĠĠĠĠĠĠĠĠĠĠĠĠĠĠĠĠĠĠĠĠĠĠĠĠĠĠĠĠĠĠĠĠĠĠĠĠĠĠĠĠĠĠĠĠĠĠĠĠĠĠĠĠĠĠĠĠĠĠĠĠĠĠĠĠĠĠĠĠĠĠĠĠĠĠĠĠĠĠĠĠĠĠĠĠĠĠĠĠĠĠĠĠĠĠĠĠĠĠĠĠĠĠĠĠĠ":10964,"Ġrecognizes":10965,"iglio":10966,"umulative":10967,"ĠMI":10968,"317":10969,"Ġbesch":10970,"entral":10971,"850":10972,"Ġacceler":10973,"except":10974,"ĠTribal":10975,"ĠAcad":10976,"atric":10977,"Ġfinancier":10978,"Ġdod":10979,"Aff":10980,"alen":10981,"Ġnaj":10982,"Ġbroker":10983,"Ġses":10984,"ĠĊĠĠĠĠĠĠĠĠĠĠĠĠĠĠĠĠĠĠĠĠĠĠĠĠĠĠĠĠĠĠĠĠĠĠĠĠĠĠĠĠĠĠĠĠĠĠĠĠĠĠĠĠĠĠĠĠĠĠĠĠĠĠĠĠĠĠĠĠĠĠĠĠĠĠĠĠĠĠĠĠĠĠĠĠĠĠĠĠĠĠĠĠĠĠĠĠĠĠĠĠĠĠĠĠĠĠĠĠĠĠĠĠĠĠĠĠĠĠĠĠĠĠĠĠĠĠĠĠĠĠĠĠĠĠĠĠĠĠĠĠĠĠĠĠĠĠĠĠĠĠĠĠĠĠĠĠĠĠĠĠĠĠĠĠĠ":10985,"Ġtrav":10986,"ĠOcean":10987,"xxxxxx":10988,"ĠĊĠĠĠĠĠĠĠĠĠĠĠĠĠĠĠĠĠĠĠĠĠĠĠĠĠĠĠĠĠĠĠĠĠĠĠĠĠĠĠĠĠĠĠĠĠĠĠĠĠĠĠĠĠĠĠĠĠĠĠĠĠĠĠĠĠĠĠĠĠĠĠĠĠĠĠĠĠĠĠĠĠĠĠĠĠĠĠĠĠĠĠĠĠĠĠĠĠĠĠĠĠĠĠĠĠĠĠĠĠĠĠĠĠĠĠĠĠĠĠĠĠĠĠĠĠĠĠĠĠĠĠĠĠĠĠĠĠĠĠĠĠĠĠĠĠĠĠĠĠĠĠĠĠĠĠĠĠĠĠĠĠĠĠĠĠĠ":10989,"Ġpotentially":10990,"Ġrecover":10991,"Comments":10992,"Ġkomis":10993,"ĠBenefits":10994,"amination":10995,"ĠÏĥÏĦ":10996,"ĠStudy":10997,"KA":10998,"ĠMR":10999,"conn":11000,"olly":11001,"314":11002,"394":11003,"Ġwie":11004,"ĠOversight":11005,"Ġaliment":11006,"vacy":11007,"Ġdates":11008,"DEM":11009,"Ġproposing":11010,"ikop":11011,"auk":11012,"Ġhazardous":11013,"Ġkm":11014,"ĠSett":11015,"adel":11016,"entif":11017,"Ġps":11018,"iÅ³":11019,"Spec":11020,"Kummissjoni":11021,"ĠSelected":11022,"Ġadminister":11023,"Ġnomination":11024,"Ġ141":11025,"Ġpreliminary":11026,"today":11027,"free":11028,"908":11029,"Ãªt":11030,"Äł":11031,"Ġviolations":11032,"Work":11033,"bell":11034,"Ġ161":11035,"third":11036,"ĠGreat":11037,"Ġdemonstrate":11038,"656":11039,"Ġalien":11040,"Ġcette":11041,"Ġrelativo":11042,"ugal":11043,"sements":11044,"icking":11045,"372":11046,"-----------":11047,"ĠfinanciaciÃ³n":11048,"ĠLibrary":11049,"ĠIowa":11050,"ĠjÃ¤":11051,"Ġhttps":11052,"Ġhealthcare":11053,"ĠaplicaciÃ³n":11054,"habilitation":11055,"Ã¼hr":11056,"QUIR":11057,"ynam":11058,"Ġsistema":11059,"ĠTECH":11060,"jal":11061,"Ġconformidad":11062,"gers":11063,"need":11064,"ĠvÃ©":11065,"Private":11066,"Ġcomparable":11067,"ĠOil":11068,"Â®":11069,"ĠMaÃŁnahmen":11070,"ĠSF":11071,"uff":11072,"Ġ||":11073,"Ġvacc":11074,"control":11075,"YS":11076,"Ġcui":11077,"1993":11078,"Ġplaces":11079,"ĠLange":11080,"Ġple":11081,"Ġanalyses":11082,"mero":11083,"board":11084,"Ã³m":11085,"Ġsummar":11086,"commencement":11087,"NOT":11088,"ĠPerformance":11089,"iga":11090,"tele":11091,"Ġnames":11092,"ĠÎķÏĢÎ¹ÏĦÏģÎ¿ÏĢÎ®":11093,"ovo":11094,"Based":11095,"ORE":11096,"ÅĻed":11097,"877":11098,"ĠFINANCIAL":11099,"Ġattack":11100,"ĠRichtlinie":11101,")............":11102,"ĠPrincipal":11103,"acity":11104,"Ġprotoc":11105,"Ġcod":11106,"ĠRecords":11107,"amount":11108,"763":11109,"eless":11110,"Ċĉĉĉĉĉĉĉĉĉĉĉĉĉ":11111,"Ãĺ":11112,"icios":11113,"resh":11114,"ĠDakota":11115,"Ġdistributed":11116,"Ġ175":11117,"Post":11118,"Ġnothing":11119,"Ġodst":11120,"Ġleases":11121,"Ġexecution":11122,"ĠEnglish":11123,"Ĺı":11124,"446":11125,"Mad":11126,"658":11127,"788":11128,"Ġsolution":11129,"Ġdividing":11130,"382":11131,"risk":11132,"cost":11133,"ya":11134,"Ã¤rk":11135,"324":11136,"ĠJohnson":11137,"family":11138,"Annual":11139,"ĠÃ¶ss":11140,"aii":11141,"Bel":11142,"Ġbiological":11143,"achment":11144,"ĠClear":11145,"Ġscen":11146,"ajÃº":11147,"ĠNations":11148,"399":11149,"Ġconducting":11150,"Ġnine":11151,"Î¿Î¹Î½Î¿":11152,"lav":11153,"Ġimproving":11154,"ahu":11155,"Ġsheet":11156,"Ġ.............................................................................................................................................":11157,"Dz":11158,"Ġsexual":11159,"Ã¹":11160,"Ġcore":11161,"ĠActivities":11162,"Ġdescribe":11163,"Ġindicates":11164,"Ġearned":11165,"Ġassemblers":11166,"Ġdemonstration":11167,"Ġstations":11168,"322":11169,"cm":11170,"lahoma":11171,"Ġconcentrations":11172,"Î¿Î¹Î½":11173,"Ġaspects":11174,"Ġerrors":11175,"Ġvz":11176,"este":11177,"Mat":11178,"Ġsolutions":11179,"otes":11180,"fficial":11181,"beg":11182,"Ġapplying":11183,"Ä«bÄģ":11184,"Ġgrounds":11185,"ĠHIV":11186,"Ġvonatkoz":11187,"Ġpartir":11188,"ĠISO":11189,"Ġskills":11190,"IZATION":11191,"Ġgiving":11192,"Ġhed":11193,"ymi":11194,"ÏģÏĩ":11195,"Ġrespondents":11196,"ĠResolution":11197,"spect":11198,"Ã©sek":11199,"rolling":11200,"Ġsan":11201,"UCTION":11202,"enie":11203,"ĠKu":11204,"ĠOTH":11205,"ĠTreaty":11206,"BB":11207,"Ġdisposal":11208,"ĠTennessee":11209,"ĠGulf":11210,"dent":11211,"Ġharvest":11212,"ieu":11213,"Budget":11214,"ĠĊĠĠĠĠĠĠĠĠĠĠĠĠĠĠĠĠĠĠĠĠĠĠĠĠĠĠĠĠĠĠĠĠĠĠĠĠĠĠĠĠĠĠĠĠĠĠĠĠĠĠĠĠĠĠĠĠĠĠĠĠĠĠĠĠĠĠĠĠĠĠĠĠĠĠĠĠĠĠĠĠĠĠĠĠĠĠĠĠĠĠĠĠĠĠĠĠĠĠĠĠĠĠĠĠĠĠĠĠĠĠĠĠĠĠĠĠĠĠĠĠĠĠĠĠĠĠĠĠĠĠĠĠĠĠĠĠĠĠĠĠĠĠĠĠĠĠĠĠĠĠĠĠĠĠĠĠĠĠĠĠĠĠĠĠĠĠĠ":11215,"ĠSm":11216,"ĠÃ¡ll":11217,"dorf":11218,"JN":11219,"Ġreserves":11220,"ĠRico":11221,"ĠDet":11222,"Dav":11223,"Ġcircul":11224,"iex":11225,"Ġstake":11226,"ĠInte":11227,"Ġgoverning":11228,"Ġrapid":11229,"ĠSenators":11230,"Ġexpenditure":11231,"Ġbad":11232,"Code":11233,"tile":11234,"ĠrozporzÄħd":11235,"ommen":11236,"Ġsurveillance":11237,"being":11238,"Ġassumed":11239,"Î¼Î±ÏĦÎ¿ÏĤ":11240,"Ġskup":11241,"tia":11242,"Î¥":11243,"izada":11244,"Ġplatform":11245,"Ġthreats":11246,"Ġanimals":11247,"Ġbackground":11248,"OCK":11249,"Ġainsi":11250,"ĠFO":11251,"pat":11252,"ĠPursuant":11253,").............":11254,"457":11255,"Ġfiles":11256,"Ġadvice":11257,"agne":11258,"umulated":11259,"ĠAward":11260,"ĠChanges":11261,"ondere":11262,"Ġbeneficiary":11263,"313":11264,"Ġ144":11265,"ĠLands":11266,"ĠĠĠĊĠĠĠĠĠĠĠĠĠĠĠĠĠĠĠĠĠĠĠĠĠĠĠĠĠĠĠĠĠĠĠĠĠĠĠĠĠĠĠĠĠĠĠĠĠĠĠĠĠĠĠĠĠĠĠĠĠĠĠĠĠĠĠĠĠĠĠĠĠĠĠĠĠĠĠĠĠĠĠĠĠĠĠĠĠĠĠĠĠĠĠĠĠĠĠĠĠĠĠĠĠĠĠĠĠĠĠĠĠĠĠĠĠĠĠĠĠĠĠĠĠĠĠĠĠĠĠĠĠĠĠĠĠĠĠĠĊĠ":11267,"Ġmaintaining":11268,"SG":11269,"Ġrozhod":11270,"vod":11271,"orig":11272,"ively":11273,"ANN":11274,"cie":11275,"540":11276,"zÃ¡lez":11277,"aje":11278,"aintiff":11279,"Information":11280,"Ġsaf":11281,"ĠmarchÃ©":11282,"Ġissuer":11283,"ĠSoci":11284,"inking":11285,"Ġtom":11286,"ENTS":11287,"Ġfinancement":11288,"Å«t":11289,"ĠÄ¡":11290,"ĠPUR":11291,"AF":11292,"anv":11293,"Ġweb":11294,"ECR":11295,"Ġduration":11296,"endants":11297,"Ġregulated":11298,"held":11299,"posal":11300,"ĠIRS":11301,"Ġnas":11302,"ovÃ¡nÃŃ":11303,"453":11304,"prop":11305,"ĠEuroopa":11306,"iÄĭ":11307,"855":11308,"aty":11309,"Will":11310,"ITE":11311,"ÃŃfic":11312,"ATA":11313,"Nor":11314,"ĠSom":11315,"area":11316,"ĠPow":11317,"ĠGonzÃ¡lez":11318,"ĠActing":11319,"ĠAdjust":11320,"provide":11321,"height":11322,"0086":11323,"leges":11324,"ĠlÃ©g":11325,"Ġuser":11326,"Ġmining":11327,"ĠĠĠĊĠ":11328,"kos":11329,"Ġempresas":11330,"ĠIMP":11331,"Ġcomme":11332,"Ġcontext":11333,"vertising":11334,"Ġ700":11335,"397":11336,"ĠSubtitle":11337,"Ġsuc":11338,"Ġvoluntary":11339,"jÃ¡n":11340,"RET":11341,"ĠKap":11342,"ÏĪÎ·":11343,"Ġcomprom":11344,"ÅĨem":11345,"onsors":11346,"ĠNich":11347,"Ġseven":11348,"Ġobjective":11349,"Ġleur":11350,"ĠPAY":11351,"Social":11352,"Ġrecreation":11353,"Ġscale":11354,"GAS":11355,"Ġgenerated":11356,"DEPARTMENT":11357,"Ġload":11358,"ģĦ":11359,"ÏģÏİ":11360,"enth":11361,"Author":11362,"irtschaft":11363,"Ġ..............................................................................................................................................":11364,"\\<":11365,"ĠAIR":11366,"Ġamending":11367,"ĠIndiana":11368,"ĠBalance":11369,"ĠComputer":11370,"Ġspre":11371,"Ġdischarg":11372,"TAIN":11373,"Ã©sz":11374,"STAFF":11375,"Thursday":11376,"LES":11377,"Od":11378,"Ġlaborers":11379,"512":11380,"ĠDezember":11381,"rah":11382,"ument":11383,"Ġzd":11384,"grant":11385,"ĠMassachusetts":11386,"ĠConvention":11387,"Ġvoted":11388,"crit":11389,"Ġdeliveries":11390,")..............":11391,"ĊĊĉĉĉĉĉĉĉĉ":11392,"bas":11393,"rift":11394,"Ġformat":11395,"803":11396,"ĠMiscellaneous":11397,"ĠMichael":11398,"Ġaccrued":11399,"ĊĊĠĠĠĠĊĊĠĠĠĠ":11400,"ĠMonth":11401,"Ġsuggested":11402,"ordan":11403,"âģĦ":11404,"Ġappreci":11405,"Ãªte":11406,"born":11407,"ticut":11408,"ĠJackson":11409,"Don":11410,"ÏģÎ¿Ïį":11411,"judic":11412,"ĠBil":11413,"ĠModel":11414,"ĊĊĠĠĠĠĠĠĠĠĠĠĠĠĠĠĠĠĠĠĠĠĠĠĠĠĠ":11415,"otte":11416,"Ġterritor":11417,"ae":11418,"ĠOfficers":11419,"spÃ³l":11420,"060":11421,"ĠLouisiana":11422,"Ġgrand":11423,"Ġconvey":11424,"Ġinvestigations":11425,"material":11426,"Ġ203":11427,"js":11428,"ĠHead":11429,"ĠOPER":11430,"Ġpursu":11431,"zeich":11432,"Î´Î¹Îº":11433,"eric":11434,"ixed":11435,"Ġblz":11436,"patient":11437,"ORS":11438,"full":11439,"ĠExcluded":11440,"reach":11441,"Ġtypically":11442,"Ġhel":11443,"ĠAccordingly":11444,"orschriften":11445,"inese":11446,"igu":11447,"MÃ©todo":11448,"Ġcrime":11449,"Ġprojected":11450,"Cash":11451,"391":11452,"Ġadministra":11453,"739":11454,"management":11455,"ĠFour":11456,"applic":11457,"869":11458,"464":11459,"Ġresc":11460,"Ġ502":11461,"Ġnumerous":11462,"necticut":11463,"Ġalternatives":11464,"Ġweapons":11465,"iciembre":11466,"Ġanalyz":11467,"orne":11468,"Ġensuring":11469,"Ġprosec":11470,"Ġworkforce":11471,"ĠLes":11472,"ĠDelaware":11473,"EMP":11474,"ĠSever":11475,"Ġpanel":11476,"amo":11477,"Ġstay":11478,"876":11479,"ĠYour":11480,"amas":11481,"hover":11482,"ÏģÎ¿Ïħ":11483,"chafts":11484,"mine":11485,"318":11486,"Ġconvention":11487,"Ġfi":11488,"ysical":11489,"Ġleveled":11490,"length":11491,"ĠKommissionen":11492,"looking":11493,"Ġ406":11494,"ĠNow":11495,"ĠspÃ©cial":11496,"Ġcorresponding":11497,"ICA":11498,"Ġlaik":11499,"Ġdisplay":11500,"ĠRepublik":11501,"itro":11502,"ikopositionen":11503,"Tuesday":11504,"astos":11505,"Ġdepth":11506,"Ġcoming":11507,"Ġsou":11508,"ĠMel":11509,"310001":11510,"Ġconclusion":11511,"Ġfit":11512,"otton":11513,"ĠUND":11514,"ĠTransfer":11515,"Ġdiciembre":11516,"ĠnÃµ":11517,"Ġchairman":11518,"Ġproperly":11519,"Ġprohibited":11520,"Ġhon":11521,"Ġheat":11522,"ĠDise":11523,"onsider":11524,"atta":11525,"ĠKMU":11526,"criptions":11527,"Ġpresident":11528,"Ġfulf":11529,"lar":11530,"ĠConference":11531,"Ġpunto":11532,"ellect":11533,"ãĥ":11534,"stoff":11535,"inÄĹs":11536,"Ġkontrol":11537,"hof":11538,"Ġaddresses":11539,"Ġ1977":11540,"Ġmentioned":11541,"igo":11542,"Unit":11543,"alis":11544,"ĠVill":11545,"362":11546,"hicle":11547,"ĠPas":11548,"Ġunf":11549,"Ġ298":11550,"Ġsquare":11551,"Ġzak":11552,"reb":11553,"them":11554,"HER":11555,"Ġreleased":11556,"Ġdistin":11557,"lete":11558,"Ġliik":11559,"ENSE":11560,"Ġconten":11561,"Dist":11562,"ĠHighway":11563,"Ġexpansion":11564,"ĠÎ¼ÎµÏĦÎ±":11565,"ws":11566,"ĠPÃ©":11567,"Ġsuit":11568,"Ber":11569,"ĠWestern":11570,"393":11571,"Ġvary":11572,"ĠCMS":11573,"ĠĠĠĊĠĠĠĠ":11574,"Administrative":11575,"Ã®":11576,"note":11577,"Text":11578,"Ġquick":11579,"Ġmatch":11580,"Ġori":11581,"provid":11582,"aushalts":11583,"ĠComitÃ©":11584,"ĠPeople":11585,"ĠaÃ±":11586,"aceu":11587,"Ġeliminate":11588,"ĠSie":11589,"ĠField":11590,"market":11591,"Ġrailroad":11592,"essions":11593,"raj":11594,"zm":11595,"Ġvisit":11596,"Ġ350":11597,"ĠDurch":11598,"stater":11599,"Ġmodifi":11600,"Ġreimbursement":11601,"Ġquantity":11602,"ĠElectronic":11603,"PRI":11604,"Ġ1976":11605,"oln":11606,"Ġ402":11607,"emorial":11608,"ĠEngineering":11609,"734":11610,"jected":11611,"Ġamely":11612,"ĠNorthern":11613,"ĠFont":11614,"ĠIndians":11615,"Ġcual":11616,"Ġlisting":11617,"Ġsono":11618,"ĠĠĊĠĠĠĠĠĠĠĠĠĠĠĠĠĠĠĠĠĠĠĠĠĠĠĠĠĠĠĠĠĠĠĠĠĠĠĠĠĠĠĠĠĠĠĠĠĠĠĠĠĠĠĠĠĠĠĠĠĠĠĠĠĠĠĠĠĠĠĠĠĠĠĠĠĠĠĠĠĠĠĠĠĠĠĠĠĠĠĠĠĠĠĠĠĠĠĠĠĠĠĠĠĠĠĠĠĠĠĠĠĠĠĠĠĠĠĠĠĠĠĠĠĠĠĠĠĊĠ":11619,"Ġarrangement":11620,"Ġ...............................................................................................................................................":11621,"ĠÃ©g":11622,")...............":11623,"Ġstructures":11624,"TN":11625,"card":11626,"ĠOverall":11627,"Ġholder":11628,"onk":11629,"443":11630,"ĠHy":11631,"ĠEG":11632,"ĠEvaluation":11633,"560":11634,"Ġ374":11635,"Ġbreak":11636,"administ":11637,"Ġ138":11638,"Ġtoxic":11639,"ĠIX":11640,"Ġpharm":11641,"ifth":11642,"etz":11643,"ĠArt":11644,"ĠDecisiÃ³n":11645,"uster":11646,"888":11647,"Ġfrequency":11648,"ondo":11649,"rieb":11650,"loc":11651,"Ġdisaster":11652,"det":11653,"ience":11654,"OO":11655,"Î¯ÎµÏĤ":11656,"Ġ168":11657,"eding":11658,"Ġreplacement":11659,"Ġcolum":11660,"Ġ1983":11661,"ĠBow":11662,"aler":11663,"ocational":11664,"Ġstabil":11665,"Ġmessage":11666,"Ġtables":11667,"asso":11668,"acon":11669,"Ġcorrec":11670,"Ġlab":11671,"Ġartiklan":11672,"kend":11673,"ricted":11674,"ĠOH":11675,"Ġ1970":11676,"Ġ207":11677,"465":11678,"Approche":11679,"ĠÎµÏĨ":11680,"Î·ÏĥÎ·":11681,"Ġ505":11682,"Ġdependent":11683,"ĠÎ£Ïħ":11684,"UNG":11685,"PSE":11686,"766":11687,"LAND":11688,"sl":11689,"Ġprospec":11690,"utsch":11691,"Ġcents":11692,"Cla":11693,"Ġciti":11694,"jest":11695,"Ġizm":11696,"Î·Î¼":11697,"aves":11698,"AZ":11699,"ersch":11700,"------------------------------------------------------------------------------------------------":11701,"Ġprocurement":11702,"Ġgovernmental":11703,"555":11704,"ĠSC":11705,"ĠGrants":11706,"Ġ127":11707,"Ãªncia":11708,"ĠSuper":11709,"Ġacademic":11710,"Ġ412":11711,"kraine":11712,"ball":11713,"ĊĉĉĉĉĉĉĊĉĉĉĉĉĉ":11714,"ossa":11715,"ĠPuerto":11716,"Ġmai":11717,"640":11718,"ĠFE":11719,"Ġinfluence":11720,"ytt":11721,"Ġsays":11722,"elijke":11723,"Ġsupplement":11724,"Ġtend":11725,"463":11726,"ĠvÄĽst":11727,"Ġcombat":11728,"Ġpattern":11729,"Ġgrup":11730,"ĠEw":11731,"important":11732,"Ġsecured":11733,"ĠKy":11734,"Ġdov":11735,"Äģcijas":11736,"Bo":11737,"Ã³ÅĤ":11738,"884":11739,"Mill":11740,"Ġrepresenting":11741,"Ġupdated":11742,"ĠpouÅ¾":11743,"Ġnust":11744,"pi":11745,"supp":11746,"Ġarising":11747,"Ġdiese":11748,"ĠMiddle":11749,"879":11750,"ĠNetwork":11751,"ĠPhil":11752,"November":11753,"isti":11754,"Ġeight":11755,"ĠSK":11756,"ĠtÃ¶":11757,"Address":11758,"insurance":11759,"Fair":11760,"IEC":11761,"make":11762,"769":11763,"ĠGy":11764,"cell":11765,"ĠjÃº":11766,"ĠTier":11767,"Ġrecommends":11768,"cle":11769,"Ġ185":11770,"jsk":11771,"ĠChildren":11772,"895":11773,"ĠCOR":11774,"Ã©ge":11775,"Ġ251":11776,"zej":11777,"ĠĊĠĠĠĠĠĠĠĠĠĠĠĠĠĠĠĠĠĠĠĠĠĠĠĠĠĠĠĠĠĠĠĠĠĠĠĠĠĠĠĠĠĠĠĠĠĠĠĠĠĠĠĠĠĠĠĠĠĠĠĠĠĠĠĠĠĠĠĠĠĠĠĠĠĠĠĠĠĠĠĠĠĠĠĠĠĠĠĠĠĠĠĠĠĠĠĠĠĠĠĠĠĠĠĠĠĠĠĠĠĠĠĠĠĠĠĠĠĠĠĠĠĠĠĠĠĠĠĠĠĠĠĠĠĠĠĠĠĠĠĠĠĠĠĠĠĠĠĠĠĠĠĠĠĠĠĠĠĠĠĠĠĠĠĠĠĠĠĠ":11778,"dev":11779,"yen":11780,"ĠBru":11781,"737":11782,"Ġkeine":11783,"1990":11784,"Ġ238":11785,"ĠCapitol":11786,"ĠCam":11787,"mal":11788,"ĠThom":11789,"general":11790,"Ã¼nd":11791,"Eff":11792,"ĠHistor":11793,"NM":11794,"Äı":11795,"Î¹ÎºÎ®ÏĤ":11796,"Ġ801":11797,"Ġskal":11798,"quir":11799,"Ġinitiatives":11800,"Ġolder":11801,"Ġattempt":11802,"ĠRespond":11803,")................":11804,"Ġcontribute":11805,"Ġproducing":11806,"494":11807,"Ðº":11808,"ĠREPORTS":11809,"Ġvaluation":11810,"Ġtribes":11811,"ĠCHAIR":11812,"ailing":11813,"Ġ159":11814,"Ġrock":11815,"Ġ158":11816,"Ġmanaged":11817,"Ġties":11818,"They":11819,"Ġprompt":11820,"Ġtras":11821,"ruption":11822,"ĠBAS":11823,"ĠEstim":11824,"Ġderech":11825,"ĠBat":11826,"Ġ132":11827,"''.":11828,"ĠdÃ©faut":11829,"aka":11830,"win":11831,"Ġvulner":11832,"Ġshowing":11833,"Ġpain":11834,"Ġalkal":11835,"Ġuns":11836,"Ġorg":11837,"ĠConsumer":11838,"ĠMas":11839,"ĠBend":11840,"Ġgrowing":11841,"osto":11842,"ÏĮÎ³":11843,"Ġdeze":11844,"447":11845,"ĠFinanz":11846,"Ġcraft":11847,"ĠCategory":11848,"anÃ¡cs":11849,"Ġconflict":11850,"Ġtool":11851,"Ġdistance":11852,"Ġ................................................................................................................................................":11853,"Ġ499":11854,"ĠAnhang":11855,"intas":11856,".)(":11857,"eta":11858,"ĠOption":11859,"Ġpov":11860,"JY":11861,"ivel":11862,"Apr":11863,"conduct":11864,"irty":11865,"ĠEnvironment":11866,"Ġsov":11867,"avad":11868,"quarters":11869,"usel":11870,"claim":11871,"Ġheight":11872,"nega":11873,"god":11874,"room":11875,"Ġbecomes":11876,"âĢĲ":11877,"alement":11878,"ĠKenn":11879,"Ġkr":11880,"school":11881,"498":11882,"cour":11883,"August":11884,"ĠIL":11885,"amental":11886,"After":11887,"Ġeurope":11888,"Ġgeographic":11889,"SECUR":11890,"ĠRelative":11891,"Ġdnia":11892,"ĠSchul":11893,"feet":11894,"Fil":11895,"UDG":11896,"halten":11897,"ĠSubpart":11898,"rollo":11899,"Ġprogramme":11900,"\\],":11901,"small":11902,"jar":11903,"risti":11904,"ultaneous":11905,"467":11906,"424":11907,"IONS":11908,"ĠauÃŁer":11909,"Ġcalls":11910,"Ġcommand":11911,"ĠMON":11912,"Ġasp":11913,"ĠFed":11914,"Ġ211":11915,"ĠÄįlensk":11916,"Pe":11917,"plom":11918,"ĠManufacturing":11919,"Ġsod":11920,"Ġprzy":11921,"PI":11922,"Ġreached":11923,"employees":11924,"Ġlk":11925,"local":11926,"0000000":11927,"Ġ178":11928,"ÏĦÎ¹ÏĤ":11929,"amps":11930,"Ġjuni":11931,"hl":11932,"392":11933,"Ġdecline":11934,"poÄį":11935,"Ġwid":11936,"Ġdatos":11937,"direct":11938,"Ġlug":11939,"Ġdivided":11940,"Ġcycle":11941,"Ġmodify":11942,"Ġpriorities":11943,"Ġnim":11944,"Ġ333":11945,"Smith":11946,"autres":11947,"rero":11948,"Ã©rt":11949,"ĠBrown":11950,"Ġ306":11951,"Ġ450":11952,"izs":11953,"Ġwor":11954,"Ġfill":11955,"quer":11956,"ETER":11957,"Estimated":11958,"Ġnod":11959,"Ġmodifications":11960,"Ġcosp":11961,"ĠNevada":11962,"Ġfourth":11963,"Ġpomoc":11964,"Ġcampaign":11965,"tij":11966,"ĠBern":11967,"Ä¡Ä¡":11968,"Ġpartie":11969,"-.":11970,"Ġcomplaint":11971,"Ġ<=":11972,"Ġ552":11973,"ĠClark":11974,"Ġallowing":11975,"cr":11976,"Construction":11977,"Ġvested":11978,"encer":11979,"Ġ404":11980,"ĠEll":11981,"rech":11982,"Ġhum":11983,"aser":11984,"Ġcited":11985,"Ġents":11986,"Ġadministered":11987,"ĠperÃŃ":11988,"Case":11989,"Ġadvisory":11990,"oÄį":11991,"Ġ1979":11992,"opoulos":11993,"CONS":11994,"orders":11995,"enstein":11996,"Ġgene":11997,"Ġsupplemental":11998,"ogu":11999,"ĠKansas":12000,"Ġ____________________":12001,"Equ":12002,"ttiva":12003,").................":12004,"interest":12005,"ĠFrancis":12006,"319":12007,"Ġfollowed":12008,"ĠAlabama":12009,"Ġpublish":12010,"children":12011,"Ġsubsequently":12012,"ĠEC":12013,"554":12014,"Ġdanger":12015,"Ġdeduc":12016,"ĠProvisions":12017,"atically":12018,"esa":12019,"akov":12020,"Ġvictims":12021,"Ġgains":12022,"Ġacceptable":12023,"ĠRural":12024,"Ġdoit":12025,"ĠPÃ©rez":12026,"381":12027,"Ġliquidity":12028,"ĠAgu":12029,"470":12030,"organization":12031,"ĠEiropas":12032,"sent":12033,"IRE":12034,"Ġcust":12035,"Chairman":12036,"ĠScott":12037,"Inc":12038,"Ġexpiration":12039,"Miscellaneous":12040,"Ġrul":12041,"Current":12042,"Ġincenti":12043,"Ġ375":12044,"ĠInfrastructure":12045,"annexe":12046,"ography":12047,"867":12048,"950":12049,"Low":12050,"Ġattorney":12051,"ÏģÎ±ÏĦ":12052,"Ġzwischen":12053,"Ġmedi":12054,"Ġ215":12055,"ĠASSIST":12056,"ĠWA":12057,"Ġcarriers":12058,"Ġkuri":12059,"ĠPayment":12060,"ĠÏĨ":12061,"ptroller":12062,"Wednesday":12063,"Ġgeb":12064,"iÄį":12065,"partie":12066,"ĠEuropos":12067,"ĠLIM":12068,"Ġwood":12069,"ategor":12070,"ĠvÅ¡":12071,"ĠTrump":12072,"reason":12073,"316":12074,"Ġszer":12075,"minute":12076,"ows":12077,"Ġnonproduction":12078,"Î¼ÏĮÏĤ":12079,"Ġpool":12080,"ĠkÃ¶vet":12081,"Ġband":12082,"Ġsharing":12083,"ĠLat":12084,"Ġmaterially":12085,"Î±Îº":12086,"Production":12087,"HN":12088,"MER":12089,"angered":12090,"ĠRichard":12091,"Ġfolg":12092,"Ġaccuracy":12093,"497":12094,"ĠÌĪ":12095,"Feb":12096,"Ġbirth":12097,"quisitions":12098,"ĠCenters":12099,"Ġ220":12100,"GO":12101,"Ġlis":12102,"Ġ601":12103,"ĠSy":12104,"Ġdegli":12105,"utral":12106,"amble":12107,"Ġ212":12108,"ĠVis":12109,"886":12110,"kansas":12111,"ĠStan":12112,"vity":12113,"ĊĊĠĠĠĠĠĠĠ":12114,"ĠLE":12115,"328":12116,"Ġmaks":12117,"OVERN":12118,"ĠÎ±ÏĢ":12119,"329":12120,"451":12121,"ulk":12122,"Ġdecreased":12123,"Ġcapability":12124,"777":12125,"Ġsmaller":12126,"ĠCensus":12127,"Special":12128,"Ġfields":12129,"746":12130,"ĠTeil":12131,"Ġant":12132,"Ġwurde":12133,"Ġflexibility":12134,"Ġaver":12135,"ĠEnts":12136,"Ben":12137,"asion":12138,"urant":12139,"arante":12140,"ĠUnits":12141,"Ġfront":12142,"aired":12143,"wendung":12144,"Ġcorporations":12145,"ĠLife":12146,"ĠpÅĻed":12147,"Ġmovement":12148,"Ġjanv":12149,"jÄħ":12150,"Ġsurveys":12151,"ctu":12152,"ĠLocal":12153,"411":12154,"Å¡Ä·":12155,"ĠCommun":12156,"Ġhun":12157,"Ġvil":12158,"Ġ.................................................................................................................................................":12159,"ĠktorÃ©":12160,"Ġ163":12161,"ĠmÃ©":12162,"Ġreviews":12163,"501":12164,"Ġmile":12165,"ĠENERGY":12166,"Ġdeficit":12167,"ishment":12168,"Ġreturns":12169,"Ġaccurate":12170,"ĠManager":12171,"Ġ1000":12172,"Ġbag":12173,"fficking":12174,"Ġpossession":12175,"Ã¶ss":12176,"Ġspeak":12177,"859":12178,"442":12179,"nell":12180,"Ġies":12181,"Labor":12182,"ĠNic":12183,"anje":12184,"Ġcomer":12185,"ikke":12186,"Ãītat":12187,"Ġvend":12188,"Ġmot":12189,"ĠÃĸ":12190,"768":12191,"Out":12192,"ĠBase":12193,"Ġdamages":12194,"Ã¦ll":12195,"erein":12196,"Ġ149":12197,"gas":12198,"807":12199,"Ġ142":12200,"ĠAlex":12201,"bid":12202,"Ġrepairers":12203,"ston":12204,"892":12205,"Speaker":12206,"795":12207,"Ġelectronically":12208,"Ġspl":12209,"Ġfem":12210,"Ġspraw":12211,")..................":12212,"ĠJo":12213,"opulation":12214,"630":12215,"Ġletters":12216,"ĠHill":12217,"Ġ1965":12218,"ĠĊĊ":12219,"Ã¡st":12220,"ĠĊĠĠĠĠĠĠĠĠĠĠĠĠĠĠĠĠĠĠĠĠĠĠĠĠĠĠĠĠĠĠĠĠĠĠĠĠĠĠĠĠĠĠĠĠĠĠĠĠĠĠĠĠĠĠĠĠĠĠĠĠĠĠĠĠĠĠĠĠĠĠĠĠĠĠĠĠĠĠĠĠĠĠĠĠĠĠĠĠĠĠĠĠĠĠĠĠĠĠĠĠĠĠĠĠĠĠĠĠĠĠĠĠĠĠĠĠĠĠĠĠĠĠĠĠĠĠĠĠĠĠĠĠĠĠĠĠĠĠĠĠĠĠĠĠĠĠĠĠĠĠĠĠĠĠĠĠĠĠĠĠĠĠĠĠĠĠĠĠĠ":12221,"Ġbend":12222,"Ġfewer":12223,"geleg":12224,"OMB":12225,"Ġ208":12226,"ieb":12227,"Ġvalor":12228,"significant":12229,"Ġtat":12230,"Ġupor":12231,"Å¡ÃŃ":12232,"International":12233,"ĠLegal":12234,"Å¼y":12235,"ĊĠĠĠĠĠĠĠĠĠĠĠĠĠĠĠĠĠĠĠĠĠĠĠĠĠĠĠĠĊĠĠĠĠĠĠĠĠĠĠĠĠĠĠĠĠĠĠĠĠĠĠĠĠĠĠĠĠĠĠĠĠĊĠĠĠĠĠĠĠĠĠĠĠĠĠĠĠĠĠĠĠĠĠĠĠĠĠĠĠĠĊĠĠĠĠĠĠĠĠĠĠĠĠĠĠĠĠĠĠĠĠĠĠĠĠ":12236,"imÄħ":12237,"ĠEuroopan":12238,"ĠPad":12239,"Ġdeclared":12240,"Ġresidential":12241,"actors":12242,"anes":12243,"Ġoutl":12244,"Ġ164":12245,"ĠFar":12246,"Regolament":12247,"ĠCut":12248,"ĊĠĠĠĠĠĠĠĠĠĠĠĠĠĠĠĠĠĠĠĠĠĠĠĠĠĠĠĠĊĠĠĠĠĠĠĠĠĠĠĠĠĠĠĠĠĠĠĠĠĠĠĠĠĠĠĠ":12249,"ĠBRO":12250,"490":12251,"ĠWho":12252,"echa":12253,"Ġfun":12254,"Ġexplan":12255,"858":12256,"panic":12257,"TOTAL":12258,"549":12259,"ĠBelg":12260,"Ġ152":12261,"Ġspouse":12262,"itu":12263,"ller":12264,"Ġlpp":12265,"Li":12266,"ĠKorea":12267,"ĠChicago":12268,"ĠFamily":12269,"sible":12270,"ĠRap":12271,"Ġregardless":12272,"Ġ162":12273,"Ġaccident":12274,"ĊĠĠĠĠĠĠĠĠĠĠĠĠĠĠĠĠĠĠĠĠĠĠĠĠĠĠĠĠĠĠĠĠĠĠĠĠĠĠĠĠĠĠĠĠĠĠĠĠĠĠĠĠĠĠĠĠĠĠĠĠĠĠĠĠĠĠĠĠĠĠĠĠĠĠĠĠĠĠĠĠĠĠĠĠĠĠĠĠĠĠĠĠĠĠĠĠĠĠĠĠĠĠĠĠĠĠĠĠĠĠĠĠĠĠĠĠĠĠĠĠĠĠĠĠĠĠ":12275,"610":12276,"ĠĊĠĠĠĠĠĠĠĠĠĠĠĠĠĠĠĠĠĠĠĠĠĠĠĠĠĠĠĠĠĠĠĠĠĠĠĠĠĠĠĠĠĠĠĠĠĠĠĠĠĠĠĠĠĠĠĠĠĠĠĠĠĠĠĠĠĠĠĠĠĠĠĠĠĠĠĠĠĠĠĠĠĠĠĠĠĠĠĠĠĠĠĠĠĠĠĠĠĠĠĠĠĠĠĠĠĠĠĠĠĠĠĠĠĠĠĠĠĠĠĠĠĠĠĠĠĠĠĠĠĠĠĠĠĠĠĠĠĠĠĠĠĠĠĠĠĠĊĠ":12277,"Ġconsidering":12278,"848":12279,"711":12280,"anden":12281,"Ġgli":12282,"Ġtrying":12283,"lects":12284,"ĠNichol":12285,"Ġyra":12286,"ĊĠĠĠĠĠĠĠĠĠĠĠĠĠĠĠĠĠĠĠĠĠĠĠĠĠĠĠĠĠĠĠĠĠĠĠĠĠĠĠĠĠĠĠĠĠĠĠĠĠĠĠĠĠĠĠĠĠĠĠĠĠĠĠĠĠĠĠĠĠĠĠĠĠĠĠĠĠĠĠĠĠĠĠĠĠĠĠĠĠĠĠĠĠĠĠĠĠĠĠĠĠĠĠĠĠĠĠĠĠĠĠĠĠĠĠĠĠĠĠĠĠĠĠĠĠĠĠ":12287,"Account":12288,"ĠEwrop":12289,"iset":12290,"pers":12291,"ĠWiel":12292,"ĊĠĠĠĠĠĠĠĠĠĠĠĠĠĠĠĠĠĠĠĠĠĠĠĠĠĠĠĠĠĠĠĠĠĠĠĠĠĠĠĠĠĠĠĠĠĠĠĠĠĠĠĠĠĠĠĠĠĠĠĠĠĠĠĠĠĠĠĠĠĠĠĠĠĠĠĠĠĠĠĠĠĠĠĠĠĠĠĠĠĠĠĠĠĠĠĠĠĠĠĠĠĠĠĠĠĠĠĠĠĠĠĠĠĠĠĠĠĠĠĠĠĠĠĠĠĠĠĠ":12293,"Ġzero":12294,"Ġsimple":12295,"Pat":12296,"Ġ206":12297,"inez":12298,"Ġclasses":12299,"ĠÃĦnder":12300,"because":12301,"Water":12302,"Notes":12303,"ĠEEE":12304,"Ġ167":12305,"ĠPersonnel":12306,"stance":12307,"ĠKr":12308,"ĠMaintenance":12309,"Ġexecuted":12310,"Ġaffecting":12311,"Ġcompos":12312,"ĊĠĠĠĠĠĠĠĠĠĠĠĠĠĠĠĠĠĠĠĠĠĠĠĠĠĠĠĠĠĠĠĠĠĠĠĠĠĠĠĠĠĠĠĠĠĠĠĠĠĠĠĠĠĠĠĠĠĠĠĠĠĠĠĠĠĠĠĠĠĠĠĠĠĠĠĠĠĠĠĠĠĠĠĠĠĠĠĠĠĠĠĠĠĠĠĠĠĠĠĠĠĠĠĠĠĠĠĠĠĠĠĠĠĠĠĠĠĠĠĠĠĠĠĠĠĠĠĠĠ":12313,"ĠCharles":12314,"iku":12315,"itoring":12316,"ĠType":12317,"ĠArbe":12318,"ĠnaÅĻÃŃzenÃŃ":12319,"ĠAfrican":12320,"appropriate":12321,"Ġtut":12322,"Å¡Äį":12323,"Ġsistem":12324,"ĠAmount":12325,"cd":12326,"jÄĻ":12327,"Business":12328,"ATIVE":12329,"Ġmaxim":12330,"Ġcodes":12331,"ecuciÃ³n":12332,"856":12333,"462":12334,"412":12335,"Ġaby":12336,"ĠChemical":12337,"Ġheavy":12338,"atories":12339,"\",\"":12340,"Ġplanned":12341,"tet":12342,"Ġmarzo":12343,"tically":12344,"iture":12345,"tidumping":12346,"rench":12347,"Ġconstrued":12348,"embro":12349,"Ġcomes":12350,"ĠProcedures":12351,"Ġminute":12352,"Ġ----------------------------":12353,"ĠkÃ¶nnen":12354,"ĠbÅ«ti":12355,"Ġwww":12356,"Ġcommodities":12357,"atok":12358,"889":12359,"Exhibit":12360,"Frank":12361,"Ġgreen":12362,"Ġsubmissions":12363,"ĠWy":12364,"Ġrapport":12365,"EIGN":12366,"ĠBull":12367,"kor":12368,"ovat":12369,"insch":12370,"898":12371,"ĠMann":12372,"Ġmort":12373,"ALS":12374,"ĠAssets":12375,"Fax":12376,"zÅĳ":12377,"arten":12378,"ĊĉĉĉĉĉĉĉĊĉĉĉĉĉĉĉĊĉĉĉĉĉĉĉ":12379,"objection":12380,"stock":12381,"Ä¾a":12382,"Ġ..................................................................................................................................................":12383,"Ġpermission":12384,"Ġ190":12385,"ĠRece":12386,"SEN":12387,"could":12388,"ĠCY":12389,"tigen":12390,"ĠAF":12391,"Ġsupervis":12392,"Ġalone":12393,"Ġ1950":12394,"nav":12395,"grad":12396,"Ġregions":12397,"ĠRepublicans":12398,"ĠDIEM":12399,"Ġemph":12400,"Ġtik":12401,"inqu":12402,")...................":12403,"1992":12404,"tained":12405,"435":12406,"Ġinformed":12407,"Ġger":12408,"ĠLight":12409,"386":12410,"ĠDescription":12411,"iewicz":12412,"Ġdedicated":12413,"upp":12414,"SIGN":12415,"OK":12416,"working":12417,"Ġpon":12418,"Ġwildlife":12419,"Ġdepartments":12420,"Ġ209":12421,"(-":12422,"ÄĻd":12423,"Ã¤lt":12424,"Ġspect":12425,"nÃŃho":12426,"itus":12427,"680":12428,"ĠdonnÃ©es":12429,"arÃ¡n":12430,"SW":12431,"Ġthereby":12432,"Ġcond":12433,"BC":12434,"**(":12435,"ĠUtah":12436,"ĠnÃ©gociation":12437,"Ġtribe":12438,"Ġexternal":12439,"Â±":12440,"Ġcontrepartie":12441,"Ġstrike":12442,"ĠEastern":12443,"community":12444,"Ġdoct":12445,"ĠAgricultural":12446,"strÃ¶m":12447,"Ġcolor":12448,"Ġwhite":12449,"Ãºmero":12450,"Ġrisque":12451,"Ġswap":12452,"654":12453,"Ġlitigation":12454,"itte":12455,"Ġpassenger":12456,"Ġgestion":12457,"ĠSupervisors":12458,"847":12459,"Ġbeslut":12460,"RY":12461,"Ġpassage":12462,"owania":12463,"AME":12464,"eni":12465,"Ġsought":12466,"878":12467,"aranteed":12468,"Ġeuropea":12469,"Ġphysician":12470,"0003":12471,"Ġoral":12472,"Ġpak":12473,"PRM":12474,"adu":12475,"Ġhy":12476,"ĠTop":12477,"Kredit":12478,"ORATION":12479,"tail":12480,"Ġ506":12481,"ĠWeek":12482,"796":12483,"ĠAk":12484,")}":12485,"Ġ147":12486,"berger":12487,"Ġveik":12488,"Ġ510":12489,"VEY":12490,"ellectual":12491,"896":12492,"ORY":12493,"Ġhelpers":12494,"Ġ423":12495,"annual":12496,"Ġsuperior":12497,"EARING":12498,"ĠIsrael":12499,"ISC":12500,"ĠREQUIR":12501,"Ital":12502,"egenparte":12503,"ĠGold":12504,"whether":12505,"Ġfigure":12506,"ĠREGUL":12507,"Ġcalculation":12508,"California":12509,"Ġsubstituted":12510,"inner":12511,"ĠImpact":12512,"aÃ±":12513,"politi":12514,"Comput":12515,"ÎµÎ»":12516,"996":12517,"Ġinternet":12518,"iri":12519,"verse":12520,"mitments":12521,"ISO":12522,"Ġtreaty":12523,"Ġgegen":12524,"Ġwells":12525,"entre":12526,"Ġ248":12527,"alo":12528,"Ġabsol":12529,"essÃ¤":12530,"373":12531,"Ġmars":12532,"foot":12533,"530":12534,"Ã¤rg":12535,"Ġ\\*":12536,"deb":12537,"Ġmem":12538,"ĠMaterials":12539,"Î´Î¹Î±":12540,"Ġdru":12541,"aca":12542,"ÃŃr":12543,"Let":12544,"475":12545,"Direc":12546,"ouver":12547,"Ġprofessionals":12548,"Ġspeed":12549,"Ġliter":12550,"ĠWood":12551,"ediment":12552,"shire":12553,"326":12554,"ischarge":12555,"asti":12556,"auc":12557,"letes":12558,"ĠCBO":12559,"Ġlicensed":12560,"Indicate":12561,"ĠPir":12562,"Ġmanufacture":12563,"ĠPrac":12564,"Ġmais":12565,"Ġveteran":12566,"SOC":12567,"Ġbook":12568,"Îĵ":12569,"Äĵro":12570,"Ġvolunte":12571,"ĠPosition":12572,"ÏģÎŃÏĢÎµÎ¹":12573,"istant":12574,"Ġrecipients":12575,"Ġ...................................................................................................................................................":12576,"Ġ143":12577,"AGE":12578,"ĠHans":12579,"Ġclerical":12580,"ĠFisheries":12581,"Ġremarks":12582,"arek":12583,"ĠSECURITY":12584,"Ġmachinery":12585,"625":12586,"Ġconserv":12587,"âĢ²âĢ²":12588,"Ġpossib":12589,"rity":12590,"ĠRet":12591,"Ter":12592,"mens":12593,"OND":12594,"Ġcontractors":12595,"bry":12596,"Ġundersigned":12597,"Ġrelatively":12598,"aming":12599,"post":12600,"Ġ20549":12601,"ĠCOL":12602,"ĠMap":12603,"Ġoutcomes":12604,"Î³ÏģÎ±ÏĨÎ¿":12605,"zig":12606,"Ġfocused":12607,"Arch":12608,"ĠBulletin":12609,"\\.":12610,"Ġ416":12611,"uesta":12612,"Ġdim":12613,"Ġdissem":12614,"ĠÄĮ":12615,"member":12616,"andemic":12617,"Ġnormas":12618,"opoulou":12619,"GI":12620,"441":12621,"ceedings":12622,"Ġmarked":12623,"rada":12624,"864":12625,"Ġregime":12626,"Hand":12627,"Ġrental":12628,"ĠHor":12629,"ĠTrading":12630,"ĠDue":12631,"ĠCour":12632,"Ġexpertise":12633,"ÅĤo":12634,"Ġ225":12635,"840":12636,"ĠCosts":12637,"Op":12638,"Ġcollateral":12639,"jÅ³":12640,"Ġdirektiiv":12641,"875":12642,"viÄįi":12643,"rust":12644,"Ġpractition":12645,"Ġterritory":12646,"effective":12647,"ĠProc":12648,"ICS":12649,").,":12650,"andise":12651,"Ġpret":12652,"Ã¡c":12653,"Vol":12654,"Ġmeasurements":12655,"VELOP":12656,"ĠDEL":12657,"Ġqualify":12658,"overty":12659,"Ġimports":12660,"Average":12661,"Ġarbit":12662,"Ġtherein":12663,"Ġprote":12664,"Ġalleged":12665,"Ġhomes":12666,"ommend":12667,"ĠGU":12668,"Ġtry":12669,"874":12670,"vÃµ":12671,"Ed":12672,"otov":12673,"iete":12674,"ube":12675,"ĠCAL":12676,"Ġexists":12677,"War":12678,"inson":12679,"323":12680,"Ġserves":12681,")....................":12682,"ĠprocÃ©d":12683,"ĠGew":12684,"osen":12685,"Ġfreedom":12686,"cience":12687,"------":12688,"Red":12689,"Ġefter":12690,"Ġresident":12691,"Ġ173":12692,"upon":12693,"Ġpunk":12694,"illon":12695,"Ġvu":12696,"Ġwelfare":12697,"nal":12698,"ĠRoy":12699,"access":12700,"amment":12701,"VAL":12702,"EZ":12703,"ĠOptions":12704,"Ġrealiz":12705,"Å¡anu":12706,"ĠOfficial":12707,"Ġjudges":12708,"Ġtrain":12709,"Ġdirektiv":12710,"Ġfriends":12711,"Ġaccommod":12712,"ĠStrateg":12713,"Time":12714,"ĠcontrÃ´":12715,"Ġthought":12716,"Ġdecided":12717,"ĠÄ«":12718,"998":12719,"Ġconcurrent":12720,"423":12721,"666":12722,"ĠKoch":12723,"many":12724,"UMENT":12725,"ĠĊĠĠĠĠĠĠĠĠĠĠĠĠĠĠĠĠĠĠĠĠĠĠĠĠĠĠĠĠĠĠĠĠĠĠĠĠĠĠĠĠĠĠĠĠĠĠĠĠĠĠĠĠĠĠĠĠĠĠĠĠĠĠĠĠĠĠĠĠĠĠĠĠĠĠĠĠĠĠĠĠĠĠĠĠĠĠĠĠĠĠĠĠĠĠĠĠĠĠĠĠĠĠĠĠĠĠĠĠĠĠĠĠĠĠĠĠĠĠĠĠĠĠĠĠĠĠĠĠĠĠĠĠĠĠĠĠĠĠĠĠĠĠĠĠĠĠĠĠĠĠĠĠĠĠĠĠĠĠĠĠĠĠĠĠĠĠĠĠĠĠ":12726,"ountry":12727,"strument":12728,"iox":12729,"Ġordinary":12730,"incorporated":12731,"nica":12732,"461":12733,"Ġsignific":12734,"wareness":12735,"Ġ378":12736,"iert":12737,"Ġexceeds":12738,"ĠAdvis":12739,"uxemb":12740,"FIN":12741,"Ġdisag":12742,"ĠRahmen":12743,"Ġestab":12744,"ÏĨÎ¿ÏģÎ¬":12745,"790":12746,"ĠGovernor":12747,"695":12748,"556":12749,"WASHINGTON":12750,"ĠDATE":12751,"Ġnur":12752,"ĠEuropa":12753,"HP":12754,"eenkom":12755,"ĠINS":12756,"Ġmitig":12757,"Ġrace":12758,"Ġ388":12759,"ĠHospital":12760,"Ġassessed":12761,"718":12762,"mediate":12763,"Ġpeut":12764,"Ġmoved":12765,"Ġconsequences":12766,"ĠReal":12767,"Ġgenom":12768,"852":12769,"gio":12770,"ÅĤa":12771,"379":12772,"Ġwarrants":12773,"Ġ169":12774,"Ġ137":12775,"xi":12776,"Ġ1981":12777,"Black":12778,"Ã³k":12779,"taa":12780,"Ġacqu":12781,"Ġmamm":12782,"ÄĻp":12783,"opim":12784,"enny":12785,"bles":12786,"ĠHoldings":12787,"Ġobtaining":12788,"ARDS":12789,"oblig":12790,"sam":12791,"atura":12792,"Ġdenied":12793,"According":12794,"Ġcultural":12795,"Ġcadre":12796,"Ġ1975":12797,"Ġrelationships":12798,"Ġkok":12799,"ĠÄįlÃ¡nku":12800,"kezd":12801,"Ġtariff":12802,"GENERAL":12803,"Ġ....................................................................................................................................................":12804,"696":12805,"ĠFerr":12806,"Â£":12807,"Applic":12808,"iversary":12809,"Ġdemonstrated":12810,"ĠMinnesota":12811,"FICATION":12812,"ĠRussia":12813,"CN":12814,"ĠRub":12815,"Miss":12816,"Åĳs":12817,"Ġcontraparte":12818,"ĠXV":12819,"Ġperforming":12820,"Ġallowances":12821,"Ġnovember":12822,"Sept":12823,"1111":12824,"leet":12825,"grund":12826,"Ġrevisions":12827,"using":12828,"ĠMIN":12829,"ĠÏħÏĢÏĮ":12830,"493":12831,"illi":12832,"include":12833,"uridad":12834,"tation":12835,"Ð´":12836,"ĠExhibits":12837,"inkler":12838,"Ã¡ri":12839,"mist":12840,"rais":12841,"413":12842,"Ġbien":12843,"voz":12844,"TD":12845,"Engine":12846,"sufficient":12847,"Ġyhteis":12848,"ĠCirc":12849,"Ġcompati":12850,"ĠBasin":12851,"Ġ303":12852,"ĠZone":12853,"Ġpackage":12854,"Ġdien":12855,"820":12856,"Ġextraction":12857,"ĊĊĉĉ":12858,"viously":12859,"Ġ172":12860,"Ã©rÃ©":12861,"ĠPurchase":12862,"ticide":12863,"570":12864,"ĠLaboratory":12865,"Ġcategor":12866,"ĠUni":12867,"ĠWisconsin":12868,"ĠConselho":12869,"Ġsis":12870,"assung":12871,"Ġterminate":12872,"ningar":12873,"Ġinches":12874,"ISA":12875,"Ġformation":12876,"amilies":12877,"ĠProf":12878,"Ġanalysts":12879,"utch":12880,"ĠEuropese":12881,"yse":12882,"endent":12883,"ĠĠĠĠĊĠĠĠĠĠĠĠĠĠĠĠĠĠĠĠĠĠĠĠĠĠĠĠĠĠĠĠĠĠĠĠĠĠĠĠĠĠĠĠĠĠĠĠĠĠĠĠĠĠĠĠĠĠĠĠĠĠĠĠĠĠĠĠĠĠĠĠĠĠĠĠĠĠĠĠĠĠĠĠĠĠĠĠĠĠĠĠĠĠĠĠĠĠĠĠĠĠĠĠĠĠĠĠĠĠĠĠĠĠĠĠĠĠĠĠĠĠĠĠĠĠĠĠĠĠĠĠĠĠĠĠĠĠĠĠĠĊĠ":12884,"ĠHIGH":12885,"Ġhyd":12886,"tico":12887,"ENN":12888,"rus":12889,"Ġmandatory":12890,"between":12891,"ieder":12892,"anych":12893,"Ġcertif":12894,"same":12895,"ĠAfghanistan":12896,"Ġskall":12897,"Ġsubdivision":12898,").....................":12899,"ĠCommand":12900,"ielle":12901,"contin":12902,"ĠProm":12903,"Ġbridge":12904,"ebted":12905,"ĠConsiglio":12906,"Ġsug":12907,"Ġtaik":12908,"prototype":12909,"Ã¥l":12910,"otycz":12911,"stone":12912,"ĠJO":12913,"ĠSchmidt":12914,"chell":12915,"ĠPur":12916,"rowth":12917,"Ġexact":12918,"Ġcontempl":12919,"ĠMonday":12920,"Ġdisclosed":12921,"eschÃ¤":12922,"Supp":12923,"spr":12924,"ecki":12925,"COATED":12926,"FER":12927,"Ġ166":12928,"Å¾io":12929,"Ġminimize":12930,"iveau":12931,"zzjoni":12932,"Ġball":12933,"ONS":12934,"ĠpolÃŃ":12935,"fourth":12936,"Ġ409":12937,"Ġclosely":12938,"mp":12939,"EMBER":12940,"uba":12941,"Ġmise":12942,"ĠpÃ¤Ã¤t":12943,"Ġâī¤":12944,"ĠAgencies":12945,"bacco":12946,"710":12947,"868":12948,"DOCS":12949,"relating":12950,"Ġautoridades":12951,"licher":12952,"fallrisiko":12953,"ĊĊĊĠĊĊ":12954,"ĠCOM":12955,"ierungs":12956,"uct":12957,"autor":12958,"Ġ151":12959,"ĠUtil":12960,"ĠLang":12961,"uti":12962,"icos":12963,"Ġots":12964,"askaÅĨ":12965,"Ġweather":12966,"Ġpropose":12967,"Tex":12968,"Ġcandidate":12969,"VOL":12970,"Cu":12971,"titions":12972,"geant":12973,"YME":12974,"aylor":12975,"Ġintegrated":12976,"Ġcondic":12977,"Ã©cur":12978,"Ġreconsider":12979,"Î¹ÎºÎ¿Ïį":12980,"Ġ237":12981,"Response":12982,"Ġexposed":12983,"Ġcredits":12984,"osing":12985,"Ġ606":12986,"ĠMorgan":12987,"loÅ¾":12988,"While":12989,"Av":12990,"programs":12991,"TIONAL":12992,"egenparteiaus":12993,"Ġdeterminations":12994,"416":12995,"Ġvariable":12996,"Î¹ÎºÎŃÏĤ":12997,"ĠFunding":12998,"subsection":12999,"Ġzo":13000,"Us":13001,"ĠCONGRESS":13002,"Ġpresents":13003,"Scott":13004,"ĠVorleistungen":13005,"ĊĉĉĉĉĉĉĉĉĉĊĉĉĉĉĉĉĉĉĉ":13006,"090":13007,"Ġinformations":13008,"egenparteiausfallrisiko":13009,"Ġmine":13010,"0005":13011,"Ear":13012,"lowing":13013,"utos":13014,"ĠBlue":13015,"Ġvolum":13016,"heid":13017,
[...]
